{
  "version": "1.0",
  "truncation": null,
  "padding": null,
  "added_tokens": [
    {
      "id": 0,
      "content": "<|endoftext|>",
      "single_word": false,
      "lstrip": false,
      "rstrip": false,
      "normalized": false,
      "special": true
    },
    {
      "id": 1,
      "content": "<pad>",
      "single_word": false,
      "lstrip": false,
      "rstrip": false,
      "normalized": false,
      "special": true
    },
    {
      "id": 2,
      "content": "<unk>",
      "single_word": false,
      "lstrip": false,
      "rstrip": false,
      "normalized": false,
      "special": true
    }
  ],
  "normalizer": null,
  "pre_tokenizer": {
    "type": "ByteLevel",
    "add_prefix_space": false,
    "trim_offsets": true,
    "use_regex": true
  },
  "post_processor": {
    "type": "ByteLevel",
    "add_prefix_space": true,
    "trim_offsets": false,
    "use_regex": true
  },
  "decoder": {
    "type": "ByteLevel",
    "add_prefix_space": true,
    "trim_offsets": true,
    "use_regex": true
  },
  "model": {
    "type": "BPE",
    "dropout": null,
    "unk_token": null,
    "continuing_subword_prefix": null,
    "end_of_word_suffix": null,
    "fuse_unk": false,
    "byte_fallback": false,
    "ignore_merges": false,
    "vocab": {
      "<|endoftext|>": 0,
      "<pad>": 1,
      "<unk>": 2,
      "!": 3,
      "\"": 4,
      "#": 5,
      "$": 6,
      "%": 7,
      "&": 8,
      "'": 9,
      "(": 10,
      ")": 11,
      "*": 12,
      "+": 13,
      ",": 14,
      "-": 15,
      ".": 16,
      "/": 17,
      "0": 18,
      "1": 19,
      "2": 20,
      "3": 21,
      "4": 22,
      "5": 23,
      "6": 24,
      "7": 25,
      "8": 26,
      "9": 27,
      ":": 28,
      ";": 29,
      "<": 30,
      "=": 31,
      ">": 32,
      "?": 33,
      "@": 34,
      "A": 35,
      "B": 36,
      "C": 37,
      "D": 38,
      "E": 39,
      "F": 40,
      "G": 41,
      "H": 42,
      "I": 43,
      "J": 44,
      "K": 45,
      "L": 46,
      "M": 47,
      "N": 48,
      "O": 49,
      "P": 50,
      "Q": 51,
      "R": 52,
      "S": 53,
      "T": 54,
      "U": 55,
      "V": 56,
      "W": 57,
      "X": 58,
      "Y": 59,
      "Z": 60,
      "[": 61,
      "\\": 62,
      "]": 63,
      "^": 64,
      "_": 65,
      "`": 66,
      "a": 67,
      "b": 68,
      "c": 69,
      "d": 70,
      "e": 71,
      "f": 72,
      "g": 73,
      "h": 74,
      "i": 75,
      "j": 76,
      "k": 77,
      "l": 78,
      "m": 79,
      "n": 80,
      "o": 81,
      "p": 82,
      "q": 83,
      "r": 84,
      "s": 85,
      "t": 86,
      "u": 87,
      "v": 88,
      "w": 89,
      "x": 90,
      "y": 91,
      "z": 92,
      "{": 93,
      "|": 94,
      "}": 95,
      "~": 96,
      "¡": 97,
      "¢": 98,
      "£": 99,
      "¤": 100,
      "¥": 101,
      "¦": 102,
      "§": 103,
      "¨": 104,
      "©": 105,
      "ª": 106,
      "«": 107,
      "¬": 108,
      "®": 109,
      "¯": 110,
      "°": 111,
      "±": 112,
      "²": 113,
      "³": 114,
      "´": 115,
      "µ": 116,
      "¶": 117,
      "·": 118,
      "¸": 119,
      "¹": 120,
      "º": 121,
      "»": 122,
      "¼": 123,
      "½": 124,
      "¾": 125,
      "¿": 126,
      "À": 127,
      "Á": 128,
      "Â": 129,
      "Ã": 130,
      "Ä": 131,
      "Å": 132,
      "Æ": 133,
      "Ç": 134,
      "È": 135,
      "É": 136,
      "Ê": 137,
      "Ë": 138,
      "Ì": 139,
      "Í": 140,
      "Î": 141,
      "Ï": 142,
      "Ð": 143,
      "Ñ": 144,
      "Ò": 145,
      "Ó": 146,
      "Ô": 147,
      "Õ": 148,
      "Ö": 149,
      "×": 150,
      "Ø": 151,
      "Ù": 152,
      "Ú": 153,
      "Û": 154,
      "Ü": 155,
      "Ý": 156,
      "Þ": 157,
      "ß": 158,
      "à": 159,
      "á": 160,
      "â": 161,
      "ã": 162,
      "ä": 163,
      "å": 164,
      "æ": 165,
      "ç": 166,
      "è": 167,
      "é": 168,
      "ê": 169,
      "ë": 170,
      "ì": 171,
      "í": 172,
      "î": 173,
      "ï": 174,
      "ð": 175,
      "ñ": 176,
      "ò": 177,
      "ó": 178,
      "ô": 179,
      "õ": 180,
      "ö": 181,
      "÷": 182,
      "ø": 183,
      "ù": 184,
      "ú": 185,
      "û": 186,
      "ü": 187,
      "ý": 188,
      "þ": 189,
      "ÿ": 190,
      "Ā": 191,
      "ā": 192,
      "Ă": 193,
      "ă": 194,
      "Ą": 195,
      "ą": 196,
      "Ć": 197,
      "ć": 198,
      "Ĉ": 199,
      "ĉ": 200,
      "Ċ": 201,
      "ċ": 202,
      "Č": 203,
      "č": 204,
      "Ď": 205,
      "ď": 206,
      "Đ": 207,
      "đ": 208,
      "Ē": 209,
      "ē": 210,
      "Ĕ": 211,
      "ĕ": 212,
      "Ė": 213,
      "ė": 214,
      "Ę": 215,
      "ę": 216,
      "Ě": 217,
      "ě": 218,
      "Ĝ": 219,
      "ĝ": 220,
      "Ğ": 221,
      "ğ": 222,
      "Ġ": 223,
      "ġ": 224,
      "Ģ": 225,
      "ģ": 226,
      "Ĥ": 227,
      "ĥ": 228,
      "Ħ": 229,
      "ħ": 230,
      "Ĩ": 231,
      "ĩ": 232,
      "Ī": 233,
      "ī": 234,
      "Ĭ": 235,
      "ĭ": 236,
      "Į": 237,
      "į": 238,
      "İ": 239,
      "ı": 240,
      "Ĳ": 241,
      "ĳ": 242,
      "Ĵ": 243,
      "ĵ": 244,
      "Ķ": 245,
      "ķ": 246,
      "ĸ": 247,
      "Ĺ": 248,
      "ĺ": 249,
      "Ļ": 250,
      "ļ": 251,
      "Ľ": 252,
      "ľ": 253,
      "Ŀ": 254,
      "ŀ": 255,
      "Ł": 256,
      "ł": 257,
      "Ń": 258,
      "er": 259,
      "an": 260,
      "st": 261,
      "in": 262,
      "ant": 263,
      "ou": 264,
      "ss": 265,
      "ing": 266,
      "ist": 267,
      "Ass": 268,
      "Us": 269,
      "istant": 270,
      "Assistant": 271,
      "User": 272,
      "Ġt": 273,
      "oo": 274,
      "en": 275,
      "Ġa": 276,
      "Ġy": 277,
      "Ġyou": 278,
      "ft": 279,
      "ood": 280,
      "do": 281,
      "Ġg": 282,
      "at": 283,
      "Ġw": 284,
      "Ġh": 285,
      "or": 286,
      "ex": 287,
      "<|": 288,
      "|>": 289,
      "endo": 290,
      "ftex": 291,
      "endoftex": 292,
      "endoftext": 293,
      "ĠH": 294,
      "ow": 295,
      "'s": 296,
      "Ġth": 297,
      "el": 298,
      "Ġs": 299,
      "re": 300,
      "Ġto": 301,
      "gh": 302,
      "Ġgood": 303,
      "ĠG": 304,
      "Ġi": 305,
      "Ġm": 306,
      "Ġn": 307,
      "ĠGood": 308,
      "igh": 309,
      "ight": 310,
      "ay": 311,
      "ĠHow": 312,
      "hat": 313,
      "Ġc": 314,
      "th": 315,
      "Ġyour": 316,
      "oon": 317,
      "Ġd": 318,
      "'m": 319,
      "ĠI": 320,
      "Ġe": 321,
      "al": 322,
      "Ġev": 323,
      "Ġf": 324,
      "noon": 325,
      "ernoon": 326,
      "fternoon": 327,
      "Ġday": 328,
      "Ġo": 329,
      "ening": 330,
      "ning": 331,
      "orning": 332,
      "oing": 333,
      "Ġit": 334,
      "âĢ": 335,
      "ĠâĢ": 336,
      "ĠâĢĶ": 337,
      "ell": 338,
      "Ġb": 339,
      "out": 340,
      "Ġafternoon": 341,
      "Ġevening": 342,
      "bout": 343,
      "Ġabout": 344,
      "me": 345,
      "Ġnight": 346,
      "Ġgoing": 347,
      "Ġmorning": 348,
      "Ġfor": 349,
      "ar": 350,
      "Ġwell": 351,
      "Ġhow": 352,
      "Ġdo": 353,
      "thing": 354,
      "ĠW": 355,
      "alk": 356,
      "Ġso": 357,
      "Ġtalk": 358,
      "op": 359,
      "ope": 360,
      "Ġhe": 361,
      "Ġthan": 362,
      "Ġthank": 363,
      "ad": 364,
      "on": 365,
      "ee": 366,
      "ly": 367,
      "ere": 368,
      "Ġof": 369,
      "ĠWhat": 370,
      "Ġthanks": 371,
      "Ġthe": 372,
      "Ġare": 373,
      "Ġon": 374,
      "Ġbe": 375,
      "ind": 376,
      "ything": 377,
      "as": 378,
      "ĠT": 379,
      "Ġhel": 380,
      "Ġhelp": 381,
      "ĠHope": 382,
      "Ġwhat": 383,
      "Ġha": 384,
      "ith": 385,
      "orr": 386,
      "ot": 387,
      "ĠS": 388,
      "Ġwith": 389,
      "ve": 390,
      "ke": 391,
      "orry": 392,
      "Ġl": 393,
      "ĠA": 394,
      "Ġj": 395,
      "right": 396,
      "reat": 397,
      "tt": 398,
      "Ġal": 399,
      "Ġdoing": 400,
      "erything": 401,
      "Ġeverything": 402,
      "Ġsome": 403,
      "ough": 404,
      "eep": 405,
      "ĠM": 406,
      "pp": 407,
      "Ġhear": 408,
      "Ġsm": 409,
      "Ġwant": 410,
      "Ġthing": 411,
      "est": 412,
      "Ġchat": 413,
      "Ġalright": 414,
      "ld": 415,
      "ould": 416,
      "ver": 417,
      "ĠN": 418,
      "Ġthere": 419,
      "ion": 420,
      "ath": 421,
      "Ġre": 422,
      "ĠThat": 423,
      "ĠD": 424,
      "Ġor": 425,
      "Ġfar": 426,
      "leep": 427,
      "Ġbeen": 428,
      "Ġhere": 429,
      "Ġthat": 430,
      "Ġu": 431,
      "Ġsorry": 432,
      "ust": 433,
      "Ġjust": 434,
      "Ġthings": 435,
      "rett": 436,
      "retty": 437,
      "ĠMorning": 438,
      "Ġst": 439,
      "Ġsoon": 440,
      "Ġp": 441,
      "Ġnot": 442,
      "ake": 443,
      "Ġcan": 444,
      "Ġsomething": 445,
      "ey": 446,
      "ĠHey": 447,
      "lad": 448,
      "ĠGlad": 449,
      "ual": 450,
      "Ġcas": 451,
      "Ġcasual": 452,
      "day": 453,
      "Ġtoday": 454,
      "ime": 455,
      "ello": 456,
      "ore": 457,
      "sel": 458,
      "Ġyoursel": 459,
      "Ġyourself": 460,
      "ye": 461,
      "ome": 462,
      "Ġhapp": 463,
      "ent": 464,
      "Ġhave": 465,
      "Ġreal": 466,
      "'t": 467,
      "Ġmind": 468,
      "wn": 469,
      "Ġdown": 470,
      "Ġup": 471,
      "Rest": 472,
      "ĠRest": 473,
      "ooth": 474,
      "Ġhope": 475,
      "Ġif": 476,
      "Ġsmooth": 477,
      "Ġsmoothly": 478,
      "Ġne": 479,
      "ĠDoing": 480,
      "Ġwould": 481,
      "Ġhead": 482,
      "ct": 483,
      "ater": 484,
      "Ġlater": 485,
      "Ġcon": 486,
      "Ġoff": 487,
      "ation": 488,
      "ĠAfternoon": 489,
      "ch": 490,
      "'re": 491,
      "Ġwind": 492,
      "Ġwinding": 493,
      "rough": 494,
      "Ġas": 495,
      "Ġwas": 496,
      "Ġhappy": 497,
      "Ġtreat": 498,
      "Ġtreating": 499,
      "Ġheading": 500,
      "Pretty": 501,
      "ĠPretty": 502,
      "Ġnew": 503,
      "Ġgreat": 504,
      "king": 505,
      "ĠTake": 506,
      "et": 507,
      "Ġwe": 508,
      "ĠWant": 509,
      "ather": 510,
      "Ġreally": 511,
      "Ev": 512,
      "ĠEv": 513,
      "Ġwent": 514,
      "ĠEvening": 515,
      "Ġmore": 516,
      "Ġbu": 517,
      "You": 518,
      "come": 519,
      "ĠYou": 520,
      "Ġwel": 521,
      "Ġone": 522,
      "Ġwelcome": 523,
      "are": 524,
      "ĠHello": 525,
      "Ġasking": 526,
      "ĠAn": 527,
      "ĠHi": 528,
      "Ġweather": 529,
      "art": 530,
      "Ġstart": 531,
      "se": 532,
      "Ġk": 533,
      "ce": 534,
      "act": 535,
      "Ġbed": 536,
      "sation": 537,
      "versation": 538,
      "Ġconversation": 539,
      "Ġtight": 540,
      "ĠSleep": 541,
      "ĠNight": 542,
      "Ġme": 543,
      "lan": 544,
      "Ġplan": 545,
      "night": 546,
      "Ġgoodnight": 547,
      "Ġcare": 548,
      "Ġsee": 549,
      "ĠSorry": 550,
      "'d": 551,
      "Ġsleep": 552,
      "Ġch": 553,
      "ed": 554,
      "ci": 555,
      "eel": 556,
      "Ġfeel": 557,
      "Ġin": 558,
      "time": 559,
      "oke": 560,
      "Ġbad": 561,
      "Ġjoke": 562,
      "all": 563,
      "Ġsmall": 564,
      "Ġli": 565,
      "Ġapp": 566,
      "reci": 567,
      "Ġappreci": 568,
      "Ġappreciat": 569,
      "bye": 570,
      "Ġtime": 571,
      "Ġout": 572,
      "Ġan": 573,
      "Ġnow": 574,
      "ĠNo": 575,
      "Ġhon": 576,
      "estly": 577,
      "Ġhonestly": 578,
      "le": 579,
      "uch": 580,
      "Ġmuch": 581,
      "Ġhey": 582,
      "Ġsu": 583,
      "nd": 584,
      "ound": 585,
      "Ġno": 586,
      "Ġtough": 587,
      "Ġrough": 588,
      "Ġna": 589,
      "ract": 590,
      "istract": 591,
      "ata": 592,
      "Ġdistract": 593,
      "Ġdata": 594,
      "Ġjokes": 595,
      "Ġdistraction": 596,
      "Ġthrough": 597,
      "Ġway": 598,
      "Ġcould": 599,
      "kay": 600,
      "ytime": 601,
      "Ġver": 602,
      "Ġgot": 603,
      "Ġokay": 604,
      "ĠAnytime": 605,
      "Ġvery": 606,
      "Ġis": 607,
      "Ġhi": 608,
      "Ġmy": 609,
      "and": 610,
      "Ġhand": 611,
      "Ġint": 612,
      "mp": 613,
      "omp": 614,
      "Ġcomp": 615,
      "Ġfeeling": 616,
      "ĠSee": 617,
      "Ġgo": 618,
      "Ġkind": 619,
      "ue": 620,
      "Ġappreciate": 621,
      "Ġright": 622,
      "Ġat": 623,
      "ain": 624,
      "Ġdon": 625,
      "Ġpretty": 626,
      "ort": 627,
      "un": 628,
      "Ġget": 629,
      "ĠDo": 630,
      "Ġinto": 631,
      "ave": 632,
      "ĠHave": 633,
      "ĠGoodbye": 634,
      "Ġrest": 635,
      "ĠAnything": 636,
      "og": 637,
      "Bye": 638,
      "ec": 639,
      "il": 640,
      "ĠBye": 641,
      "Ġbut": 642,
      "Ġbuil": 643,
      "Ġchec": 644,
      "Ġname": 645,
      "Ġbuilt": 646,
      "it": 647,
      "ice": 648,
      "Ġbit": 649,
      "Ġhello": 650,
      "oth": 651,
      "Ġmath": 652,
      "Ġboth": 653,
      "Ġkeep": 654,
      "Ġbother": 655,
      "Ġel": 656,
      "Ġyo": 657,
      "Ġelse": 658,
      "Ġanything": 659,
      "bj": 660,
      "ect": 661,
      "ge": 662,
      "ange": 663,
      "ink": 664,
      "Ġthink": 665,
      "Ġchange": 666,
      "Ġsubj": 667,
      "Ġsubject": 668,
      "es": 669,
      "Ġbore": 670,
      "Ġbored": 671,
      "Ġall": 672,
      "gr": 673,
      "ress": 674,
      "Ġstress": 675,
      "Ġcongr": 676,
      "Ġcongrat": 677,
      "Ġsound": 678,
      "Ġhelps": 679,
      "Ġsounds": 680,
      "Ġlot": 681,
      "fort": 682,
      "gth": 683,
      "nfort": 684,
      "ren": 685,
      "atel": 686,
      "ĠMath": 687,
      "Ġunfort": 688,
      "Ġstren": 689,
      "Ġlive": 690,
      "Ġisn": 691,
      "unatel": 692,
      "Ġcheck": 693,
      "Ġunfortunatel": 694,
      "Ġstrength": 695,
      "Ġunfortunately": 696,
      "Ġbett": 697,
      "Ġbetter": 698,
      "gent": 699,
      "ial": 700,
      "pa": 701,
      "any": 702,
      "Ġagent": 703,
      "Ġdial": 704,
      "Ġcompany": 705,
      "ogue": 706,
      "Ġdialogue": 707,
      "ks": 708,
      "round": 709,
      "Ġtas": 710,
      "Ġaround": 711,
      "Ġfact": 712,
      "Ġtasks": 713,
      "Ġfacts": 714,
      "Fa": 715,
      "ir": 716,
      "Ġen": 717,
      "ĠFa": 718,
      "Ġtell": 719,
      "Ġhandle": 720,
      "Ġenough": 721,
      "ĠFair": 722,
      "ta": 723,
      "Ġgotta": 724,
      "cce": 725,
      "Ġacce": 726,
      "Ġaccess": 727,
      "Ġbye": 728,
      "ings": 729,
      "Ġgre": 730,
      "etings": 731,
      "Ġsup": 732,
      "Ġgreetings": 733,
      "ass": 734,
      "ense": 735,
      "Ġsense": 736,
      "Ġmake": 737,
      "Ġtalking": 738,
      "Ġpass": 739,
      "Ġmakes": 740,
      "dy": 741,
      "Ġgoodbye": 742,
      "Ġmain": 743,
      "Ġhowdy": 744,
      "Ġmainly": 745,
      "Ġnice": 746,
      "ous": 747,
      "atch": 748,
      "Ġcatch": 749,
      "ead": 750,
      "head": 751,
      "is": 752,
      "lve": 753,
      "lain": 754,
      "qu": 755,
      "Ġahead": 756,
      "Ġthis": 757,
      "Ġequ": 758,
      "Ġsolve": 759,
      "Ġcomplain": 760,
      "Ġequation": 761,
      "ya": 762,
      "Ġlike": 763,
      "Ġhiya": 764,
      "Ġwh": 765,
      "ies": 766,
      "Ġworr": 767,
      "Ġappreciated": 768,
      "Ġworries": 769,
      "od": 770,
      "ened": 771,
      "Ġgue": 772,
      "Ġhappened": 773,
      "Ġguess": 774,
      "nch": 775,
      "Ġyet": 776,
      "Ġset": 777,
      "Ġbunch": 778,
      "12": 779,
      "ost": 780,
      "ting": 781,
      "ure": 782,
      "Ġ8": 783,
      "Ġ12": 784,
      "ĠSure": 785,
      "ĠMost": 786,
      "Ġchatting": 787,
      "ĠNice": 788,
      "Ġtimes": 789,
      "ĠMostly": 790,
      "apa": 791,
      "ble": 792,
      "de": 793,
      "hare": 794,
      "ide": 795,
      "ming": 796,
      "talk": 797,
      "ul": 798,
      "Ġshare": 799,
      "Ġside": 800,
      "Ġcapa": 801,
      "ĠSome": 802,
      "ttle": 803,
      "times": 804,
      "Ġlittle": 805,
      "Ġnothing": 806,
      "Ġnaming": 807,
      "Ġstressing": 808,
      "Ġcongratul": 809,
      "Ġcapable": 810,
      "ĠSometimes": 811,
      "Ġtake": 812,
      "Ġany": 813,
      "wes": 814,
      "Ġawes": 815,
      "Ġwor": 816,
      "Ġstressed": 817,
      "Ġcongrats": 818,
      "Ġawesome": 819,
      "Ġwork": 820,
      "ever": 821,
      "ich": 822,
      "Ġhar": 823,
      "Ġeith": 824,
      "Ġwhich": 825,
      "Ġhard": 826,
      "Ġeither": 827,
      "Ġwhichever": 828,
      "Of": 829,
      "rse": 830,
      "ĠOf": 831,
      "ourse": 832,
      "Ġcourse": 833,
      "Ġwanted": 834,
      "Ġnever": 835,
      "Ġlow": 836,
      "'ve": 837,
      "ett": 838,
      "iz": 839,
      "ll": 840,
      "log": 841,
      "olog": 842,
      "polog": 843,
      "vous": 844,
      "ervous": 845,
      "Ġapolog": 846,
      "Ġgett": 847,
      "Ġsort": 848,
      "Ġnee": 849,
      "Ġnervous": 850,
      "ĠAll": 851,
      "Ġcasually": 852,
      "ize": 853,
      "Ġapologize": 854,
      "Ġgetting": 855,
      "Ġneed": 856,
      "ny": 857,
      "spa": 858,
      "Ġsay": 859,
      "Ġfun": 860,
      "Ġheadspa": 861,
      "Ġfunny": 862,
      "Ġheadspace": 863,
      "cu": 864,
      "ocu": 865,
      "rather": 866,
      "Ġrather": 867,
      "Ġmod": 868,
      "Ġfocu": 869,
      "ĠNot": 870,
      "ations": 871,
      "Ġnews": 872,
      "sed": 873,
      "Ġcongratulations": 874,
      "Ġmodel": 875,
      "Ġfocused": 876,
      "Ġchecking": 877,
      "ious": 878,
      "xious": 879,
      "Ġanxious": 880,
      "hel": 881,
      "ted": 882,
      "whel": 883,
      "Ġex": 884,
      "Ġhad": 885,
      "Ġover": 886,
      "med": 887,
      "cited": 888,
      "whelmed": 889,
      "Ġexcited": 890,
      "Ġoverwhelmed": 891,
      "rod": 892,
      "uce": 893,
      "Ġintrod": 894,
      "Ġintroduce": 895,
      "ate": 896,
      "Ġcongratulate": 897,
      "Ġwho": 898
    },
    "merges": [
      [
        "e",
        "r"
      ],
      [
        "a",
        "n"
      ],
      [
        "s",
        "t"
      ],
      [
        "i",
        "n"
      ],
      [
        "an",
        "t"
      ],
      [
        "o",
        "u"
      ],
      [
        "s",
        "s"
      ],
      [
        "in",
        "g"
      ],
      [
        "i",
        "st"
      ],
      [
        "A",
        "ss"
      ],
      [
        "U",
        "s"
      ],
      [
        "ist",
        "ant"
      ],
      [
        "Ass",
        "istant"
      ],
      [
        "Us",
        "er"
      ],
      [
        "Ġ",
        "t"
      ],
      [
        "o",
        "o"
      ],
      [
        "e",
        "n"
      ],
      [
        "Ġ",
        "a"
      ],
      [
        "Ġ",
        "y"
      ],
      [
        "Ġy",
        "ou"
      ],
      [
        "f",
        "t"
      ],
      [
        "oo",
        "d"
      ],
      [
        "d",
        "o"
      ],
      [
        "Ġ",
        "g"
      ],
      [
        "a",
        "t"
      ],
      [
        "Ġ",
        "w"
      ],
      [
        "Ġ",
        "h"
      ],
      [
        "o",
        "r"
      ],
      [
        "e",
        "x"
      ],
      [
        "<",
        "|"
      ],
      [
        "|",
        ">"
      ],
      [
        "en",
        "do"
      ],
      [
        "ft",
        "ex"
      ],
      [
        "endo",
        "ftex"
      ],
      [
        "endoftex",
        "t"
      ],
      [
        "Ġ",
        "H"
      ],
      [
        "o",
        "w"
      ],
      [
        "'",
        "s"
      ],
      [
        "Ġt",
        "h"
      ],
      [
        "e",
        "l"
      ],
      [
        "Ġ",
        "s"
      ],
      [
        "r",
        "e"
      ],
      [
        "Ġt",
        "o"
      ],
      [
        "g",
        "h"
      ],
      [
        "Ġg",
        "ood"
      ],
      [
        "Ġ",
        "G"
      ],
      [
        "Ġ",
        "i"
      ],
      [
        "Ġ",
        "m"
      ],
      [
        "Ġ",
        "n"
      ],
      [
        "ĠG",
        "ood"
      ],
      [
        "i",
        "gh"
      ],
      [
        "igh",
        "t"
      ],
      [
        "a",
        "y"
      ],
      [
        "ĠH",
        "ow"
      ],
      [
        "h",
        "at"
      ],
      [
        "Ġ",
        "c"
      ],
      [
        "t",
        "h"
      ],
      [
        "Ġyou",
        "r"
      ],
      [
        "oo",
        "n"
      ],
      [
        "Ġ",
        "d"
      ],
      [
        "'",
        "m"
      ],
      [
        "Ġ",
        "I"
      ],
      [
        "Ġ",
        "e"
      ],
      [
        "a",
        "l"
      ],
      [
        "Ġe",
        "v"
      ],
      [
        "Ġ",
        "f"
      ],
      [
        "n",
        "oon"
      ],
      [
        "er",
        "noon"
      ],
      [
        "ft",
        "ernoon"
      ],
      [
        "Ġd",
        "ay"
      ],
      [
        "Ġ",
        "o"
      ],
      [
        "en",
        "ing"
      ],
      [
        "n",
        "ing"
      ],
      [
        "or",
        "ning"
      ],
      [
        "o",
        "ing"
      ],
      [
        "Ġi",
        "t"
      ],
      [
        "â",
        "Ģ"
      ],
      [
        "Ġ",
        "âĢ"
      ],
      [
        "ĠâĢ",
        "Ķ"
      ],
      [
        "el",
        "l"
      ],
      [
        "Ġ",
        "b"
      ],
      [
        "ou",
        "t"
      ],
      [
        "Ġa",
        "fternoon"
      ],
      [
        "Ġev",
        "ening"
      ],
      [
        "b",
        "out"
      ],
      [
        "Ġa",
        "bout"
      ],
      [
        "m",
        "e"
      ],
      [
        "Ġn",
        "ight"
      ],
      [
        "Ġg",
        "oing"
      ],
      [
        "Ġm",
        "orning"
      ],
      [
        "Ġf",
        "or"
      ],
      [
        "a",
        "r"
      ],
      [
        "Ġw",
        "ell"
      ],
      [
        "Ġh",
        "ow"
      ],
      [
        "Ġ",
        "do"
      ],
      [
        "th",
        "ing"
      ],
      [
        "Ġ",
        "W"
      ],
      [
        "al",
        "k"
      ],
      [
        "Ġs",
        "o"
      ],
      [
        "Ġt",
        "alk"
      ],
      [
        "o",
        "p"
      ],
      [
        "op",
        "e"
      ],
      [
        "Ġh",
        "e"
      ],
      [
        "Ġth",
        "an"
      ],
      [
        "Ġthan",
        "k"
      ],
      [
        "a",
        "d"
      ],
      [
        "o",
        "n"
      ],
      [
        "e",
        "e"
      ],
      [
        "l",
        "y"
      ],
      [
        "er",
        "e"
      ],
      [
        "Ġo",
        "f"
      ],
      [
        "ĠW",
        "hat"
      ],
      [
        "Ġthank",
        "s"
      ],
      [
        "Ġth",
        "e"
      ],
      [
        "Ġa",
        "re"
      ],
      [
        "Ġo",
        "n"
      ],
      [
        "Ġb",
        "e"
      ],
      [
        "in",
        "d"
      ],
      [
        "y",
        "thing"
      ],
      [
        "a",
        "s"
      ],
      [
        "Ġ",
        "T"
      ],
      [
        "Ġh",
        "el"
      ],
      [
        "Ġhel",
        "p"
      ],
      [
        "ĠH",
        "ope"
      ],
      [
        "Ġw",
        "hat"
      ],
      [
        "Ġh",
        "a"
      ],
      [
        "i",
        "th"
      ],
      [
        "or",
        "r"
      ],
      [
        "o",
        "t"
      ],
      [
        "Ġ",
        "S"
      ],
      [
        "Ġw",
        "ith"
      ],
      [
        "v",
        "e"
      ],
      [
        "k",
        "e"
      ],
      [
        "orr",
        "y"
      ],
      [
        "Ġ",
        "l"
      ],
      [
        "Ġ",
        "A"
      ],
      [
        "Ġ",
        "j"
      ],
      [
        "r",
        "ight"
      ],
      [
        "re",
        "at"
      ],
      [
        "t",
        "t"
      ],
      [
        "Ġa",
        "l"
      ],
      [
        "Ġdo",
        "ing"
      ],
      [
        "er",
        "ything"
      ],
      [
        "Ġev",
        "erything"
      ],
      [
        "Ġso",
        "me"
      ],
      [
        "ou",
        "gh"
      ],
      [
        "ee",
        "p"
      ],
      [
        "Ġ",
        "M"
      ],
      [
        "p",
        "p"
      ],
      [
        "Ġhe",
        "ar"
      ],
      [
        "Ġs",
        "m"
      ],
      [
        "Ġw",
        "ant"
      ],
      [
        "Ġth",
        "ing"
      ],
      [
        "e",
        "st"
      ],
      [
        "Ġc",
        "hat"
      ],
      [
        "Ġal",
        "right"
      ],
      [
        "l",
        "d"
      ],
      [
        "ou",
        "ld"
      ],
      [
        "v",
        "er"
      ],
      [
        "Ġ",
        "N"
      ],
      [
        "Ġth",
        "ere"
      ],
      [
        "i",
        "on"
      ],
      [
        "at",
        "h"
      ],
      [
        "Ġ",
        "re"
      ],
      [
        "ĠT",
        "hat"
      ],
      [
        "Ġ",
        "D"
      ],
      [
        "Ġ",
        "or"
      ],
      [
        "Ġf",
        "ar"
      ],
      [
        "l",
        "eep"
      ],
      [
        "Ġbe",
        "en"
      ],
      [
        "Ġh",
        "ere"
      ],
      [
        "Ġth",
        "at"
      ],
      [
        "Ġ",
        "u"
      ],
      [
        "Ġs",
        "orry"
      ],
      [
        "u",
        "st"
      ],
      [
        "Ġj",
        "ust"
      ],
      [
        "Ġthing",
        "s"
      ],
      [
        "re",
        "tt"
      ],
      [
        "rett",
        "y"
      ],
      [
        "ĠM",
        "orning"
      ],
      [
        "Ġ",
        "st"
      ],
      [
        "Ġs",
        "oon"
      ],
      [
        "Ġ",
        "p"
      ],
      [
        "Ġn",
        "ot"
      ],
      [
        "a",
        "ke"
      ],
      [
        "Ġc",
        "an"
      ],
      [
        "Ġsome",
        "thing"
      ],
      [
        "e",
        "y"
      ],
      [
        "ĠH",
        "ey"
      ],
      [
        "l",
        "ad"
      ],
      [
        "ĠG",
        "lad"
      ],
      [
        "u",
        "al"
      ],
      [
        "Ġc",
        "as"
      ],
      [
        "Ġcas",
        "ual"
      ],
      [
        "d",
        "ay"
      ],
      [
        "Ġto",
        "day"
      ],
      [
        "i",
        "me"
      ],
      [
        "ell",
        "o"
      ],
      [
        "or",
        "e"
      ],
      [
        "s",
        "el"
      ],
      [
        "Ġyour",
        "sel"
      ],
      [
        "Ġyoursel",
        "f"
      ],
      [
        "y",
        "e"
      ],
      [
        "o",
        "me"
      ],
      [
        "Ġha",
        "pp"
      ],
      [
        "en",
        "t"
      ],
      [
        "Ġha",
        "ve"
      ],
      [
        "Ġre",
        "al"
      ],
      [
        "'",
        "t"
      ],
      [
        "Ġm",
        "ind"
      ],
      [
        "w",
        "n"
      ],
      [
        "Ġdo",
        "wn"
      ],
      [
        "Ġu",
        "p"
      ],
      [
        "R",
        "est"
      ],
      [
        "Ġ",
        "Rest"
      ],
      [
        "oo",
        "th"
      ],
      [
        "Ġh",
        "ope"
      ],
      [
        "Ġi",
        "f"
      ],
      [
        "Ġsm",
        "ooth"
      ],
      [
        "Ġsmooth",
        "ly"
      ],
      [
        "Ġn",
        "e"
      ],
      [
        "ĠD",
        "oing"
      ],
      [
        "Ġw",
        "ould"
      ],
      [
        "Ġhe",
        "ad"
      ],
      [
        "c",
        "t"
      ],
      [
        "at",
        "er"
      ],
      [
        "Ġl",
        "ater"
      ],
      [
        "Ġc",
        "on"
      ],
      [
        "Ġof",
        "f"
      ],
      [
        "at",
        "ion"
      ],
      [
        "ĠA",
        "fternoon"
      ],
      [
        "c",
        "h"
      ],
      [
        "'",
        "re"
      ],
      [
        "Ġw",
        "ind"
      ],
      [
        "Ġwind",
        "ing"
      ],
      [
        "r",
        "ough"
      ],
      [
        "Ġa",
        "s"
      ],
      [
        "Ġw",
        "as"
      ],
      [
        "Ġhapp",
        "y"
      ],
      [
        "Ġt",
        "reat"
      ],
      [
        "Ġtreat",
        "ing"
      ],
      [
        "Ġhead",
        "ing"
      ],
      [
        "P",
        "retty"
      ],
      [
        "Ġ",
        "Pretty"
      ],
      [
        "Ġne",
        "w"
      ],
      [
        "Ġg",
        "reat"
      ],
      [
        "k",
        "ing"
      ],
      [
        "ĠT",
        "ake"
      ],
      [
        "e",
        "t"
      ],
      [
        "Ġw",
        "e"
      ],
      [
        "ĠW",
        "ant"
      ],
      [
        "ath",
        "er"
      ],
      [
        "Ġreal",
        "ly"
      ],
      [
        "E",
        "v"
      ],
      [
        "Ġ",
        "Ev"
      ],
      [
        "Ġw",
        "ent"
      ],
      [
        "ĠEv",
        "ening"
      ],
      [
        "Ġm",
        "ore"
      ],
      [
        "Ġb",
        "u"
      ],
      [
        "Y",
        "ou"
      ],
      [
        "c",
        "ome"
      ],
      [
        "Ġ",
        "You"
      ],
      [
        "Ġw",
        "el"
      ],
      [
        "Ġon",
        "e"
      ],
      [
        "Ġwel",
        "come"
      ],
      [
        "a",
        "re"
      ],
      [
        "ĠH",
        "ello"
      ],
      [
        "Ġas",
        "king"
      ],
      [
        "ĠA",
        "n"
      ],
      [
        "ĠH",
        "i"
      ],
      [
        "Ġwe",
        "ather"
      ],
      [
        "ar",
        "t"
      ],
      [
        "Ġst",
        "art"
      ],
      [
        "s",
        "e"
      ],
      [
        "Ġ",
        "k"
      ],
      [
        "c",
        "e"
      ],
      [
        "a",
        "ct"
      ],
      [
        "Ġbe",
        "d"
      ],
      [
        "s",
        "ation"
      ],
      [
        "ver",
        "sation"
      ],
      [
        "Ġcon",
        "versation"
      ],
      [
        "Ġt",
        "ight"
      ],
      [
        "ĠS",
        "leep"
      ],
      [
        "ĠN",
        "ight"
      ],
      [
        "Ġm",
        "e"
      ],
      [
        "l",
        "an"
      ],
      [
        "Ġp",
        "lan"
      ],
      [
        "n",
        "ight"
      ],
      [
        "Ġgood",
        "night"
      ],
      [
        "Ġc",
        "are"
      ],
      [
        "Ġs",
        "ee"
      ],
      [
        "ĠS",
        "orry"
      ],
      [
        "'",
        "d"
      ],
      [
        "Ġs",
        "leep"
      ],
      [
        "Ġc",
        "h"
      ],
      [
        "e",
        "d"
      ],
      [
        "c",
        "i"
      ],
      [
        "e",
        "el"
      ],
      [
        "Ġf",
        "eel"
      ],
      [
        "Ġ",
        "in"
      ],
      [
        "t",
        "ime"
      ],
      [
        "o",
        "ke"
      ],
      [
        "Ġb",
        "ad"
      ],
      [
        "Ġj",
        "oke"
      ],
      [
        "al",
        "l"
      ],
      [
        "Ġsm",
        "all"
      ],
      [
        "Ġl",
        "i"
      ],
      [
        "Ġa",
        "pp"
      ],
      [
        "re",
        "ci"
      ],
      [
        "Ġapp",
        "reci"
      ],
      [
        "Ġappreci",
        "at"
      ],
      [
        "b",
        "ye"
      ],
      [
        "Ġt",
        "ime"
      ],
      [
        "Ġ",
        "out"
      ],
      [
        "Ġ",
        "an"
      ],
      [
        "Ġn",
        "ow"
      ],
      [
        "ĠN",
        "o"
      ],
      [
        "Ġh",
        "on"
      ],
      [
        "est",
        "ly"
      ],
      [
        "Ġhon",
        "estly"
      ],
      [
        "l",
        "e"
      ],
      [
        "u",
        "ch"
      ],
      [
        "Ġm",
        "uch"
      ],
      [
        "Ġhe",
        "y"
      ],
      [
        "Ġs",
        "u"
      ],
      [
        "n",
        "d"
      ],
      [
        "ou",
        "nd"
      ],
      [
        "Ġn",
        "o"
      ],
      [
        "Ġt",
        "ough"
      ],
      [
        "Ġ",
        "rough"
      ],
      [
        "Ġn",
        "a"
      ],
      [
        "r",
        "act"
      ],
      [
        "ist",
        "ract"
      ],
      [
        "at",
        "a"
      ],
      [
        "Ġd",
        "istract"
      ],
      [
        "Ġd",
        "ata"
      ],
      [
        "Ġjoke",
        "s"
      ],
      [
        "Ġdistract",
        "ion"
      ],
      [
        "Ġth",
        "rough"
      ],
      [
        "Ġw",
        "ay"
      ],
      [
        "Ġc",
        "ould"
      ],
      [
        "k",
        "ay"
      ],
      [
        "y",
        "time"
      ],
      [
        "Ġ",
        "ver"
      ],
      [
        "Ġg",
        "ot"
      ],
      [
        "Ġo",
        "kay"
      ],
      [
        "ĠAn",
        "ytime"
      ],
      [
        "Ġver",
        "y"
      ],
      [
        "Ġi",
        "s"
      ],
      [
        "Ġh",
        "i"
      ],
      [
        "Ġm",
        "y"
      ],
      [
        "an",
        "d"
      ],
      [
        "Ġh",
        "and"
      ],
      [
        "Ġin",
        "t"
      ],
      [
        "m",
        "p"
      ],
      [
        "o",
        "mp"
      ],
      [
        "Ġc",
        "omp"
      ],
      [
        "Ġfeel",
        "ing"
      ],
      [
        "ĠS",
        "ee"
      ],
      [
        "Ġg",
        "o"
      ],
      [
        "Ġk",
        "ind"
      ],
      [
        "u",
        "e"
      ],
      [
        "Ġappreciat",
        "e"
      ],
      [
        "Ġ",
        "right"
      ],
      [
        "Ġa",
        "t"
      ],
      [
        "a",
        "in"
      ],
      [
        "Ġdo",
        "n"
      ],
      [
        "Ġp",
        "retty"
      ],
      [
        "or",
        "t"
      ],
      [
        "u",
        "n"
      ],
      [
        "Ġg",
        "et"
      ],
      [
        "ĠD",
        "o"
      ],
      [
        "Ġint",
        "o"
      ],
      [
        "a",
        "ve"
      ],
      [
        "ĠH",
        "ave"
      ],
      [
        "ĠGood",
        "bye"
      ],
      [
        "Ġre",
        "st"
      ],
      [
        "ĠAn",
        "ything"
      ],
      [
        "o",
        "g"
      ],
      [
        "B",
        "ye"
      ],
      [
        "e",
        "c"
      ],
      [
        "i",
        "l"
      ],
      [
        "Ġ",
        "Bye"
      ],
      [
        "Ġbu",
        "t"
      ],
      [
        "Ġbu",
        "il"
      ],
      [
        "Ġch",
        "ec"
      ],
      [
        "Ġna",
        "me"
      ],
      [
        "Ġbuil",
        "t"
      ],
      [
        "i",
        "t"
      ],
      [
        "i",
        "ce"
      ],
      [
        "Ġb",
        "it"
      ],
      [
        "Ġh",
        "ello"
      ],
      [
        "o",
        "th"
      ],
      [
        "Ġm",
        "ath"
      ],
      [
        "Ġb",
        "oth"
      ],
      [
        "Ġk",
        "eep"
      ],
      [
        "Ġboth",
        "er"
      ],
      [
        "Ġ",
        "el"
      ],
      [
        "Ġy",
        "o"
      ],
      [
        "Ġel",
        "se"
      ],
      [
        "Ġan",
        "ything"
      ],
      [
        "b",
        "j"
      ],
      [
        "e",
        "ct"
      ],
      [
        "g",
        "e"
      ],
      [
        "an",
        "ge"
      ],
      [
        "in",
        "k"
      ],
      [
        "Ġth",
        "ink"
      ],
      [
        "Ġch",
        "ange"
      ],
      [
        "Ġsu",
        "bj"
      ],
      [
        "Ġsubj",
        "ect"
      ],
      [
        "e",
        "s"
      ],
      [
        "Ġb",
        "ore"
      ],
      [
        "Ġbore",
        "d"
      ],
      [
        "Ġal",
        "l"
      ],
      [
        "g",
        "r"
      ],
      [
        "re",
        "ss"
      ],
      [
        "Ġst",
        "ress"
      ],
      [
        "Ġcon",
        "gr"
      ],
      [
        "Ġcongr",
        "at"
      ],
      [
        "Ġs",
        "ound"
      ],
      [
        "Ġhelp",
        "s"
      ],
      [
        "Ġsound",
        "s"
      ],
      [
        "Ġl",
        "ot"
      ],
      [
        "f",
        "ort"
      ],
      [
        "g",
        "th"
      ],
      [
        "n",
        "fort"
      ],
      [
        "r",
        "en"
      ],
      [
        "at",
        "el"
      ],
      [
        "ĠM",
        "ath"
      ],
      [
        "Ġu",
        "nfort"
      ],
      [
        "Ġst",
        "ren"
      ],
      [
        "Ġli",
        "ve"
      ],
      [
        "Ġis",
        "n"
      ],
      [
        "un",
        "atel"
      ],
      [
        "Ġchec",
        "k"
      ],
      [
        "Ġunfort",
        "unatel"
      ],
      [
        "Ġstren",
        "gth"
      ],
      [
        "Ġunfortunatel",
        "y"
      ],
      [
        "Ġbe",
        "tt"
      ],
      [
        "Ġbett",
        "er"
      ],
      [
        "g",
        "ent"
      ],
      [
        "i",
        "al"
      ],
      [
        "p",
        "a"
      ],
      [
        "an",
        "y"
      ],
      [
        "Ġa",
        "gent"
      ],
      [
        "Ġd",
        "ial"
      ],
      [
        "Ġcomp",
        "any"
      ],
      [
        "og",
        "ue"
      ],
      [
        "Ġdial",
        "ogue"
      ],
      [
        "k",
        "s"
      ],
      [
        "r",
        "ound"
      ],
      [
        "Ġt",
        "as"
      ],
      [
        "Ġa",
        "round"
      ],
      [
        "Ġf",
        "act"
      ],
      [
        "Ġtas",
        "ks"
      ],
      [
        "Ġfact",
        "s"
      ],
      [
        "F",
        "a"
      ],
      [
        "i",
        "r"
      ],
      [
        "Ġ",
        "en"
      ],
      [
        "Ġ",
        "Fa"
      ],
      [
        "Ġt",
        "ell"
      ],
      [
        "Ġhand",
        "le"
      ],
      [
        "Ġen",
        "ough"
      ],
      [
        "ĠFa",
        "ir"
      ],
      [
        "t",
        "a"
      ],
      [
        "Ġgot",
        "ta"
      ],
      [
        "c",
        "ce"
      ],
      [
        "Ġa",
        "cce"
      ],
      [
        "Ġacce",
        "ss"
      ],
      [
        "Ġb",
        "ye"
      ],
      [
        "ing",
        "s"
      ],
      [
        "Ġg",
        "re"
      ],
      [
        "et",
        "ings"
      ],
      [
        "Ġsu",
        "p"
      ],
      [
        "Ġgre",
        "etings"
      ],
      [
        "a",
        "ss"
      ],
      [
        "en",
        "se"
      ],
      [
        "Ġs",
        "ense"
      ],
      [
        "Ġm",
        "ake"
      ],
      [
        "Ġtalk",
        "ing"
      ],
      [
        "Ġp",
        "ass"
      ],
      [
        "Ġmake",
        "s"
      ],
      [
        "d",
        "y"
      ],
      [
        "Ġgood",
        "bye"
      ],
      [
        "Ġm",
        "ain"
      ],
      [
        "Ġhow",
        "dy"
      ],
      [
        "Ġmain",
        "ly"
      ],
      [
        "Ġn",
        "ice"
      ],
      [
        "ou",
        "s"
      ],
      [
        "at",
        "ch"
      ],
      [
        "Ġc",
        "atch"
      ],
      [
        "e",
        "ad"
      ],
      [
        "h",
        "ead"
      ],
      [
        "i",
        "s"
      ],
      [
        "l",
        "ve"
      ],
      [
        "l",
        "ain"
      ],
      [
        "q",
        "u"
      ],
      [
        "Ġa",
        "head"
      ],
      [
        "Ġth",
        "is"
      ],
      [
        "Ġe",
        "qu"
      ],
      [
        "Ġso",
        "lve"
      ],
      [
        "Ġcomp",
        "lain"
      ],
      [
        "Ġequ",
        "ation"
      ],
      [
        "y",
        "a"
      ],
      [
        "Ġli",
        "ke"
      ],
      [
        "Ġhi",
        "ya"
      ],
      [
        "Ġw",
        "h"
      ],
      [
        "i",
        "es"
      ],
      [
        "Ġw",
        "orr"
      ],
      [
        "Ġappreciat",
        "ed"
      ],
      [
        "Ġworr",
        "ies"
      ],
      [
        "o",
        "d"
      ],
      [
        "en",
        "ed"
      ],
      [
        "Ġg",
        "ue"
      ],
      [
        "Ġhapp",
        "ened"
      ],
      [
        "Ġgue",
        "ss"
      ],
      [
        "n",
        "ch"
      ],
      [
        "Ġy",
        "et"
      ],
      [
        "Ġs",
        "et"
      ],
      [
        "Ġbu",
        "nch"
      ],
      [
        "1",
        "2"
      ],
      [
        "o",
        "st"
      ],
      [
        "t",
        "ing"
      ],
      [
        "u",
        "re"
      ],
      [
        "Ġ",
        "8"
      ],
      [
        "Ġ",
        "12"
      ],
      [
        "ĠS",
        "ure"
      ],
      [
        "ĠM",
        "ost"
      ],
      [
        "Ġchat",
        "ting"
      ],
      [
        "ĠN",
        "ice"
      ],
      [
        "Ġtime",
        "s"
      ],
      [
        "ĠMost",
        "ly"
      ],
      [
        "a",
        "pa"
      ],
      [
        "b",
        "le"
      ],
      [
        "d",
        "e"
      ],
      [
        "h",
        "are"
      ],
      [
        "i",
        "de"
      ],
      [
        "m",
        "ing"
      ],
      [
        "t",
        "alk"
      ],
      [
        "u",
        "l"
      ],
      [
        "Ġs",
        "hare"
      ],
      [
        "Ġs",
        "ide"
      ],
      [
        "Ġc",
        "apa"
      ],
      [
        "ĠS",
        "ome"
      ],
      [
        "tt",
        "le"
      ],
      [
        "time",
        "s"
      ],
      [
        "Ġli",
        "ttle"
      ],
      [
        "Ġno",
        "thing"
      ],
      [
        "Ġna",
        "ming"
      ],
      [
        "Ġstress",
        "ing"
      ],
      [
        "Ġcongrat",
        "ul"
      ],
      [
        "Ġcapa",
        "ble"
      ],
      [
        "ĠSome",
        "times"
      ],
      [
        "Ġt",
        "ake"
      ],
      [
        "Ġan",
        "y"
      ],
      [
        "w",
        "es"
      ],
      [
        "Ġa",
        "wes"
      ],
      [
        "Ġw",
        "or"
      ],
      [
        "Ġstress",
        "ed"
      ],
      [
        "Ġcongrat",
        "s"
      ],
      [
        "Ġawes",
        "ome"
      ],
      [
        "Ġwor",
        "k"
      ],
      [
        "e",
        "ver"
      ],
      [
        "i",
        "ch"
      ],
      [
        "Ġh",
        "ar"
      ],
      [
        "Ġe",
        "ith"
      ],
      [
        "Ġwh",
        "ich"
      ],
      [
        "Ġhar",
        "d"
      ],
      [
        "Ġeith",
        "er"
      ],
      [
        "Ġwhich",
        "ever"
      ],
      [
        "O",
        "f"
      ],
      [
        "r",
        "se"
      ],
      [
        "Ġ",
        "Of"
      ],
      [
        "ou",
        "rse"
      ],
      [
        "Ġc",
        "ourse"
      ],
      [
        "Ġwant",
        "ed"
      ],
      [
        "Ġne",
        "ver"
      ],
      [
        "Ġl",
        "ow"
      ],
      [
        "'",
        "ve"
      ],
      [
        "e",
        "tt"
      ],
      [
        "i",
        "z"
      ],
      [
        "l",
        "l"
      ],
      [
        "l",
        "og"
      ],
      [
        "o",
        "log"
      ],
      [
        "p",
        "olog"
      ],
      [
        "v",
        "ous"
      ],
      [
        "er",
        "vous"
      ],
      [
        "Ġa",
        "polog"
      ],
      [
        "Ġg",
        "ett"
      ],
      [
        "Ġs",
        "ort"
      ],
      [
        "Ġn",
        "ee"
      ],
      [
        "Ġn",
        "ervous"
      ],
      [
        "ĠA",
        "ll"
      ],
      [
        "Ġcasual",
        "ly"
      ],
      [
        "iz",
        "e"
      ],
      [
        "Ġapolog",
        "ize"
      ],
      [
        "Ġgett",
        "ing"
      ],
      [
        "Ġnee",
        "d"
      ],
      [
        "n",
        "y"
      ],
      [
        "s",
        "pa"
      ],
      [
        "Ġs",
        "ay"
      ],
      [
        "Ġf",
        "un"
      ],
      [
        "Ġhead",
        "spa"
      ],
      [
        "Ġfun",
        "ny"
      ],
      [
        "Ġheadspa",
        "ce"
      ],
      [
        "c",
        "u"
      ],
      [
        "o",
        "cu"
      ],
      [
        "r",
        "ather"
      ],
      [
        "Ġ",
        "rather"
      ],
      [
        "Ġm",
        "od"
      ],
      [
        "Ġf",
        "ocu"
      ],
      [
        "ĠN",
        "ot"
      ],
      [
        "ation",
        "s"
      ],
      [
        "Ġnew",
        "s"
      ],
      [
        "se",
        "d"
      ],
      [
        "Ġcongratul",
        "ations"
      ],
      [
        "Ġmod",
        "el"
      ],
      [
        "Ġfocu",
        "sed"
      ],
      [
        "Ġchec",
        "king"
      ],
      [
        "i",
        "ous"
      ],
      [
        "x",
        "ious"
      ],
      [
        "Ġan",
        "xious"
      ],
      [
        "h",
        "el"
      ],
      [
        "t",
        "ed"
      ],
      [
        "w",
        "hel"
      ],
      [
        "Ġ",
        "ex"
      ],
      [
        "Ġh",
        "ad"
      ],
      [
        "Ġo",
        "ver"
      ],
      [
        "me",
        "d"
      ],
      [
        "ci",
        "ted"
      ],
      [
        "whel",
        "med"
      ],
      [
        "Ġex",
        "cited"
      ],
      [
        "Ġover",
        "whelmed"
      ],
      [
        "r",
        "od"
      ],
      [
        "u",
        "ce"
      ],
      [
        "Ġint",
        "rod"
      ],
      [
        "Ġintrod",
        "uce"
      ],
      [
        "at",
        "e"
      ],
      [
        "Ġcongratul",
        "ate"
      ],
      [
        "Ġwh",
        "o"
      ]
    ]
  }
}