{
  "version": "1.0",
  "truncation": null,
  "padding": null,
  "added_tokens": [
    {
      "id": 0,
      "content": "<|endoftext|>",
      "single_word": false,
      "lstrip": false,
      "rstrip": false,
      "normalized": false,
      "special": true
    },
    {
      "id": 1,
      "content": "<pad>",
      "single_word": false,
      "lstrip": false,
      "rstrip": false,
      "normalized": false,
      "special": true
    },
    {
      "id": 2,
      "content": "<unk>",
      "single_word": false,
      "lstrip": false,
      "rstrip": false,
      "normalized": false,
      "special": true
    }
  ],
  "normalizer": null,
  "pre_tokenizer": {
    "type": "ByteLevel",
    "add_prefix_space": false,
    "trim_offsets": true,
    "use_regex": true
  },
  "post_processor": {
    "type": "ByteLevel",
    "add_prefix_space": true,
    "trim_offsets": false,
    "use_regex": true
  },
  "decoder": {
    "type": "ByteLevel",
    "add_prefix_space": true,
    "trim_offsets": true,
    "use_regex": true
  },
  "model": {
    "type": "BPE",
    "dropout": null,
    "unk_token": null,
    "continuing_subword_prefix": null,
    "end_of_word_suffix": null,
    "fuse_unk": false,
    "byte_fallback": false,
    "ignore_merges": false,
    "vocab": {
      "<|endoftext|>": 0,
      "<pad>": 1,
      "<unk>": 2,
      "!": 3,
      "\"": 4,
      "#": 5,
      "$": 6,
      "%": 7,
      "&": 8,
      "'": 9,
      "(": 10,
      ")": 11,
      "*": 12,
      "+": 13,
      ",": 14,
      "-": 15,
      ".": 16,
      "/": 17,
      "0": 18,
      "1": 19,
      "2": 20,
      "3": 21,
      "4": 22,
      "5": 23,
      "6": 24,
      "7": 25,
      "8": 26,
      "9": 27,
      ":": 28,
      ";": 29,
      "<": 30,
      "=": 31,
      ">": 32,
      "?": 33,
      "@": 34,
      "A": 35,
      "B": 36,
      "C": 37,
      "D": 38,
      "E": 39,
      "F": 40,
      "G": 41,
      "H": 42,
      "I": 43,
      "J": 44,
      "K": 45,
      "L": 46,
      "M": 47,
      "N": 48,
      "O": 49,
      "P": 50,
      "Q": 51,
      "R": 52,
      "S": 53,
      "T": 54,
      "U": 55,
      "V": 56,
      "W": 57,
      "X": 58,
      "Y": 59,
      "Z": 60,
      "[": 61,
      "\\": 62,
      "]": 63,
      "^": 64,
      "_": 65,
      "`": 66,
      "a": 67,
      "b": 68,
      "c": 69,
      "d": 70,
      "e": 71,
      "f": 72,
      "g": 73,
      "h": 74,
      "i": 75,
      "j": 76,
      "k": 77,
      "l": 78,
      "m": 79,
      "n": 80,
      "o": 81,
      "p": 82,
      "q": 83,
      "r": 84,
      "s": 85,
      "t": 86,
      "u": 87,
      "v": 88,
      "w": 89,
      "x": 90,
      "y": 91,
      "z": 92,
      "{": 93,
      "|": 94,
      "}": 95,
      "~": 96,
      "¡": 97,
      "¢": 98,
      "£": 99,
      "¤": 100,
      "¥": 101,
      "¦": 102,
      "§": 103,
      "¨": 104,
      "©": 105,
      "ª": 106,
      "«": 107,
      "¬": 108,
      "®": 109,
      "¯": 110,
      "°": 111,
      "±": 112,
      "²": 113,
      "³": 114,
      "´": 115,
      "µ": 116,
      "¶": 117,
      "·": 118,
      "¸": 119,
      "¹": 120,
      "º": 121,
      "»": 122,
      "¼": 123,
      "½": 124,
      "¾": 125,
      "¿": 126,
      "À": 127,
      "Á": 128,
      "Â": 129,
      "Ã": 130,
      "Ä": 131,
      "Å": 132,
      "Æ": 133,
      "Ç": 134,
      "È": 135,
      "É": 136,
      "Ê": 137,
      "Ë": 138,
      "Ì": 139,
      "Í": 140,
      "Î": 141,
      "Ï": 142,
      "Ð": 143,
      "Ñ": 144,
      "Ò": 145,
      "Ó": 146,
      "Ô": 147,
      "Õ": 148,
      "Ö": 149,
      "×": 150,
      "Ø": 151,
      "Ù": 152,
      "Ú": 153,
      "Û": 154,
      "Ü": 155,
      "Ý": 156,
      "Þ": 157,
      "ß": 158,
      "à": 159,
      "á": 160,
      "â": 161,
      "ã": 162,
      "ä": 163,
      "å": 164,
      "æ": 165,
      "ç": 166,
      "è": 167,
      "é": 168,
      "ê": 169,
      "ë": 170,
      "ì": 171,
      "í": 172,
      "î": 173,
      "ï": 174,
      "ð": 175,
      "ñ": 176,
      "ò": 177,
      "ó": 178,
      "ô": 179,
      "õ": 180,
      "ö": 181,
      "÷": 182,
      "ø": 183,
      "ù": 184,
      "ú": 185,
      "û": 186,
      "ü": 187,
      "ý": 188,
      "þ": 189,
      "ÿ": 190,
      "Ā": 191,
      "ā": 192,
      "Ă": 193,
      "ă": 194,
      "Ą": 195,
      "ą": 196,
      "Ć": 197,
      "ć": 198,
      "Ĉ": 199,
      "ĉ": 200,
      "Ċ": 201,
      "ċ": 202,
      "Č": 203,
      "č": 204,
      "Ď": 205,
      "ď": 206,
      "Đ": 207,
      "đ": 208,
      "Ē": 209,
      "ē": 210,
      "Ĕ": 211,
      "ĕ": 212,
      "Ė": 213,
      "ė": 214,
      "Ę": 215,
      "ę": 216,
      "Ě": 217,
      "ě": 218,
      "Ĝ": 219,
      "ĝ": 220,
      "Ğ": 221,
      "ğ": 222,
      "Ġ": 223,
      "ġ": 224,
      "Ģ": 225,
      "ģ": 226,
      "Ĥ": 227,
      "ĥ": 228,
      "Ħ": 229,
      "ħ": 230,
      "Ĩ": 231,
      "ĩ": 232,
      "Ī": 233,
      "ī": 234,
      "Ĭ": 235,
      "ĭ": 236,
      "Į": 237,
      "į": 238,
      "İ": 239,
      "ı": 240,
      "Ĳ": 241,
      "ĳ": 242,
      "Ĵ": 243,
      "ĵ": 244,
      "Ķ": 245,
      "ķ": 246,
      "ĸ": 247,
      "Ĺ": 248,
      "ĺ": 249,
      "Ļ": 250,
      "ļ": 251,
      "Ľ": 252,
      "ľ": 253,
      "Ŀ": 254,
      "ŀ": 255,
      "Ł": 256,
      "ł": 257,
      "Ń": 258,
      "an": 259,
      "er": 260,
      "st": 261,
      "ou": 262,
      "at": 263,
      "Ġt": 264,
      "ant": 265,
      "ss": 266,
      "ist": 267,
      "Ass": 268,
      "Us": 269,
      "istant": 270,
      "Assistant": 271,
      "User": 272,
      "en": 273,
      "Ġa": 274,
      "do": 275,
      "in": 276,
      "Ġy": 277,
      "ex": 278,
      "ft": 279,
      "Ġw": 280,
      "Ġyou": 281,
      "re": 282,
      "<|": 283,
      "|>": 284,
      "endo": 285,
      "ext": 286,
      "ftext": 287,
      "endoftext": 288,
      "Ġh": 289,
      "hat": 290,
      "Ġc": 291,
      "ing": 292,
      "Ġg": 293,
      "Ġs": 294,
      "al": 295,
      "oo": 296,
      "'s": 297,
      "Ġm": 298,
      "Ġn": 299,
      "Ġto": 300,
      "el": 301,
      "it": 302,
      "ĠI": 303,
      "'m": 304,
      "or": 305,
      "ood": 306,
      "on": 307,
      "Ġth": 308,
      "âĢ": 309,
      "Ġd": 310,
      "ĠâĢ": 311,
      "ĠâĢĶ": 312,
      "ow": 313,
      "Ġb": 314,
      "ay": 315,
      "ĠH": 316,
      "Ġf": 317,
      "ot": 318,
      "bou": 319,
      "et": 320,
      "Ġabou": 321,
      "Ġabout": 322,
      "om": 323,
      "ĠG": 324,
      "Ġj": 325,
      "Ġgood": 326,
      "all": 327,
      "Ġi": 328,
      "gh": 329,
      "hing": 330,
      "ĠW": 331,
      "Ġyour": 332,
      "Ġcan": 333,
      "Ġday": 334,
      "as": 335,
      "ke": 336,
      "Ġo": 337,
      "Ġit": 338,
      "Ġtal": 339,
      "Ġwhat": 340,
      "Ġhel": 341,
      "Ġfor": 342,
      "Ġtalk": 343,
      "ad": 344,
      "ar": 345,
      "ust": 346,
      "ĠT": 347,
      "Ġu": 348,
      "Ġjust": 349,
      "ver": 350,
      "ank": 351,
      "Ġthat": 352,
      "reat": 353,
      "Ġgo": 354,
      "ĠHow": 355,
      "ĠGood": 356,
      "Ġhelp": 357,
      "ion": 358,
      "Ġdo": 359,
      "Ġwel": 360,
      "Ġwit": 361,
      "Ġchat": 362,
      "Ġme": 363,
      "Ġthank": 364,
      "ally": 365,
      "ĠThat": 366,
      "Ġwith": 367,
      "her": 368,
      "pre": 369,
      "ĠN": 370,
      "Ġl": 371,
      "Ġre": 372,
      "Ġhe": 373,
      "Ġcas": 374,
      "Ġnot": 375,
      "orr": 376,
      "Ġcasu": 377,
      "igh": 378,
      "ld": 379,
      "lad": 380,
      "yt": 381,
      "ere": 382,
      "ough": 383,
      "ould": 384,
      "Ġwe": 385,
      "Ġha": 386,
      "Ġhow": 387,
      "Ġgreat": 388,
      "Ġso": 389,
      "Ġsom": 390,
      "ething": 391,
      "ĠWhat": 392,
      "Ġof": 393,
      "Ġgoing": 394,
      "Ġthanks": 395,
      "ight": 396,
      "Ġsomething": 397,
      "ce": 398,
      "ed": 399,
      "ew": 400,
      "mall": 401,
      "ve": 402,
      "ĠA": 403,
      "and": 404,
      "erv": 405,
      "ate": 406,
      "ation": 407,
      "Ġcon": 408,
      "Ġsmall": 409,
      "Ġthe": 410,
      "Ġup": 411,
      "Ġhear": 412,
      "orry": 413,
      "ything": 414,
      "'re": 415,
      "You": 416,
      "com": 417,
      "king": 418,
      "le": 419,
      "nd": 420,
      "se": 421,
      "ure": 422,
      "ye": 423,
      "ĠS": 424,
      "Ġe": 425,
      "Ġen": 426,
      "Ġon": 427,
      "ĠYou": 428,
      "ous": 429,
      "ent": 430,
      "Ġare": 431,
      "ind": 432,
      "Ġwould": 433,
      "oon": 434,
      "Ġma": 435,
      "Ġmind": 436,
      "Ġnew": 437,
      "Ġnerv": 438,
      "Ġdi": 439,
      "Ġbu": 440,
      "ĠGlad": 441,
      "Ġjo": 442,
      "Ġwelcom": 443,
      "Ġnervous": 444,
      "Ġwelcome": 445,
      "ci": 446,
      "cit": 447,
      "est": 448,
      "gr": 449,
      "gu": 450,
      "gent": 451,
      "ir": 452,
      "ike": 453,
      "ice": 454,
      "kay": 455,
      "lo": 456,
      "ly": 457,
      "noon": 458,
      "ore": 459,
      "ogu": 460,
      "ppre": 461,
      "rough": 462,
      "sation": 463,
      "tt": 464,
      "ul": 465,
      "ven": 466,
      "Ġex": 467,
      "Ġpre": 468,
      "erst": 469,
      "ernoon": 470,
      "ath": 471,
      "ather": 472,
      "atul": 473,
      "Ġal": 474,
      "Ġaft": 475,
      "Ġagent": 476,
      "Ġhere": 477,
      "Ġgot": 478,
      "Ġsorry": 479,
      "alogu": 480,
      "Ġmath": 481,
      "Ġnight": 482,
      "Ġbot": 483,
      "ĠWant": 484,
      "Ġokay": 485,
      "Ġund": 486,
      "versation": 487,
      "Ġwell": 488,
      "Ġlike": 489,
      "Ġreally": 490,
      "Ġcasual": 491,
      "Ġcasually": 492,
      "Ġweather": 493,
      "Ġhave": 494,
      "Ġconversation": 495,
      "Ġeven": 496,
      "Ġnews": 497,
      "Ġdialogu": 498,
      "Ġjoke": 499,
      "ciate": 500,
      "cited": 501,
      "gratul": 502,
      "ppreciate": 503,
      "tty": 504,
      "Ġexcited": 505,
      "erstand": 506,
      "Ġafternoon": 507,
      "Ġbother": 508,
      "Ġunderstand": 509,
      "Ġevening": 510,
      "Ġdialogue": 511,
      "'t": 512,
      "Fa": 513,
      "Pre": 514,
      "ac": 515,
      "ch": 516,
      "he": 517,
      "me": 518,
      "pp": 519,
      "rac": 520,
      "tion": 521,
      "uch": 522,
      "Ġan": 523,
      "Ġat": 524,
      "Ġver": 525,
      "ĠFa": 526,
      "ĠPre": 527,
      "Ġtoo": 528,
      "istrac": 529,
      "Ġwant": 530,
      "Ġwas": 531,
      "Ġcom": 532,
      "Ġset": 533,
      "Ġsure": 534,
      "Ġmuch": 535,
      "Ġno": 536,
      "ort": 537,
      "Ġthere": 538,
      "Ġdistrac": 539,
      "Ġbit": 540,
      "Ġbye": 541,
      "Ġfar": 542,
      "ĠNo": 543,
      "ĠNice": 544,
      "Ġlat": 545,
      "Ġhapp": 546,
      "ĠAn": 547,
      "ĠAppreciate": 548,
      "Ġenough": 549,
      "Ġanything": 550,
      "Ġvery": 551,
      "ĠFair": 552,
      "Ġcomp": 553,
      "Ġdistraction": 554,
      "Ġhappy": 555,
      "Con": 556,
      "Of": 557,
      "Rest": 558,
      "ab": 559,
      "ast": 560,
      "ake": 561,
      "ave": 562,
      "ame": 563,
      "bye": 564,
      "cce": 565,
      "ee": 566,
      "es": 567,
      "ey": 568,
      "een": 569,
      "ho": 570,
      "il": 571,
      "ies": 572,
      "jo": 573,
      "ning": 574,
      "op": 575,
      "right": 576,
      "rse": 577,
      "sy": 578,
      "sking": 579,
      "Ġin": 580,
      "Ġel": 581,
      "Ġor": 582,
      "Ġrough": 583,
      "ĠCon": 584,
      "ĠOf": 585,
      "ĠRest": 586,
      "any": 587,
      "ourse": 588,
      "ata": 589,
      "Ġtel": 590,
      "Ġtreat": 591,
      "ssure": 592,
      "Ġahe": 593,
      "Ġacce": 594,
      "Ġasking": 595,
      "ine": 596,
      "ink": 597,
      "inly": 598,
      "Ġyet": 599,
      "Ġworr": 600,
      "Ġwho": 601,
      "reet": 602,
      "Ġhi": 603,
      "Ġhon": 604,
      "Ġhad": 605,
      "Ġhand": 606,
      "Ġcould": 607,
      "Ġcourse": 608,
      "ings": 609,
      "Ġglad": 610,
      "Ġgreet": 611,
      "Ġsay": 612,
      "Ġsort": 613,
      "Ġmor": 614,
      "Ġmore": 615,
      "Ġnow": 616,
      "Ġname": 617,
      "ello": 618,
      "Ġthing": 619,
      "Ġthrough": 620,
      "Ġthink": 621,
      "Ġdata": 622,
      "Ġbore": 623,
      "Ġbeen": 624,
      "ĠHi": 625,
      "ĠHave": 626,
      "ĠHey": 627,
      "ĠHello": 628,
      "Ġfine": 629,
      "Ġif": 630,
      "ĠWe": 631,
      "Ġdays": 632,
      "Ġhello": 633,
      "ĠGoodbye": 634,
      "Ġdon": 635,
      "Ġdoing": 636,
      "Ġmeet": 637,
      "ĠNot": 638,
      "Ġrest": 639,
      "Ġreal": 640,
      "Ġhey": 641,
      "Ġoff": 642,
      "ations": 643,
      "Ġcongratul": 644,
      "ĠSo": 645,
      "ĠSorry": 646,
      "Ġenjo": 647,
      "Ġmaking": 648,
      "Ġmainly": 649,
      "Ġbut": 650,
      "Ġbuil": 651,
      "estly": 652,
      "Ġpretty": 653,
      "Ġpressure": 654,
      "Ġall": 655,
      "Ġalright": 656,
      "Ġjokes": 657,
      "gratulations": 658,
      "Ġunderstanding": 659,
      "Ġunderstandab": 660,
      "ĠPretty": 661,
      "Ġlater": 662,
      "ĠAnything": 663,
      "Ġcompany": 664,
      "ope": 665,
      "Ġelse": 666,
      "ĠCongratulations": 667,
      "Ġtell": 668,
      "Ġtreating": 669,
      "Ġahead": 670,
      "Ġaccess": 671,
      "Ġworries": 672,
      "Ġhonestly": 673,
      "Ġhandle": 674,
      "Ġgreetings": 675,
      "Ġmorning": 676,
      "Ġbored": 677,
      "Ġcongratulate": 678,
      "Ġenjoy": 679,
      "Ġbuilt": 680,
      "Ġunderstandable": 681,
      "Bu": 682,
      "Let": 683,
      "ain": 684,
      "are": 685,
      "cing": 686,
      "cking": 687,
      "ek": 688,
      "ep": 689,
      "eel": 690,
      "ever": 691,
      "east": 692,
      "ge": 693,
      "hank": 694,
      "iew": 695,
      "ime": 696,
      "icing": 697,
      "kn": 698,
      "lain": 699,
      "night": 700,
      "par": 701,
      "pir": 702,
      "su": 703,
      "terv": 704,
      "tle": 705,
      "wn": 706,
      "Ġst": 707,
      "Ġke": 708,
      "Ġed": 709,
      "ĠBu": 710,
      "ĠLet": 711,
      "Ġkn": 712,
      "ound": 713,
      "Ġtake": 714,
      "ense": 715,
      "Ġappreciate": 716,
      "Ġwort": 717,
      "Ġhas": 718,
      "Ġhope": 719,
      "Ġcoo": 720,
      "Ġche": 721,
      "Ġcare": 722,
      "Ġsoon": 723,
      "Ġsee": 724,
      "Ġspir": 725,
      "Ġsound": 726,
      "Ġsense": 727,
      "Ġmom": 728,
      "Ġnice": 729,
      "Ġnever": 730,
      "Ġtonight": 731,
      "ely": 732,
      "Ġby": 733,
      "ĠHope": 734,
      "Ġfast": 735,
      "Ġfeel": 736,
      "ĠGreat": 737,
      "kes": 738,
      "Ġover": 739,
      "Ġtalking": 740,
      "art": 741,
      "ĠTake": 742,
      "ĠThank": 743,
      "Ġusu": 744,
      "verything": 745,
      "Ġhelps": 746,
      "Ġdown": 747,
      "Ġleast": 748,
      "Ġnoticing": 749,
      "ytime": 750,
      "Ġweek": 751,
      "ĠSee": 752,
      "Ġeverything": 753,
      "Ġmakes": 754,
      "Ġdid": 755,
      "Ġbusy": 756,
      "Ġjob": 757,
      "ĠPrepar": 758,
      "Ġwanted": 759,
      "Ġsettle": 760,
      "Ġlately": 761,
      "ĠAnytime": 762,
      "Ġcomplain": 763,
      "Ġinterv": 764,
      "Ġstart": 765,
      "Ġkeep": 766,
      "Ġedge": 767,
      "ĠBusy": 768,
      "Ġknow": 769,
      "Ġworth": 770,
      "Ġcool": 771,
      "Ġchecking": 772,
      "Ġspirit": 773,
      "Ġsounds": 774,
      "Ġmoment": 775,
      "Ġoverall": 776,
      "ĠThanks": 777,
      "Ġusually": 778,
      "ĠPreparing": 779,
      "Ġsettles": 780,
      "Ġinterview": 781
    },
    "merges": [
      [
        "a",
        "n"
      ],
      [
        "e",
        "r"
      ],
      [
        "s",
        "t"
      ],
      [
        "o",
        "u"
      ],
      [
        "a",
        "t"
      ],
      [
        "Ġ",
        "t"
      ],
      [
        "an",
        "t"
      ],
      [
        "s",
        "s"
      ],
      [
        "i",
        "st"
      ],
      [
        "A",
        "ss"
      ],
      [
        "U",
        "s"
      ],
      [
        "ist",
        "ant"
      ],
      [
        "Ass",
        "istant"
      ],
      [
        "Us",
        "er"
      ],
      [
        "e",
        "n"
      ],
      [
        "Ġ",
        "a"
      ],
      [
        "d",
        "o"
      ],
      [
        "i",
        "n"
      ],
      [
        "Ġ",
        "y"
      ],
      [
        "e",
        "x"
      ],
      [
        "f",
        "t"
      ],
      [
        "Ġ",
        "w"
      ],
      [
        "Ġy",
        "ou"
      ],
      [
        "r",
        "e"
      ],
      [
        "<",
        "|"
      ],
      [
        "|",
        ">"
      ],
      [
        "en",
        "do"
      ],
      [
        "ex",
        "t"
      ],
      [
        "ft",
        "ext"
      ],
      [
        "endo",
        "ftext"
      ],
      [
        "Ġ",
        "h"
      ],
      [
        "h",
        "at"
      ],
      [
        "Ġ",
        "c"
      ],
      [
        "in",
        "g"
      ],
      [
        "Ġ",
        "g"
      ],
      [
        "Ġ",
        "s"
      ],
      [
        "a",
        "l"
      ],
      [
        "o",
        "o"
      ],
      [
        "'",
        "s"
      ],
      [
        "Ġ",
        "m"
      ],
      [
        "Ġ",
        "n"
      ],
      [
        "Ġt",
        "o"
      ],
      [
        "e",
        "l"
      ],
      [
        "i",
        "t"
      ],
      [
        "Ġ",
        "I"
      ],
      [
        "'",
        "m"
      ],
      [
        "o",
        "r"
      ],
      [
        "oo",
        "d"
      ],
      [
        "o",
        "n"
      ],
      [
        "Ġt",
        "h"
      ],
      [
        "â",
        "Ģ"
      ],
      [
        "Ġ",
        "d"
      ],
      [
        "Ġ",
        "âĢ"
      ],
      [
        "ĠâĢ",
        "Ķ"
      ],
      [
        "o",
        "w"
      ],
      [
        "Ġ",
        "b"
      ],
      [
        "a",
        "y"
      ],
      [
        "Ġ",
        "H"
      ],
      [
        "Ġ",
        "f"
      ],
      [
        "o",
        "t"
      ],
      [
        "b",
        "ou"
      ],
      [
        "e",
        "t"
      ],
      [
        "Ġa",
        "bou"
      ],
      [
        "Ġabou",
        "t"
      ],
      [
        "o",
        "m"
      ],
      [
        "Ġ",
        "G"
      ],
      [
        "Ġ",
        "j"
      ],
      [
        "Ġg",
        "ood"
      ],
      [
        "al",
        "l"
      ],
      [
        "Ġ",
        "i"
      ],
      [
        "g",
        "h"
      ],
      [
        "h",
        "ing"
      ],
      [
        "Ġ",
        "W"
      ],
      [
        "Ġyou",
        "r"
      ],
      [
        "Ġc",
        "an"
      ],
      [
        "Ġd",
        "ay"
      ],
      [
        "a",
        "s"
      ],
      [
        "k",
        "e"
      ],
      [
        "Ġ",
        "o"
      ],
      [
        "Ġ",
        "it"
      ],
      [
        "Ġt",
        "al"
      ],
      [
        "Ġw",
        "hat"
      ],
      [
        "Ġh",
        "el"
      ],
      [
        "Ġf",
        "or"
      ],
      [
        "Ġtal",
        "k"
      ],
      [
        "a",
        "d"
      ],
      [
        "a",
        "r"
      ],
      [
        "u",
        "st"
      ],
      [
        "Ġ",
        "T"
      ],
      [
        "Ġ",
        "u"
      ],
      [
        "Ġj",
        "ust"
      ],
      [
        "v",
        "er"
      ],
      [
        "an",
        "k"
      ],
      [
        "Ġt",
        "hat"
      ],
      [
        "re",
        "at"
      ],
      [
        "Ġg",
        "o"
      ],
      [
        "ĠH",
        "ow"
      ],
      [
        "ĠG",
        "ood"
      ],
      [
        "Ġhel",
        "p"
      ],
      [
        "i",
        "on"
      ],
      [
        "Ġ",
        "do"
      ],
      [
        "Ġw",
        "el"
      ],
      [
        "Ġw",
        "it"
      ],
      [
        "Ġc",
        "hat"
      ],
      [
        "Ġm",
        "e"
      ],
      [
        "Ġth",
        "ank"
      ],
      [
        "all",
        "y"
      ],
      [
        "ĠT",
        "hat"
      ],
      [
        "Ġwit",
        "h"
      ],
      [
        "h",
        "er"
      ],
      [
        "p",
        "re"
      ],
      [
        "Ġ",
        "N"
      ],
      [
        "Ġ",
        "l"
      ],
      [
        "Ġ",
        "re"
      ],
      [
        "Ġh",
        "e"
      ],
      [
        "Ġc",
        "as"
      ],
      [
        "Ġn",
        "ot"
      ],
      [
        "or",
        "r"
      ],
      [
        "Ġcas",
        "u"
      ],
      [
        "i",
        "gh"
      ],
      [
        "l",
        "d"
      ],
      [
        "l",
        "ad"
      ],
      [
        "y",
        "t"
      ],
      [
        "er",
        "e"
      ],
      [
        "ou",
        "gh"
      ],
      [
        "ou",
        "ld"
      ],
      [
        "Ġw",
        "e"
      ],
      [
        "Ġh",
        "a"
      ],
      [
        "Ġh",
        "ow"
      ],
      [
        "Ġg",
        "reat"
      ],
      [
        "Ġs",
        "o"
      ],
      [
        "Ġs",
        "om"
      ],
      [
        "et",
        "hing"
      ],
      [
        "ĠW",
        "hat"
      ],
      [
        "Ġo",
        "f"
      ],
      [
        "Ġgo",
        "ing"
      ],
      [
        "Ġthank",
        "s"
      ],
      [
        "igh",
        "t"
      ],
      [
        "Ġsom",
        "ething"
      ],
      [
        "c",
        "e"
      ],
      [
        "e",
        "d"
      ],
      [
        "e",
        "w"
      ],
      [
        "m",
        "all"
      ],
      [
        "v",
        "e"
      ],
      [
        "Ġ",
        "A"
      ],
      [
        "an",
        "d"
      ],
      [
        "er",
        "v"
      ],
      [
        "at",
        "e"
      ],
      [
        "at",
        "ion"
      ],
      [
        "Ġc",
        "on"
      ],
      [
        "Ġs",
        "mall"
      ],
      [
        "Ġth",
        "e"
      ],
      [
        "Ġu",
        "p"
      ],
      [
        "Ġhe",
        "ar"
      ],
      [
        "orr",
        "y"
      ],
      [
        "yt",
        "hing"
      ],
      [
        "'",
        "re"
      ],
      [
        "Y",
        "ou"
      ],
      [
        "c",
        "om"
      ],
      [
        "k",
        "ing"
      ],
      [
        "l",
        "e"
      ],
      [
        "n",
        "d"
      ],
      [
        "s",
        "e"
      ],
      [
        "u",
        "re"
      ],
      [
        "y",
        "e"
      ],
      [
        "Ġ",
        "S"
      ],
      [
        "Ġ",
        "e"
      ],
      [
        "Ġ",
        "en"
      ],
      [
        "Ġ",
        "on"
      ],
      [
        "Ġ",
        "You"
      ],
      [
        "ou",
        "s"
      ],
      [
        "en",
        "t"
      ],
      [
        "Ġa",
        "re"
      ],
      [
        "in",
        "d"
      ],
      [
        "Ġw",
        "ould"
      ],
      [
        "oo",
        "n"
      ],
      [
        "Ġm",
        "a"
      ],
      [
        "Ġm",
        "ind"
      ],
      [
        "Ġn",
        "ew"
      ],
      [
        "Ġn",
        "erv"
      ],
      [
        "Ġd",
        "i"
      ],
      [
        "Ġb",
        "u"
      ],
      [
        "ĠG",
        "lad"
      ],
      [
        "Ġj",
        "o"
      ],
      [
        "Ġwel",
        "com"
      ],
      [
        "Ġnerv",
        "ous"
      ],
      [
        "Ġwelcom",
        "e"
      ],
      [
        "c",
        "i"
      ],
      [
        "c",
        "it"
      ],
      [
        "e",
        "st"
      ],
      [
        "g",
        "r"
      ],
      [
        "g",
        "u"
      ],
      [
        "g",
        "ent"
      ],
      [
        "i",
        "r"
      ],
      [
        "i",
        "ke"
      ],
      [
        "i",
        "ce"
      ],
      [
        "k",
        "ay"
      ],
      [
        "l",
        "o"
      ],
      [
        "l",
        "y"
      ],
      [
        "n",
        "oon"
      ],
      [
        "o",
        "re"
      ],
      [
        "o",
        "gu"
      ],
      [
        "p",
        "pre"
      ],
      [
        "r",
        "ough"
      ],
      [
        "s",
        "ation"
      ],
      [
        "t",
        "t"
      ],
      [
        "u",
        "l"
      ],
      [
        "v",
        "en"
      ],
      [
        "Ġ",
        "ex"
      ],
      [
        "Ġ",
        "pre"
      ],
      [
        "er",
        "st"
      ],
      [
        "er",
        "noon"
      ],
      [
        "at",
        "h"
      ],
      [
        "at",
        "her"
      ],
      [
        "at",
        "ul"
      ],
      [
        "Ġa",
        "l"
      ],
      [
        "Ġa",
        "ft"
      ],
      [
        "Ġa",
        "gent"
      ],
      [
        "Ġh",
        "ere"
      ],
      [
        "Ġg",
        "ot"
      ],
      [
        "Ġs",
        "orry"
      ],
      [
        "al",
        "ogu"
      ],
      [
        "Ġm",
        "ath"
      ],
      [
        "Ġn",
        "ight"
      ],
      [
        "Ġb",
        "ot"
      ],
      [
        "ĠW",
        "ant"
      ],
      [
        "Ġo",
        "kay"
      ],
      [
        "Ġu",
        "nd"
      ],
      [
        "ver",
        "sation"
      ],
      [
        "Ġwel",
        "l"
      ],
      [
        "Ġl",
        "ike"
      ],
      [
        "Ġre",
        "ally"
      ],
      [
        "Ġcasu",
        "al"
      ],
      [
        "Ġcasu",
        "ally"
      ],
      [
        "Ġwe",
        "ather"
      ],
      [
        "Ġha",
        "ve"
      ],
      [
        "Ġcon",
        "versation"
      ],
      [
        "Ġe",
        "ven"
      ],
      [
        "Ġnew",
        "s"
      ],
      [
        "Ġdi",
        "alogu"
      ],
      [
        "Ġjo",
        "ke"
      ],
      [
        "ci",
        "ate"
      ],
      [
        "cit",
        "ed"
      ],
      [
        "gr",
        "atul"
      ],
      [
        "ppre",
        "ciate"
      ],
      [
        "tt",
        "y"
      ],
      [
        "Ġex",
        "cited"
      ],
      [
        "erst",
        "and"
      ],
      [
        "Ġaft",
        "ernoon"
      ],
      [
        "Ġbot",
        "her"
      ],
      [
        "Ġund",
        "erstand"
      ],
      [
        "Ġeven",
        "ing"
      ],
      [
        "Ġdialogu",
        "e"
      ],
      [
        "'",
        "t"
      ],
      [
        "F",
        "a"
      ],
      [
        "P",
        "re"
      ],
      [
        "a",
        "c"
      ],
      [
        "c",
        "h"
      ],
      [
        "h",
        "e"
      ],
      [
        "m",
        "e"
      ],
      [
        "p",
        "p"
      ],
      [
        "r",
        "ac"
      ],
      [
        "t",
        "ion"
      ],
      [
        "u",
        "ch"
      ],
      [
        "Ġ",
        "an"
      ],
      [
        "Ġ",
        "at"
      ],
      [
        "Ġ",
        "ver"
      ],
      [
        "Ġ",
        "Fa"
      ],
      [
        "Ġ",
        "Pre"
      ],
      [
        "Ġt",
        "oo"
      ],
      [
        "ist",
        "rac"
      ],
      [
        "Ġw",
        "ant"
      ],
      [
        "Ġw",
        "as"
      ],
      [
        "Ġc",
        "om"
      ],
      [
        "Ġs",
        "et"
      ],
      [
        "Ġs",
        "ure"
      ],
      [
        "Ġm",
        "uch"
      ],
      [
        "Ġn",
        "o"
      ],
      [
        "or",
        "t"
      ],
      [
        "Ġth",
        "ere"
      ],
      [
        "Ġd",
        "istrac"
      ],
      [
        "Ġb",
        "it"
      ],
      [
        "Ġb",
        "ye"
      ],
      [
        "Ġf",
        "ar"
      ],
      [
        "ĠN",
        "o"
      ],
      [
        "ĠN",
        "ice"
      ],
      [
        "Ġl",
        "at"
      ],
      [
        "Ġha",
        "pp"
      ],
      [
        "ĠA",
        "n"
      ],
      [
        "ĠA",
        "ppreciate"
      ],
      [
        "Ġen",
        "ough"
      ],
      [
        "Ġan",
        "ything"
      ],
      [
        "Ġver",
        "y"
      ],
      [
        "ĠFa",
        "ir"
      ],
      [
        "Ġcom",
        "p"
      ],
      [
        "Ġdistrac",
        "tion"
      ],
      [
        "Ġhapp",
        "y"
      ],
      [
        "C",
        "on"
      ],
      [
        "O",
        "f"
      ],
      [
        "R",
        "est"
      ],
      [
        "a",
        "b"
      ],
      [
        "a",
        "st"
      ],
      [
        "a",
        "ke"
      ],
      [
        "a",
        "ve"
      ],
      [
        "a",
        "me"
      ],
      [
        "b",
        "ye"
      ],
      [
        "c",
        "ce"
      ],
      [
        "e",
        "e"
      ],
      [
        "e",
        "s"
      ],
      [
        "e",
        "y"
      ],
      [
        "e",
        "en"
      ],
      [
        "h",
        "o"
      ],
      [
        "i",
        "l"
      ],
      [
        "i",
        "es"
      ],
      [
        "j",
        "o"
      ],
      [
        "n",
        "ing"
      ],
      [
        "o",
        "p"
      ],
      [
        "r",
        "ight"
      ],
      [
        "r",
        "se"
      ],
      [
        "s",
        "y"
      ],
      [
        "s",
        "king"
      ],
      [
        "Ġ",
        "in"
      ],
      [
        "Ġ",
        "el"
      ],
      [
        "Ġ",
        "or"
      ],
      [
        "Ġ",
        "rough"
      ],
      [
        "Ġ",
        "Con"
      ],
      [
        "Ġ",
        "Of"
      ],
      [
        "Ġ",
        "Rest"
      ],
      [
        "an",
        "y"
      ],
      [
        "ou",
        "rse"
      ],
      [
        "at",
        "a"
      ],
      [
        "Ġt",
        "el"
      ],
      [
        "Ġt",
        "reat"
      ],
      [
        "ss",
        "ure"
      ],
      [
        "Ġa",
        "he"
      ],
      [
        "Ġa",
        "cce"
      ],
      [
        "Ġa",
        "sking"
      ],
      [
        "in",
        "e"
      ],
      [
        "in",
        "k"
      ],
      [
        "in",
        "ly"
      ],
      [
        "Ġy",
        "et"
      ],
      [
        "Ġw",
        "orr"
      ],
      [
        "Ġw",
        "ho"
      ],
      [
        "re",
        "et"
      ],
      [
        "Ġh",
        "i"
      ],
      [
        "Ġh",
        "on"
      ],
      [
        "Ġh",
        "ad"
      ],
      [
        "Ġh",
        "and"
      ],
      [
        "Ġc",
        "ould"
      ],
      [
        "Ġc",
        "ourse"
      ],
      [
        "ing",
        "s"
      ],
      [
        "Ġg",
        "lad"
      ],
      [
        "Ġg",
        "reet"
      ],
      [
        "Ġs",
        "ay"
      ],
      [
        "Ġs",
        "ort"
      ],
      [
        "Ġm",
        "or"
      ],
      [
        "Ġm",
        "ore"
      ],
      [
        "Ġn",
        "ow"
      ],
      [
        "Ġn",
        "ame"
      ],
      [
        "el",
        "lo"
      ],
      [
        "Ġth",
        "ing"
      ],
      [
        "Ġth",
        "rough"
      ],
      [
        "Ġth",
        "ink"
      ],
      [
        "Ġd",
        "ata"
      ],
      [
        "Ġb",
        "ore"
      ],
      [
        "Ġb",
        "een"
      ],
      [
        "ĠH",
        "i"
      ],
      [
        "ĠH",
        "ave"
      ],
      [
        "ĠH",
        "ey"
      ],
      [
        "ĠH",
        "ello"
      ],
      [
        "Ġf",
        "ine"
      ],
      [
        "Ġi",
        "f"
      ],
      [
        "ĠW",
        "e"
      ],
      [
        "Ġday",
        "s"
      ],
      [
        "Ġhel",
        "lo"
      ],
      [
        "ĠGood",
        "bye"
      ],
      [
        "Ġdo",
        "n"
      ],
      [
        "Ġdo",
        "ing"
      ],
      [
        "Ġme",
        "et"
      ],
      [
        "ĠN",
        "ot"
      ],
      [
        "Ġre",
        "st"
      ],
      [
        "Ġre",
        "al"
      ],
      [
        "Ġhe",
        "y"
      ],
      [
        "Ġof",
        "f"
      ],
      [
        "ation",
        "s"
      ],
      [
        "Ġcon",
        "gratul"
      ],
      [
        "ĠS",
        "o"
      ],
      [
        "ĠS",
        "orry"
      ],
      [
        "Ġen",
        "jo"
      ],
      [
        "Ġma",
        "king"
      ],
      [
        "Ġma",
        "inly"
      ],
      [
        "Ġbu",
        "t"
      ],
      [
        "Ġbu",
        "il"
      ],
      [
        "est",
        "ly"
      ],
      [
        "Ġpre",
        "tty"
      ],
      [
        "Ġpre",
        "ssure"
      ],
      [
        "Ġal",
        "l"
      ],
      [
        "Ġal",
        "right"
      ],
      [
        "Ġjoke",
        "s"
      ],
      [
        "gratul",
        "ations"
      ],
      [
        "Ġunderstand",
        "ing"
      ],
      [
        "Ġunderstand",
        "ab"
      ],
      [
        "ĠPre",
        "tty"
      ],
      [
        "Ġlat",
        "er"
      ],
      [
        "ĠAn",
        "ything"
      ],
      [
        "Ġcomp",
        "any"
      ],
      [
        "op",
        "e"
      ],
      [
        "Ġel",
        "se"
      ],
      [
        "ĠCon",
        "gratulations"
      ],
      [
        "Ġtel",
        "l"
      ],
      [
        "Ġtreat",
        "ing"
      ],
      [
        "Ġahe",
        "ad"
      ],
      [
        "Ġacce",
        "ss"
      ],
      [
        "Ġworr",
        "ies"
      ],
      [
        "Ġhon",
        "estly"
      ],
      [
        "Ġhand",
        "le"
      ],
      [
        "Ġgreet",
        "ings"
      ],
      [
        "Ġmor",
        "ning"
      ],
      [
        "Ġbore",
        "d"
      ],
      [
        "Ġcongratul",
        "ate"
      ],
      [
        "Ġenjo",
        "y"
      ],
      [
        "Ġbuil",
        "t"
      ],
      [
        "Ġunderstandab",
        "le"
      ],
      [
        "B",
        "u"
      ],
      [
        "L",
        "et"
      ],
      [
        "a",
        "in"
      ],
      [
        "a",
        "re"
      ],
      [
        "c",
        "ing"
      ],
      [
        "c",
        "king"
      ],
      [
        "e",
        "k"
      ],
      [
        "e",
        "p"
      ],
      [
        "e",
        "el"
      ],
      [
        "e",
        "ver"
      ],
      [
        "e",
        "ast"
      ],
      [
        "g",
        "e"
      ],
      [
        "h",
        "ank"
      ],
      [
        "i",
        "ew"
      ],
      [
        "i",
        "me"
      ],
      [
        "i",
        "cing"
      ],
      [
        "k",
        "n"
      ],
      [
        "l",
        "ain"
      ],
      [
        "n",
        "ight"
      ],
      [
        "p",
        "ar"
      ],
      [
        "p",
        "ir"
      ],
      [
        "s",
        "u"
      ],
      [
        "t",
        "erv"
      ],
      [
        "t",
        "le"
      ],
      [
        "w",
        "n"
      ],
      [
        "Ġ",
        "st"
      ],
      [
        "Ġ",
        "ke"
      ],
      [
        "Ġ",
        "ed"
      ],
      [
        "Ġ",
        "Bu"
      ],
      [
        "Ġ",
        "Let"
      ],
      [
        "Ġ",
        "kn"
      ],
      [
        "ou",
        "nd"
      ],
      [
        "Ġt",
        "ake"
      ],
      [
        "en",
        "se"
      ],
      [
        "Ġa",
        "ppreciate"
      ],
      [
        "Ġw",
        "ort"
      ],
      [
        "Ġh",
        "as"
      ],
      [
        "Ġh",
        "ope"
      ],
      [
        "Ġc",
        "oo"
      ],
      [
        "Ġc",
        "he"
      ],
      [
        "Ġc",
        "are"
      ],
      [
        "Ġs",
        "oon"
      ],
      [
        "Ġs",
        "ee"
      ],
      [
        "Ġs",
        "pir"
      ],
      [
        "Ġs",
        "ound"
      ],
      [
        "Ġs",
        "ense"
      ],
      [
        "Ġm",
        "om"
      ],
      [
        "Ġn",
        "ice"
      ],
      [
        "Ġn",
        "ever"
      ],
      [
        "Ġto",
        "night"
      ],
      [
        "el",
        "y"
      ],
      [
        "Ġb",
        "y"
      ],
      [
        "ĠH",
        "ope"
      ],
      [
        "Ġf",
        "ast"
      ],
      [
        "Ġf",
        "eel"
      ],
      [
        "ĠG",
        "reat"
      ],
      [
        "ke",
        "s"
      ],
      [
        "Ġo",
        "ver"
      ],
      [
        "Ġtalk",
        "ing"
      ],
      [
        "ar",
        "t"
      ],
      [
        "ĠT",
        "ake"
      ],
      [
        "ĠT",
        "hank"
      ],
      [
        "Ġu",
        "su"
      ],
      [
        "ver",
        "ything"
      ],
      [
        "Ġhelp",
        "s"
      ],
      [
        "Ġdo",
        "wn"
      ],
      [
        "Ġl",
        "east"
      ],
      [
        "Ġnot",
        "icing"
      ],
      [
        "yt",
        "ime"
      ],
      [
        "Ġwe",
        "ek"
      ],
      [
        "ĠS",
        "ee"
      ],
      [
        "Ġe",
        "verything"
      ],
      [
        "Ġma",
        "kes"
      ],
      [
        "Ġdi",
        "d"
      ],
      [
        "Ġbu",
        "sy"
      ],
      [
        "Ġjo",
        "b"
      ],
      [
        "ĠPre",
        "par"
      ],
      [
        "Ġwant",
        "ed"
      ],
      [
        "Ġset",
        "tle"
      ],
      [
        "Ġlat",
        "ely"
      ],
      [
        "ĠAn",
        "ytime"
      ],
      [
        "Ġcomp",
        "lain"
      ],
      [
        "Ġin",
        "terv"
      ],
      [
        "Ġst",
        "art"
      ],
      [
        "Ġke",
        "ep"
      ],
      [
        "Ġed",
        "ge"
      ],
      [
        "ĠBu",
        "sy"
      ],
      [
        "Ġkn",
        "ow"
      ],
      [
        "Ġwort",
        "h"
      ],
      [
        "Ġcoo",
        "l"
      ],
      [
        "Ġche",
        "cking"
      ],
      [
        "Ġspir",
        "it"
      ],
      [
        "Ġsound",
        "s"
      ],
      [
        "Ġmom",
        "ent"
      ],
      [
        "Ġover",
        "all"
      ],
      [
        "ĠThank",
        "s"
      ],
      [
        "Ġusu",
        "ally"
      ],
      [
        "ĠPrepar",
        "ing"
      ],
      [
        "Ġsettle",
        "s"
      ],
      [
        "Ġinterv",
        "iew"
      ]
    ]
  }
}