{
  "version": "1.0",
  "truncation": null,
  "padding": null,
  "added_tokens": [
    {
      "id": 0,
      "content": "<|endoftext|>",
      "single_word": false,
      "lstrip": false,
      "rstrip": false,
      "normalized": false,
      "special": true
    },
    {
      "id": 1,
      "content": "<pad>",
      "single_word": false,
      "lstrip": false,
      "rstrip": false,
      "normalized": false,
      "special": true
    },
    {
      "id": 2,
      "content": "<unk>",
      "single_word": false,
      "lstrip": false,
      "rstrip": false,
      "normalized": false,
      "special": true
    }
  ],
  "normalizer": null,
  "pre_tokenizer": {
    "type": "ByteLevel",
    "add_prefix_space": false,
    "trim_offsets": true,
    "use_regex": true
  },
  "post_processor": {
    "type": "ByteLevel",
    "add_prefix_space": true,
    "trim_offsets": false,
    "use_regex": true
  },
  "decoder": {
    "type": "ByteLevel",
    "add_prefix_space": true,
    "trim_offsets": true,
    "use_regex": true
  },
  "model": {
    "type": "BPE",
    "dropout": null,
    "unk_token": null,
    "continuing_subword_prefix": null,
    "end_of_word_suffix": null,
    "fuse_unk": false,
    "byte_fallback": false,
    "ignore_merges": false,
    "vocab": {
      "<|endoftext|>": 0,
      "<pad>": 1,
      "<unk>": 2,
      "!": 3,
      "\"": 4,
      "#": 5,
      "$": 6,
      "%": 7,
      "&": 8,
      "'": 9,
      "(": 10,
      ")": 11,
      "*": 12,
      "+": 13,
      ",": 14,
      "-": 15,
      ".": 16,
      "/": 17,
      "0": 18,
      "1": 19,
      "2": 20,
      "3": 21,
      "4": 22,
      "5": 23,
      "6": 24,
      "7": 25,
      "8": 26,
      "9": 27,
      ":": 28,
      ";": 29,
      "<": 30,
      "=": 31,
      ">": 32,
      "?": 33,
      "@": 34,
      "A": 35,
      "B": 36,
      "C": 37,
      "D": 38,
      "E": 39,
      "F": 40,
      "G": 41,
      "H": 42,
      "I": 43,
      "J": 44,
      "K": 45,
      "L": 46,
      "M": 47,
      "N": 48,
      "O": 49,
      "P": 50,
      "Q": 51,
      "R": 52,
      "S": 53,
      "T": 54,
      "U": 55,
      "V": 56,
      "W": 57,
      "X": 58,
      "Y": 59,
      "Z": 60,
      "[": 61,
      "\\": 62,
      "]": 63,
      "^": 64,
      "_": 65,
      "`": 66,
      "a": 67,
      "b": 68,
      "c": 69,
      "d": 70,
      "e": 71,
      "f": 72,
      "g": 73,
      "h": 74,
      "i": 75,
      "j": 76,
      "k": 77,
      "l": 78,
      "m": 79,
      "n": 80,
      "o": 81,
      "p": 82,
      "q": 83,
      "r": 84,
      "s": 85,
      "t": 86,
      "u": 87,
      "v": 88,
      "w": 89,
      "x": 90,
      "y": 91,
      "z": 92,
      "{": 93,
      "|": 94,
      "}": 95,
      "~": 96,
      "¡": 97,
      "¢": 98,
      "£": 99,
      "¤": 100,
      "¥": 101,
      "¦": 102,
      "§": 103,
      "¨": 104,
      "©": 105,
      "ª": 106,
      "«": 107,
      "¬": 108,
      "®": 109,
      "¯": 110,
      "°": 111,
      "±": 112,
      "²": 113,
      "³": 114,
      "´": 115,
      "µ": 116,
      "¶": 117,
      "·": 118,
      "¸": 119,
      "¹": 120,
      "º": 121,
      "»": 122,
      "¼": 123,
      "½": 124,
      "¾": 125,
      "¿": 126,
      "À": 127,
      "Á": 128,
      "Â": 129,
      "Ã": 130,
      "Ä": 131,
      "Å": 132,
      "Æ": 133,
      "Ç": 134,
      "È": 135,
      "É": 136,
      "Ê": 137,
      "Ë": 138,
      "Ì": 139,
      "Í": 140,
      "Î": 141,
      "Ï": 142,
      "Ð": 143,
      "Ñ": 144,
      "Ò": 145,
      "Ó": 146,
      "Ô": 147,
      "Õ": 148,
      "Ö": 149,
      "×": 150,
      "Ø": 151,
      "Ù": 152,
      "Ú": 153,
      "Û": 154,
      "Ü": 155,
      "Ý": 156,
      "Þ": 157,
      "ß": 158,
      "à": 159,
      "á": 160,
      "â": 161,
      "ã": 162,
      "ä": 163,
      "å": 164,
      "æ": 165,
      "ç": 166,
      "è": 167,
      "é": 168,
      "ê": 169,
      "ë": 170,
      "ì": 171,
      "í": 172,
      "î": 173,
      "ï": 174,
      "ð": 175,
      "ñ": 176,
      "ò": 177,
      "ó": 178,
      "ô": 179,
      "õ": 180,
      "ö": 181,
      "÷": 182,
      "ø": 183,
      "ù": 184,
      "ú": 185,
      "û": 186,
      "ü": 187,
      "ý": 188,
      "þ": 189,
      "ÿ": 190,
      "Ā": 191,
      "ā": 192,
      "Ă": 193,
      "ă": 194,
      "Ą": 195,
      "ą": 196,
      "Ć": 197,
      "ć": 198,
      "Ĉ": 199,
      "ĉ": 200,
      "Ċ": 201,
      "ċ": 202,
      "Č": 203,
      "č": 204,
      "Ď": 205,
      "ď": 206,
      "Đ": 207,
      "đ": 208,
      "Ē": 209,
      "ē": 210,
      "Ĕ": 211,
      "ĕ": 212,
      "Ė": 213,
      "ė": 214,
      "Ę": 215,
      "ę": 216,
      "Ě": 217,
      "ě": 218,
      "Ĝ": 219,
      "ĝ": 220,
      "Ğ": 221,
      "ğ": 222,
      "Ġ": 223,
      "ġ": 224,
      "Ģ": 225,
      "ģ": 226,
      "Ĥ": 227,
      "ĥ": 228,
      "Ħ": 229,
      "ħ": 230,
      "Ĩ": 231,
      "ĩ": 232,
      "Ī": 233,
      "ī": 234,
      "Ĭ": 235,
      "ĭ": 236,
      "Į": 237,
      "į": 238,
      "İ": 239,
      "ı": 240,
      "Ĳ": 241,
      "ĳ": 242,
      "Ĵ": 243,
      "ĵ": 244,
      "Ķ": 245,
      "ķ": 246,
      "ĸ": 247,
      "Ĺ": 248,
      "ĺ": 249,
      "Ļ": 250,
      "ļ": 251,
      "Ľ": 252,
      "ľ": 253,
      "Ŀ": 254,
      "ŀ": 255,
      "Ł": 256,
      "ł": 257,
      "Ń": 258,
      "of": 259,
      "te": 260,
      "en": 261,
      "in": 262,
      "end": 263,
      "xt": 264,
      "ofte": 265,
      "<|": 266,
      "|>": 267,
      "endofte": 268,
      "endoftext": 269,
      "Ġs": 270,
      "is": 271,
      "Ġa": 272,
      "on": 273,
      "or": 274,
      "Ġis": 275,
      "ar": 276,
      "Ġp": 277,
      "at": 278,
      "er": 279,
      "Ġof": 280,
      "Ġt": 281,
      "ec": 282,
      "Ġf": 283,
      "Ġ\"": 284,
      "he": 285,
      "ou": 286,
      "ine": 287,
      "pe": 288,
      "hat": 289,
      "ef": 290,
      "art": 291,
      "al": 292,
      "Ġpart": 293,
      "ech": 294,
      "Ġspe": 295,
      "Ġc": 296,
      "Ġspeech": 297,
      "efine": 298,
      "\"?": 299,
      "Define": 300,
      "What": 301,
      "an": 302,
      "Ġn": 303,
      "le": 304,
      "Ġin": 305,
      "Ġfor": 306,
      "Ġthe": 307,
      "re": 308,
      "__": 309,
      "oun": 310,
      "om": 311,
      "ic": 312,
      "ing": 313,
      "Ġb": 314,
      "ym": 315,
      "se": 316,
      "Ġsy": 317,
      "non": 318,
      "nonym": 319,
      "Ġsynonym": 320,
      "Ġnoun": 321,
      "it": 322,
      "ce": 323,
      "Ġw": 324,
      "Ġm": 325,
      "Ġan": 326,
      "es": 327,
      "Ġd": 328,
      "ion": 329,
      "ed": 330,
      "ten": 331,
      "Ġh": 332,
      "ro": 333,
      "as": 334,
      "Ġor": 335,
      "iv": 336,
      "ly": 337,
      "us": 338,
      "Ġg": 339,
      "Ġsen": 340,
      "ter": 341,
      "tence": 342,
      "Ġsentence": 343,
      "Use": 344,
      "Ġl": 345,
      "ple": 346,
      "wer": 347,
      "Ġto": 348,
      "il": 349,
      "ac": 350,
      "ent": 351,
      "ol": 352,
      "un": 353,
      "ver": 354,
      "id": 355,
      "ns": 356,
      "th": 357,
      "omple": 358,
      "omplete": 359,
      "Ans": 360,
      "Complete": 361,
      "____": 362,
      "Answer": 363,
      "Ġand": 364,
      "Ġe": 365,
      "ra": 366,
      "Ġ____": 367,
      "ive": 368,
      "ect": 369,
      "ate": 370,
      "Ġre": 371,
      "el": 372,
      "ur": 373,
      "os": 374,
      "Ġo": 375,
      "im": 376,
      "ation": 377,
      "am": 378,
      "ul": 379,
      "ig": 380,
      "Ġad": 381,
      "et": 382,
      "um": 383,
      "ad": 384,
      "ir": 385,
      "Ġst": 386,
      "ot": 387,
      "ch": 388,
      "ab": 389,
      "Ġr": 390,
      "od": 391,
      "st": 392,
      "ith": 393,
      "ss": 394,
      "ge": 395,
      "ite": 396,
      "lo": 397,
      "Ġcon": 398,
      "verb": 399,
      "ject": 400,
      "Ġ(": 401,
      "Ġwh": 402,
      "Ġwith": 403,
      "Ġun": 404,
      "ist": 405,
      "ĠS": 406,
      "Ġv": 407,
      "Ġadject": 408,
      "Ġadjective": 409,
      "ut": 410,
      "av": 411,
      "ĠA": 412,
      "and": 413,
      "ant": 414,
      "if": 415,
      "Ġon": 416,
      "ct": 417,
      "pp": 418,
      "ous": 419,
      "qu": 420,
      "Ġhe": 421,
      "Ġthat": 422,
      "Ġth": 423,
      "Ġverb": 424,
      "ph": 425,
      "ally": 426,
      "ĠC": 427,
      "Ġbe": 428,
      "ia": 429,
      "Ġby": 430,
      "Ġpro": 431,
      "ity": 432,
      "The": 433,
      "og": 434,
      "iz": 435,
      "ess": 436,
      "ap": 437,
      "Ġch": 438,
      "Ġsh": 439,
      "ard": 440,
      "ĠP": 441,
      "ure": 442,
      "ri": 443,
      "able": 444,
      "oc": 445,
      "igh": 446,
      "Ġpl": 447,
      "ain": 448,
      "ke": 449,
      "ĠM": 450,
      "ow": 451,
      "ted": 452,
      "Ġcom": 453,
      "Ġu": 454,
      "ub": 455,
      "em": 456,
      "est": 457,
      "Ġsp": 458,
      "rom": 459,
      "ay": 460,
      "ers": 461,
      "all": 462,
      "ical": 463,
      "sed": 464,
      "Ġas": 465,
      "Ġgen": 466,
      "op": 467,
      "Ġde": 468,
      "ome": 469,
      "ill": 470,
      "ian": 471,
      "ib": 472,
      "Ġex": 473,
      "Ġse": 474,
      "ae": 475,
      "der": 476,
      "ĠI": 477,
      "Ġat": 478,
      "ment": 479,
      "Ġle": 480,
      "ud": 481,
      "ound": 482,
      "ry": 483,
      "ish": 484,
      "ag": 485,
      "per": 486,
      "ack": 487,
      "out": 488,
      "ru": 489,
      "ther": 490,
      "ppos": 491,
      "ast": 492,
      "ial": 493,
      "ort": 494,
      "Ġpr": 495,
      "act": 496,
      "Ġal": 497,
      "ary": 498,
      "Ġoppos": 499,
      "Ġgenus": 500,
      "Ġar": 501,
      "Ġwas": 502,
      "Ġwho": 503,
      "ran": 504,
      "Ġopposite": 505,
      "ight": 506,
      "ace": 507,
      "pt": 508,
      "Ġy": 509,
      "Ġac": 510,
      "orm": 511,
      "Ġfrom": 512,
      "ass": 513,
      "ĠH": 514,
      "one": 515,
      "Ġro": 516,
      "Ġhav": 517,
      "ip": 518,
      "ated": 519,
      "ĠL": 520,
      "Ġdis": 521,
      "ness": 522,
      "ĠB": 523,
      "age": 524,
      "ĠE": 525,
      "our": 526,
      "ber": 527,
      "Ġman": 528,
      "ood": 529,
      "uc": 530,
      "mer": 531,
      "ell": 532,
      "ak": 533,
      "ere": 534,
      "Ġhis": 535,
      "ath": 536,
      "oo": 537,
      "ve": 538,
      "Ġsome": 539,
      "Ġk": 540,
      "ence": 541,
      "ong": 542,
      "ult": 543,
      "ĠR": 544,
      "ree": 545,
      "ies": 546,
      "ĠN": 547,
      "ust": 548,
      "tern": 549,
      "ĠG": 550,
      "ance": 551,
      "Ġra": 552,
      "ating": 553,
      "Ġte": 554,
      "Ġhaving": 555,
      "ric": 556,
      "Ġne": 557,
      "ress": 558,
      "ide": 559,
      "to": 560,
      "ition": 561,
      "Ġsm": 562,
      "sp": 563,
      "ĠT": 564,
      "Ġused": 565,
      "Ġim": 566,
      "ice": 567,
      "du": 568,
      "idae": 569,
      "Ġsc": 570,
      "Ġcl": 571,
      "Ġrel": 572,
      "gh": 573,
      "ile": 574,
      "ach": 575,
      "au": 576,
      "Ġare": 577,
      "ark": 578,
      "row": 579,
      "ater": 580,
      "Ġj": 581,
      "ily": 582,
      "pl": 583,
      "Ġit": 584,
      "low": 585,
      "ob": 586,
      "ĠW": 587,
      "ĠThe": 588,
      "Ġpo": 589,
      "sh": 590,
      "Ġsu": 591,
      "Ġher": 592,
      "ll": 593,
      "ld": 594,
      "Ġcol": 595,
      "Ġfl": 596,
      "ase": 597,
      "ĠU": 598,
      "Ġper": 599,
      "ory": 600,
      "Ġbl": 601,
      "we": 602,
      "Ġen": 603,
      "Ġab": 604,
      "ord": 605,
      "ore": 606,
      "ates": 607,
      "ious": 608,
      "ĠD": 609,
      "ited": 610,
      "ff": 611,
      "ost": 612,
      "con": 613,
      "Ġact": 614,
      "ue": 615,
      "Ġnot": 616,
      "ie": 617,
      "ire": 618,
      "Ġout": 619,
      "ual": 620,
      "ĠF": 621,
      "ism": 622,
      "ize": 623,
      "ild": 624,
      "ame": 625,
      "ially": 626,
      "ick": 627,
      "Ġany": 628,
      "ough": 629,
      "ĠSt": 630,
      "Ġme": 631,
      "Ġgr": 632,
      "old": 633,
      "ative": 634,
      "Ġcomp": 635,
      "meric": 636,
      "'s": 637,
      "ĠJ": 638,
      "olog": 639,
      "ens": 640,
      "Ġco": 641,
      "ang": 642,
      "Ġcar": 643,
      "Ġadverb": 644,
      "tem": 645,
      "res": 646,
      "Ġcons": 647,
      "19": 648,
      "tain": 649,
      "ake": 650,
      "ner": 651,
      "ind": 652,
      "Ġflo": 653,
      "led": 654,
      "aw": 655,
      "int": 656,
      "Ġinf": 657,
      "Ġinto": 658,
      "ich": 659,
      "Ġone": 660,
      "mon": 661,
      "ral": 662,
      "ign": 663,
      "ĠO": 664,
      "Ġoff": 665,
      "ail": 666,
      "ually": 667,
      "Ġlar": 668,
      "ĠAmeric": 669,
      "orn": 670,
      "hed": 671,
      "Ġsmall": 672,
      "ys": 673,
      "ied": 674,
      "ise": 675,
      "ork": 676,
      "Ġwe": 677,
      "istic": 678,
      "orth": 679,
      "air": 680,
      "de": 681,
      "ium": 682,
      "land": 683,
      "Ġfam": 684,
      "ale": 685,
      "Ġag": 686,
      "erson": 687,
      "rit": 688,
      "less": 689,
      "ĠUn": 690,
      "iss": 691,
      "rop": 692,
      "ime": 693,
      "ction": 694,
      "bl": 695,
      "Ġform": 696,
      "Ġqu": 697,
      "Ġsub": 698,
      "cl": 699,
      "Ġpe": 700,
      "Ġperson": 701,
      "Ġcap": 702,
      "Ġmo": 703,
      "esp": 704,
      "Ġover": 705,
      "Ġrec": 706,
      "ized": 707,
      "ful": 708,
      "pr": 709,
      "ren": 710,
      "po": 711,
      "les": 712,
      "cess": 713,
      "thing": 714,
      "Ġup": 715,
      "cy": 716,
      "ink": 717,
      "erm": 718,
      "iver": 719,
      "ade": 720,
      "ting": 721,
      "Ġflower": 722,
      "Ġus": 723,
      "ses": 724,
      "Ġshe": 725,
      "erv": 726,
      "Ġcan": 727,
      "ock": 728,
      "ike": 729,
      "ĠUnited": 730,
      "ane": 731,
      "ep": 732,
      "ty": 733,
      "Ġtre": 734,
      "ular": 735,
      "ific": 736,
      "atic": 737,
      "ped": 738,
      "ions": 739,
      "very": 740,
      "lect": 741,
      "Ġchar": 742,
      "ĠStates": 743,
      "Ġfamily": 744,
      "lic": 745,
      "Ġtra": 746,
      "hem": 747,
      "Ġres": 748,
      "ook": 749,
      "ron": 750,
      "ecially": 751,
      "ings": 752,
      "Ġbo": 753,
      "ĠCh": 754,
      "ĠK": 755,
      "Ġam": 756,
      "Ġfe": 757,
      "Ġbr": 758,
      "especially": 759,
      "Ġno": 760,
      "acter": 761,
      "Ġcont": 762,
      "Ġvar": 763,
      "ined": 764,
      "tent": 765,
      "ible": 766,
      "pro": 767,
      "Ġdec": 768,
      "Ġplant": 769,
      "vel": 770,
      "ars": 771,
      "Ġph": 772,
      "hes": 773,
      "ents": 774,
      "co": 775,
      "inal": 776,
      "Ġsur": 777,
      "Ġtw": 778,
      "Ġnum": 779,
      "Ġwhite": 780,
      "ather": 781,
      "ax": 782,
      "gen": 783,
      "let": 784,
      "ĠAmerican": 785,
      "red": 786,
      "Ġmon": 787,
      "ody": 788,
      "ck": 789,
      "gl": 790,
      "tle": 791,
      "Ġmus": 792,
      "oss": 793,
      "Ġwhich": 794,
      "af": 795,
      "ew": 796,
      "are": 797,
      "io": 798,
      "ug": 799,
      "ute": 800,
      "ond": 801,
      "Ġacc": 802,
      "Ġpol": 803,
      "ional": 804,
      "Ġreg": 805,
      "Ġ1": 806,
      "Ġtree": 807,
      "ount": 808,
      "ash": 809,
      "Ġorder": 810,
      "Ġgre": 811,
      "ident": 812,
      "Ġexp": 813,
      "Ġem": 814,
      "Ġbeing": 815,
      "own": 816,
      "Ġpar": 817,
      "ans": 818,
      "Ġind": 819,
      "Ġins": 820,
      "Ġbre": 821,
      "term": 822,
      "und": 823,
      "ne": 824,
      "rum": 825,
      "Ġsou": 826,
      "Ġinc": 827,
      "eness": 828,
      "Ġthey": 829,
      "Ġwater": 830,
      "Ġhas": 831,
      "ility": 832,
      "ram": 833,
      "Ġrelating": 834,
      "Ġlarge": 835,
      "sc": 836,
      "stem": 837,
      "inc": 838,
      "Ġass": 839,
      "Ġcur": 840,
      "Ġdist": 841,
      "Ġhy": 842,
      "eld": 843,
      "Ġob": 844,
      "Ġsomething": 845,
      "Ġimp": 846,
      "ble": 847,
      "oph": 848,
      "par": 849,
      "Ġaf": 850,
      "ator": 851,
      "Ġant": 852,
      "ters": 853,
      "Ġall": 854,
      "ient": 855,
      "over": 856,
      "Ġsystem": 857,
      "dition": 858,
      "nd": 859,
      "ven": 860,
      "Ġapp": 861,
      "iness": 862,
      "oman": 863,
      "ĠV": 864,
      "ins": 865,
      "ull": 866,
      "Ġprodu": 867,
      "Ġflowers": 868,
      "Ġtwo": 869,
      "ex": 870,
      "ople": 871,
      "Ġtr": 872,
      "Ġgu": 873,
      "urn": 874,
      "aves": 875,
      "Ġcharacter": 876,
      "Ġsl": 877,
      "Ġfir": 878,
      "als": 879,
      "thern": 880,
      "iter": 881,
      "ring": 882,
      "Ġtran": 883,
      "Ġbut": 884,
      "ital": 885,
      "amp": 886,
      "Ġunder": 887,
      "Ġthr": 888,
      "rown": 889,
      "gg": 890,
      "vol": 891,
      "bo": 892,
      "gre": 893,
      "Ġed": 894,
      "arm": 895,
      "ank": 896,
      "Ġtheir": 897,
      "Ġbet": 898,
      "Ġwork": 899,
      "Ġmar": 900,
      "ations": 901,
      "ife": 902,
      "form": 903,
      "Ġinst": 904,
      "ization": 905,
      "Ġdo": 906,
      "18": 907,
      "oid": 908,
      "ward": 909,
      "Ġpre": 910,
      "alk": 911,
      "Ġbel": 912,
      "sem": 913,
      "Ġmem": 914,
      "estern": 915,
      "Ġlo": 916,
      "uck": 917,
      "gan": 918,
      "ield": 919,
      "up": 920,
      "Ġtime": 921,
      "eff": 922,
      "Ġequ": 923,
      "Ġunit": 924,
      "Ġhead": 925,
      "Ġcomm": 926,
      "Ġblack": 927,
      "Ġgrou": 928,
      "ology": 929,
      "Ġpeople": 930,
      "pen": 931,
      "ts": 932,
      "ature": 933,
      "cept": 934,
      "ush": 935,
      "Ġgra": 936,
      "irc": 937,
      "Ġstate": 938,
      "ution": 939,
      "iff": 940,
      "Ġ`": 941,
      "Ġset": 942,
      "ingly": 943,
      "Ġbody": 944,
      "Ġwere": 945,
      "Ġdra": 946,
      "Ġplace": 947,
      "Ġcommon": 948,
      "Ġgener": 949,
      "be": 950,
      "ier": 951,
      "vent": 952,
      "Ġsol": 953,
      "ality": 954,
      "ret": 955,
      "ream": 956,
      "ced": 957,
      "Ġdef": 958,
      "Ġhigh": 959,
      "Ġmanner": 960,
      "cer": 961,
      "ior": 962,
      "yl": 963,
      "Ġsk": 964,
      "ically": 965,
      "Ġmat": 966,
      "Ġdes": 967,
      "Ġplay": 968,
      "Ġusually": 969,
      "uro": 970,
      "Ġcent": 971,
      "Ġmade": 972,
      "ellow": 973,
      "ird": 974,
      "Ġsever": 975,
      "Ġsomeone": 976,
      "com": 977,
      "ok": 978,
      "Ġten": 979,
      "Ġste": 980,
      "ont": 981,
      "sel": 982,
      "Ġlong": 983,
      "Ġthan": 984,
      "Ġprof": 985,
      "fl": 986,
      "ye": 987,
      "ored": 988,
      "Ġpain": 989,
      "head": 990,
      "Ġext": 991,
      "Ġstud": 992,
      "Ġwhen": 993,
      "Ġve": 994,
      "Ġshr": 995,
      "Ġatt": 996,
      "ĠEn": 997,
      "sy": 998,
      "Ġent": 999,
      "Ġnon": 1000,
      "Ġbec": 1001,
      "Ġblo": 1002,
      "Ġmin": 1003,
      "rate": 1004,
      "ively": 1005,
      "ĠTh": 1006,
      "Ġpoint": 1007,
      "ween": 1008,
      "Ġgroup": 1009,
      "ger": 1010,
      "ract": 1011,
      "way": 1012,
      "Ġsec": 1013,
      "ouse": 1014,
      "Ġbu": 1015,
      "Ġback": 1016,
      "vers": 1017,
      "Ġafter": 1018,
      "Ġthrough": 1019,
      "other": 1020,
      "ved": 1021,
      "ination": 1022,
      "Ġso": 1023,
      "Ġpres": 1024,
      "Ġmil": 1025,
      "Ġline": 1026,
      "Ġits": 1027,
      "ix": 1028,
      "Ġend": 1029,
      "Ġ19": 1030,
      "Ġeff": 1031,
      "ina": 1032,
      "orld": 1033,
      "het": 1034,
      "ural": 1035,
      "Ġwithout": 1036,
      "ublic": 1037,
      "Ġleaves": 1038,
      "ĠHe": 1039,
      "ris": 1040,
      "Ġsqu": 1041,
      "Ġhand": 1042,
      "raph": 1043,
      "uring": 1044,
      "osition": 1045,
      "Ġother": 1046,
      "isting": 1047,
      "ĠAf": 1048,
      "ĠAr": 1049,
      "Ġthis": 1050,
      "Ġchild": 1051,
      "ape": 1052,
      "gr": 1053,
      "ose": 1054,
      "Ġsal": 1055,
      "Ġsoc": 1056,
      "Ġfun": 1057,
      "Ġcal": 1058,
      "Ġclo": 1059,
      "ange": 1060,
      "omy": 1061,
      "its": 1062,
      "Ġmake": 1063,
      "umb": 1064,
      "Ġval": 1065,
      "ried": 1066,
      "Ġkn": 1067,
      "ĠNorth": 1068,
      "ropical": 1069,
      "Ġnumber": 1070,
      "Ġtrans": 1071,
      "Ġbetween": 1072,
      "ah": 1073,
      "cur": 1074,
      "val": 1075,
      "wn": 1076,
      "enn": 1077,
      "inn": 1078,
      "Ġpur": 1079,
      "ected": 1080,
      "Ġpartic": 1081,
      "Ġwood": 1082,
      "Ġdr": 1083,
      "Ġgl": 1084,
      "Ġret": 1085,
      "ave": 1086,
      "aceae": 1087,
      "me": 1088,
      "Ġer": 1089,
      "Ġair": 1090,
      "Ġfol": 1091,
      "ould": 1092,
      "Ġcor": 1093,
      "Ġcau": 1094,
      "Ġdog": 1095,
      "Ġhad": 1096,
      "Ġred": 1097,
      "Ġrem": 1098,
      "Ġcondition": 1099,
      "ĠPh": 1100,
      "rib": 1101,
      "Ġyellow": 1102,
      "Ġshrub": 1103,
      "den": 1104,
      "iet": 1105,
      "tra": 1106,
      "Ġvery": 1107,
      "Ġfre": 1108,
      "Ġcut": 1109,
      "leg": 1110,
      "rel": 1111,
      "ict": 1112,
      "itary": 1113,
      "ason": 1114,
      "Ġgood": 1115,
      "Ġelect": 1116,
      "ĠInd": 1117,
      "Ġart": 1118,
      "Ġacid": 1119,
      "Ġnew": 1120,
      "Ġvarious": 1121,
      "rim": 1122,
      "ert": 1123,
      "Ġcy": 1124,
      "Ġcat": 1125,
      "Ġmore": 1126,
      "tens": 1127,
      "rol": 1128,
      "Ġlaw": 1129,
      "ection": 1130,
      "abl": 1131,
      "Ġref": 1132,
      "Ġprocess": 1133,
      "Ġinfl": 1134,
      "Ġseveral": 1135,
      "ool": 1136,
      "oot": 1137,
      "pet": 1138,
      "omet": 1139,
      "Ġanim": 1140,
      "astern": 1141,
      "Ġorgan": 1142,
      "amm": 1143,
      "ĠIs": 1144,
      "Ġyour": 1145,
      "ĠNew": 1146,
      "Ġconsisting": 1147,
      "Ġcapital": 1148,
      "Ġfirst": 1149,
      "aur": 1150,
      "iqu": 1151,
      "ole": 1152,
      "isc": 1153,
      "ores": 1154,
      "atory": 1155,
      "Ġty": 1156,
      "Ġtropical": 1157,
      "eck": 1158,
      "Ġcity": 1159,
      "ces": 1160,
      "Ġmet": 1161,
      "Ġhard": 1162,
      "Ġresp": 1163,
      "Ġwhere": 1164,
      "Ġprov": 1165,
      "aker": 1166,
      "ification": 1167,
      "Ġphys": 1168,
      "dom": 1169,
      "iam": 1170,
      "ience": 1171,
      "man": 1172,
      "ox": 1173,
      "xual": 1174,
      "Ġespecially": 1175,
      "arch": 1176,
      "arth": 1177,
      "ingu": 1178,
      "Ġbro": 1179,
      "Ġbus": 1180,
      "Ġwar": 1181,
      "Ġmy": 1182,
      "Ġlife": 1183,
      "Ġopen": 1184,
      "ott": 1185,
      "Ġdep": 1186,
      "Ġmany": 1187,
      "00": 1188,
      "az": 1189,
      "ear": 1190,
      "often": 1191,
      "ons": 1192,
      "Ġche": 1193,
      "Ġinte": 1194,
      "Ġmed": 1195,
      "Ġhor": 1196,
      "Ġspec": 1197,
      "ops": 1198,
      "Ġyou": 1199,
      "Ġhave": 1200,
      "ression": 1201,
      "urope": 1202,
      "app": 1203,
      "born": 1204,
      "face": 1205,
      "gy": 1206,
      "Ġser": 1207,
      "Ġap": 1208,
      "Ġaff": 1209,
      "Ġdir": 1210,
      "Ġdown": 1211,
      "Ġrep": 1212,
      "Ġoc": 1213,
      "Ġoper": 1214,
      "Ġconst": 1215,
      "Ġleg": 1216,
      "Ġaround": 1217,
      "Ġdisc": 1218,
      "ek": 1219,
      "eng": 1220,
      "ense": 1221,
      "Ġsign": 1222,
      "Ġpass": 1223,
      "ered": 1224,
      "Ġcirc": 1225,
      "Ġinter": 1226,
      "rest": 1227,
      "Ġbit": 1228,
      "iving": 1229,
      "usually": 1230,
      "astic": 1231,
      "Ġrock": 1232,
      "akes": 1233,
      "Ġtrees": 1234,
      "ief": 1235,
      "not": 1236,
      "arb": 1237,
      "outh": 1238,
      "Ġname": 1239,
      "Ġbas": 1240,
      "set": 1241,
      "Ġmod": 1242,
      "Ġmark": 1243,
      "Ġgo": 1244,
      "Ġget": 1245,
      "Ġlight": 1246,
      "oll": 1247,
      "Ġele": 1248,
      "imate": 1249,
      "ational": 1250,
      "Ġround": 1251,
      "ures": 1252,
      "ruct": 1253,
      "Ġclass": 1254,
      "ai": 1255,
      "aut": 1256,
      "ded": 1257,
      "iate": 1258,
      "ky": 1259,
      "pan": 1260,
      "ving": 1261,
      "onic": 1262,
      "eration": 1263,
      "Ġcard": 1264,
      "itch": 1265,
      "Ġlack": 1266,
      "ump": 1267,
      "stance": 1268,
      "ify": 1269,
      "Ġshow": 1270,
      "Ġprinc": 1271,
      "ĠEurope": 1272,
      "Ġrad": 1273,
      "taining": 1274,
      "Ġtreat": 1275,
      "like": 1276,
      "Ġir": 1277,
      "tes": 1278,
      "Ġswe": 1279,
      "ison": 1280,
      "ery": 1281,
      "Ġfil": 1282,
      "Ġcer": 1283,
      "reg": 1284,
      "ics": 1285,
      "Ġbat": 1286,
      "Ġdel": 1287,
      "ading": 1288,
      "ĠShe": 1289,
      "ified": 1290,
      "rane": 1291,
      "ĠLe": 1292,
      "Ġpower": 1293,
      "Ġperform": 1294,
      "ĠAmerica": 1295,
      "Ġagain": 1296,
      "lor": 1297,
      "yr": 1298,
      "Ġter": 1299,
      "Ġsn": 1300,
      "ished": 1301,
      "Ġav": 1302,
      "ors": 1303,
      "order": 1304,
      "Ġpap": 1305,
      "erous": 1306,
      "Ġfru": 1307,
      "Ġfact": 1308,
      "ices": 1309,
      "Ġbird": 1310,
      "asc": 1311,
      "ives": 1312,
      "Ġtop": 1313,
      "Ġel": 1314,
      "ĠAs": 1315,
      "iform": 1316,
      "ograph": 1317,
      "Ġshort": 1318,
      "ement": 1319,
      "Ġtem": 1320,
      "Ġsupp": 1321,
      "ological": 1322,
      "Ġsouthern": 1323,
      "green": 1324,
      "Ġblood": 1325,
      "iple": 1326,
      "por": 1327,
      "ues": 1328,
      "Ġoften": 1329,
      "Ġsound": 1330,
      "Ġserv": 1331,
      "Ġbef": 1332,
      "Ġdu": 1333,
      "acc": 1334,
      "Ġox": 1335,
      "Ġconf": 1336,
      "ĠAl": 1337,
      "Ġship": 1338,
      "Ġdev": 1339,
      "Ġarm": 1340,
      "ĠWorld": 1341,
      "clud": 1342,
      "Ġsurface": 1343,
      "bs": 1344,
      "iation": 1345,
      "rant": 1346,
      "Ġill": 1347,
      "Ġterm": 1348,
      "Ġpine": 1349,
      "Ġpublic": 1350,
      "Ġcle": 1351,
      "Ġnut": 1352,
      "Ġinh": 1353,
      "omb": 1354,
      "oms": 1355,
      "Ġway": 1356,
      "Ġword": 1357,
      "Ġwild": 1358,
      "Ġtoge": 1359,
      "ache": 1360,
      "Ġrest": 1361,
      "Ġresem": 1362,
      "Ġvo": 1363,
      "ously": 1364,
      "Ġbeh": 1365,
      "ooth": 1366,
      "Ġsuit": 1367,
      "cont": 1368,
      "angu": 1369,
      "Ġcontrol": 1370,
      "Ġtogether": 1371,
      "ik": 1372,
      "vis": 1373,
      "ves": 1374,
      "wing": 1375,
      "aric": 1376,
      "Ġpat": 1377,
      "erent": 1378,
      "Ġfat": 1379,
      "Ġfood": 1380,
      "Ġnorth": 1381,
      "Ġday": 1382,
      "Ġhim": 1383,
      "Ġgover": 1384,
      "Ġloc": 1385,
      "Ġoil": 1386,
      "imp": 1387,
      "ulation": 1388,
      "Ġstra": 1389,
      "phal": 1390,
      "Ġprog": 1391,
      "iber": 1392,
      "ruction": 1393,
      "Ġwhose": 1394,
      "Ġarea": 1395,
      "Ġeng": 1396,
      "Ġmeas": 1397,
      "pose": 1398,
      "Ġsocial": 1399,
      "Ġbefore": 1400,
      "Ġgovern": 1401,
      "for": 1402,
      "iol": 1403,
      "rong": 1404,
      "ule": 1405,
      "work": 1406,
      "ented": 1407,
      "ining": 1408,
      "Ġsw": 1409,
      "Ġsand": 1410,
      "Ġsame": 1411,
      "ister": 1412,
      "atin": 1413,
      "Ġtri": 1414,
      "ales": 1415,
      "Ġnat": 1416,
      "lex": 1417,
      "Ġinv": 1418,
      "omic": 1419,
      "itu": 1420,
      "Ġmater": 1421,
      "Ġmost": 1422,
      "Ġdet": 1423,
      "Ġhal": 1424,
      "Ġhum": 1425,
      "ross": 1426,
      "aster": 1427,
      "Ġlow": 1428,
      "Ġear": 1429,
      "Ġprop": 1430,
      "Ġproper": 1431,
      "Ġuse": 1432,
      "oney": 1433,
      "iled": 1434,
      "glish": 1435,
      "Ġcentral": 1436,
      "ĠEnglish": 1437,
      "ĠAfric": 1438,
      "hy": 1439,
      "ius": 1440,
      "lam": 1441,
      "mat": 1442,
      "til": 1443,
      "western": 1444,
      "Ġ2": 1445,
      "Ġz": 1446,
      "Ġver": 1447,
      "Ġest": 1448,
      "oft": 1449,
      "Ġaut": 1450,
      "orph": 1451,
      "aring": 1452,
      "ala": 1453,
      "Ġcult": 1454,
      "ley": 1455,
      "inger": 1456,
      "ities": 1457,
      "Ġwind": 1458,
      "Ġdiff": 1459,
      "Ġhold": 1460,
      "ivity": 1461,
      "Ġla": 1462,
      "Ġlangu": 1463,
      "Ġright": 1464,
      "Ġonly": 1465,
      "aint": 1466,
      "berry": 1467,
      "Ġoffic": 1468,
      "bling": 1469,
      "Ġgeneral": 1470,
      "17": 1471,
      "ding": 1472,
      "ease": 1473,
      "oe": 1474,
      "uff": 1475,
      "Ġec": 1476,
      "ony": 1477,
      "orthern": 1478,
      "Ġprom": 1479,
      "Ġpress": 1480,
      "Ġtake": 1481,
      "Ġfra": 1482,
      "Ġcry": 1483,
      "Ġbank": 1484,
      "Ġwrit": 1485,
      "Ġanother": 1486,
      "Ġdem": 1487,
      "asm": 1488,
      "ived": 1489,
      "usp": 1490,
      "ung": 1491,
      "ury": 1492,
      "Ġstock": 1493,
      "chn": 1494,
      "Ġunf": 1495,
      "Ġheat": 1496,
      "ogen": 1497,
      "Ġsea": 1498,
      "Ġcolor": 1499,
      "Ġground": 1500,
      "Ġsouth": 1501,
      "Ġvein": 1502,
      "aith": 1503,
      "bra": 1504,
      "ged": 1505,
      "get": 1506,
      "ipp": 1507,
      "wood": 1508,
      "inu": 1509,
      "inter": 1510,
      "Ġsym": 1511,
      "Ġposition": 1512,
      "ata": 1513,
      "Ġfree": 1514,
      "Ġcount": 1515,
      "any": 1516,
      "Ġint": 1517,
      "Ġforce": 1518,
      "rease": 1519,
      "omat": 1520,
      "Ġmult": 1521,
      "Ġhair": 1522,
      "uss": 1523,
      "Ġgame": 1524,
      "Ġlit": 1525,
      "Ġlog": 1526,
      "ental": 1527,
      "une": 1528,
      "unt": 1529,
      "unch": 1530,
      "Ġevery": 1531,
      "rab": 1532,
      "Ġrun": 1533,
      "ists": 1534,
      "Ġthere": 1535,
      "Ġdeterm": 1536,
      "Ġseed": 1537,
      "Ġsexual": 1538,
      "ĠRoman": 1539,
      "Ġplants": 1540,
      "Ġpolit": 1541,
      "Ġcharacterized": 1542,
      "Ġfollow": 1543,
      "Ġprinciple": 1544,
      "Ġmaterial": 1545,
      "..": 1546,
      "aj": 1547,
      "br": 1548,
      "cle": 1549,
      "cent": 1550,
      "sor": 1551,
      "uch": 1552,
      "Ġsch": 1553,
      "Ġsoft": 1554,
      "Ġfin": 1555,
      "Ġfield": 1556,
      "Ġcour": 1557,
      "Ġcell": 1558,
      "Ġbi": 1559,
      "Ġmach": 1560,
      "Ġdiv": 1561,
      "Ġduring": 1562,
      "Ġho": 1563,
      "rot": 1564,
      "iven": 1565,
      "Ġgun": 1566,
      "tery": 1567,
      "under": 1568,
      "ulate": 1569,
      "otion": 1570,
      "ability": 1571,
      "Ġtherm": 1572,
      "Ġbeen": 1573,
      "Ġplane": 1574,
      "Ġroot": 1575,
      "Ġimm": 1576,
      "Ġflu": 1577,
      "Ġcover": 1578,
      "Ġsubstance": 1579,
      "Ġmov": 1580,
      "Ġresult": 1581,
      "Ġamount": 1582,
      "Ġbuild": 1583,
      "Ġchildren": 1584,
      "Ġfunction": 1585,
      "Ġreturn": 1586,
      "Ġelement": 1587,
      "Ġfruit": 1588,
      "Ġgovernment": 1589,
      "ained": 1590,
      "by": 1591,
      "bers": 1592,
      "ball": 1593,
      "che": 1594,
      "cal": 1595,
      "ched": 1596,
      "dis": 1597,
      "ft": 1598,
      "gest": 1599,
      "min": 1600,
      "ove": 1601,
      "ste": 1602,
      "sol": 1603,
      "wh": 1604,
      "yn": 1605,
      "yes": 1606,
      "Ġke": 1607,
      "off": 1608,
      "inant": 1609,
      "Ġsil": 1610,
      "Ġpink": 1611,
      "Ġtax": 1612,
      "Ġfound": 1613,
      "aly": 1614,
      "Ġcr": 1615,
      "anth": 1616,
      "Ġball": 1617,
      "Ġwestern": 1618,
      "Ġland": 1619,
      "ilt": 1620,
      "idge": 1621,
      "Ġep": 1622,
      "Ġev": 1623,
      "Ġearth": 1624,
      "umn": 1625,
      "Ġhem": 1626,
      "Ġprote": 1627,
      "ured": 1628,
      "Ġpract": 1629,
      "ranch": 1630,
      "Ġyear": 1631,
      "Ġdisease": 1632,
      "aking": 1633,
      "Ġcollect": 1634,
      "Ġener": 1635,
      "Ġabout": 1636,
      "prof": 1637,
      "Ġmusic": 1638,
      "volution": 1639,
      "Ġglass": 1640,
      "iety": 1641,
      "Ġtype": 1642,
      "rist": 1643,
      "round": 1644,
      "uter": 1645,
      "ying": 1646,
      "Ġ-": 1647,
      "Ġsim": 1648,
      "ision": 1649,
      "Ġpi": 1650,
      "ats": 1651,
      "Ġfire": 1652,
      "Ġnorthern": 1653,
      "ountain": 1654,
      "Ġbar": 1655,
      "Ġmust": 1656,
      "Ġgold": 1657,
      "Ġgland": 1658,
      "Ġlike": 1659,
      "Ġliqu": 1660,
      "ida": 1661,
      "ately": 1662,
      "Ġadv": 1663,
      "ume": 1664,
      "ĠAn": 1665,
      "rik": 1666,
      "Ġlet": 1667,
      "ĠWill": 1668,
      "Ġaction": 1669,
      "Ġrecord": 1670,
      "Ġcharacteristic": 1671,
      "Ġmember": 1672,
      "Ġbecome": 1673,
      "Ġeffort": 1674,
      "Ġresembling": 1675,
      "dle": 1676,
      "dro": 1677,
      "ning": 1678,
      "rec": 1679,
      "run": 1680,
      "Ġif": 1681,
      "Ġsun": 1682,
      "onor": 1683,
      "Ġcre": 1684,
      "Ġinclud": 1685,
      "Ġbed": 1686,
      "Ġbook": 1687,
      "Ġbrown": 1688,
      "itive": 1689,
      "itting": 1690,
      "Ġmor": 1691,
      "Ġmer": 1692,
      "Ġhot": 1693,
      "ivers": 1694,
      "Ġgive": 1695,
      "ulous": 1696,
      "Ġstar": 1697,
      "abit": 1698,
      "ĠCy": 1699,
      "agn": 1700,
      "rug": 1701,
      "ortion": 1702,
      "ella": 1703,
      "Ġneg": 1704,
      "Ġflat": 1705,
      "ought": 1706,
      "Ġinform": 1707,
      "ĠOld": 1708,
      "rench": 1709,
      "Ġassoc": 1710,
      "Ġoccur": 1711,
      "ĠEuropean": 1712,
      "Ġpaper": 1713,
      "Ġproperty": 1714,
      "ased": 1715,
      "aff": 1716,
      "dra": 1717,
      "go": 1718,
      "gu": 1719,
      "lin": 1720,
      "ov": 1721,
      "oke": 1722,
      "ps": 1723,
      "inate": 1724,
      "Ġsem": 1725,
      "ised": 1726,
      "Ġtim": 1727,
      "alm": 1728,
      "Ġcall": 1729,
      "icate": 1730,
      "Ġbomb": 1731,
      "itic": 1732,
      "ceae": 1733,
      "Ġwell": 1734,
      "Ġdark": 1735,
      "roid": 1736,
      "ivated": 1737,
      "Ġgiven": 1738,
      "Ġlim": 1739,
      "ides": 1740,
      "Ġeastern": 1741,
      "elf": 1742,
      "urch": 1743,
      "osis": 1744,
      "irth": 1745,
      "stand": 1746,
      "Ġves": 1747,
      "Ġhel": 1748,
      "ĠMus": 1749,
      "estion": 1750,
      "ĠII": 1751,
      "ĠIn": 1752,
      "Ġless": 1753,
      "rance": 1754,
      "Ġroad": 1755,
      "ucle": 1756,
      "ucation": 1757,
      "ĠRiver": 1758,
      "ĠNe": 1759,
      "cons": 1760,
      "Ġconsid": 1761,
      "ission": 1762,
      "Ġquality": 1763,
      "Ġmove": 1764,
      "board": 1765,
      "Ġdesign": 1766,
      "sych": 1767,
      "Ġmilitary": 1768,
      "Ġclose": 1769,
      "Ġparticular": 1770,
      "iformes": 1771,
      "Ġbehav": 1772,
      "Ġnatural": 1773,
      "Ġlanguage": 1774,
      "aped": 1775,
      "gment": 1776,
      "hol": 1777,
      "iod": 1778,
      "oh": 1779,
      "rat": 1780,
      "son": 1781,
      "use": 1782,
      "Ġ;": 1783,
      "Ġsau": 1784,
      "Ġpen": 1785,
      "Ġple": 1786,
      "Ġtable": 1787,
      "Ġtru": 1788,
      "Ġfall": 1789,
      "Ġfoot": 1790,
      "ines": 1791,
      "pel": 1792,
      "anc": 1793,
      "Ġnative": 1794,
      "Ġformer": 1795,
      "read": 1796,
      "Ġbal": 1797,
      "ros": 1798,
      "Ġge": 1799,
      "Ġsens": 1800,
      "Ġlive": 1801,
      "Ġet": 1802,
      "Ġegg": 1803,
      "Ġread": 1804,
      "ĠAust": 1805,
      "ctive": 1806,
      "Ġheav": 1807,
      "ĠCal": 1808,
      "apt": 1809,
      "Ġshar": 1810,
      "arden": 1811,
      "Ġspot": 1812,
      "Ġdevel": 1813,
      "Ġexper": 1814,
      "Ġexpl": 1815,
      "Ġprec": 1816,
      "oose": 1817,
      "idea": 1818,
      "Ġcoll": 1819,
      "ĠFrench": 1820,
      "Ġweather": 1821,
      "hematic": 1822,
      "genus": 1823,
      "Ġgrey": 1824,
      "Ġgreat": 1825,
      "hetic": 1826,
      "Ġbusiness": 1827,
      "Ġagainst": 1828,
      "Ġecon": 1829,
      "Ġpolitical": 1830,
      "ban": 1831,
      "bel": 1832,
      "bell": 1833,
      "gin": 1834,
      "iac": 1835,
      "kin": 1836,
      "oon": 1837,
      "top": 1838,
      "ĠZ": 1839,
      "ena": 1840,
      "ene": 1841,
      "Ġsor": 1842,
      "Ġsour": 1843,
      "Ġside": 1844,
      "ari": 1845,
      "arl": 1846,
      "arian": 1847,
      "arrow": 1848,
      "Ġput": 1849,
      "Ġfac": 1850,
      "Ġfish": 1851,
      "Ġcen": 1852,
      "Ġchem": 1853,
      "Ġnight": 1854,
      "Ġnucle": 1855,
      "Ġinten": 1856,
      "Ġinvol": 1857,
      "sey": 1858,
      "itor": 1859,
      "Ġmain": 1860,
      "Ġang": 1861,
      "Ġhouse": 1862,
      "acific": 1863,
      "ently": 1864,
      "olf": 1865,
      "idence": 1866,
      "thers": 1867,
      "amin": 1868,
      "chie": 1869,
      "ode": 1870,
      "Ġcontaining": 1871,
      "ctor": 1872,
      "Ġbean": 1873,
      "rial": 1874,
      "Ġdeg": 1875,
      "ude": 1876,
      "aged": 1877,
      "ruff": 1878,
      "ĠGe": 1879,
      "Ġtechn": 1880,
      "Ġnear": 1881,
      "Ġneed": 1882,
      "Ġjo": 1883,
      "ĠWe": 1884,
      "Ġsuper": 1885,
      "Ġherbs": 1886,
      "Ġblue": 1887,
      "ired": 1888,
      "Ġlargest": 1889,
      "Ġequal": 1890,
      "self": 1891,
      "Ġprofess": 1892,
      "Ġentire": 1893,
      "ennial": 1894,
      "Ġcause": 1895,
      "Ġanimal": 1896,
      "Ġsweet": 1897,
      "Ġpressure": 1898,
      "Ġetc": 1899,
      "cend": 1900,
      "cor": 1901,
      "ele": 1902,
      "flo": 1903,
      "lim": 1904,
      "nate": 1905,
      "ror": 1906,
      "ration": 1907,
      "su": 1908,
      "uel": 1909,
      "water": 1910,
      "ĠY": 1911,
      "ency": 1912,
      "Ġau": 1913,
      "Ġisland": 1914,
      "Ġpa": 1915,
      "Ġpark": 1916,
      "erate": 1917,
      "Ġtub": 1918,
      "Ġtiss": 1919,
      "ece": 1920,
      "Ġfund": 1921,
      "hel": 1922,
      "alth": 1923,
      "Ġparty": 1924,
      "Ġced": 1925,
      "Ġintern": 1926,
      "Ġfore": 1927,
      "Ġthem": 1928,
      "reet": 1929,
      "Ġmic": 1930,
      "Ġmountain": 1931,
      "roph": 1932,
      "Ġorch": 1933,
      "ential": 1934,
      "etic": 1935,
      "etary": 1936,
      "irt": 1937,
      "ĠSouth": 1938,
      "Ġvis": 1939,
      "Ġthree": 1940,
      "Ġplan": 1941,
      "key": 1942,
      "Ġcomb": 1943,
      "ibr": 1944,
      "ibility": 1945,
      "Ġseason": 1946,
      "ages": 1947,
      "Ġjack": 1948,
      "ship": 1949,
      "ĠChrist": 1950,
      "cohol": 1951,
      "Ġimport": 1952,
      "ĠEng": 1953,
      "ottom": 1954,
      "Ġhorse": 1955,
      "Ġbirds": 1956,
      "Ġtemper": 1957,
      "Ġwords": 1958,
      "Ġschool": 1959,
      "Ġmachine": 1960,
      "aus": 1961,
      "col": 1962,
      "eth": 1963,
      "iant": 1964,
      "late": 1965,
      "lif": 1966,
      "mar": 1967,
      "nut": 1968,
      "oil": 1969,
      "Ġident": 1970,
      "eral": 1971,
      "erence": 1972,
      "eful": 1973,
      "Ġcand": 1974,
      "Ġcrit": 1975,
      "itis": 1976,
      "Ġwill": 1977,
      "Ġdest": 1978,
      "Ġdrug": 1979,
      "Ġhar": 1980,
      "aste": 1981,
      "Ġorig": 1982,
      "ival": 1983,
      "Ġgarden": 1984,
      "Ġlook": 1985,
      "vergreen": 1986,
      "ids": 1987,
      "thor": 1988,
      "Ġeyes": 1989,
      "Ġadd": 1990,
      "Ġrh": 1991,
      "Ġwithin": 1992,
      "Ġthin": 1993,
      "Ġthick": 1994,
      "phere": 1995,
      "ogn": 1996,
      "Ġshould": 1997,
      "ries": 1998,
      "Ġspir": 1999,
      "aging": 2000,
      "ĠHy": 2001,
      "ĠBrit": 2002,
      "Ġrelig": 2003,
      "Ġjud": 2004,
      "Ġgrass": 2005,
      "ressed": 2006,
      "ails": 2007,
      "black": 2008,
      "inking": 2009,
      "Ġmonetary": 2010,
      "Ġexpress": 2011,
      "Ġindust": 2012,
      "Ġeducation": 2013,
      "Ġinstrum": 2014,
      "Ġcommun": 2015,
      "Ġeffect": 2016,
      "Ġvalue": 2017,
      "Ġcertain": 2018,
      "Ġvoice": 2019,
      "Ġprogram": 2020,
      "Ġenergy": 2021,
      "ĠWilliam": 2022,
      "Ġdegree": 2023,
      "'t": 2024,
      "bin": 2025,
      "bon": 2026,
      "brane": 2027,
      "dem": 2028,
      "fish": 2029,
      "iidae": 2030,
      "lit": 2031,
      "mic": 2032,
      "rig": 2033,
      "ton": 2034,
      "uf": 2035,
      "yer": 2036,
      "aris": 2037,
      "Ġpump": 2038,
      "atus": 2039,
      "ering": 2040,
      "erry": 2041,
      "erve": 2042,
      "Ġface": 2043,
      "heastern": 2044,
      "aled": 2045,
      "Ġcase": 2046,
      "ancy": 2047,
      "Ġtheory": 2048,
      "Ġbone": 2049,
      "itness": 2050,
      "ceed": 2051,
      "Ġmis": 2052,
      "Ġmamm": 2053,
      "Ġdom": 2054,
      "ask": 2055,
      "terior": 2056,
      "unk": 2057,
      "Ġeach": 2058,
      "Ġevergreen": 2059,
      "Ġrequ": 2060,
      "urried": 2061,
      "osa": 2062,
      "osure": 2063,
      "Ġobl": 2064,
      "Ġothers": 2065,
      "ula": 2066,
      "ulin": 2067,
      "igation": 2068,
      "Ġstick": 2069,
      "abor": 2070,
      "Ġrather": 2071,
      "Ġconce": 2072,
      "ĠSh": 2073,
      "apy": 2074,
      "Ġchain": 2075,
      "occ": 2076,
      "Ġspace": 2077,
      "Ġdeep": 2078,
      "ishment": 2079,
      "Ġprim": 2080,
      "Ġaccess": 2081,
      "Ġroom": 2082,
      "ĠLatin": 2083,
      "Ġkind": 2084,
      "Ġrelated": 2085,
      "llab": 2086,
      "Ġperennial": 2087,
      "Ġcompound": 2088,
      "ĠJap": 2089,
      "Ġagent": 2090,
      "Ġformed": 2091,
      "Ġrece": 2092,
      "produ": 2093,
      "Ġgreen": 2094,
      "greg": 2095,
      "Ġplaced": 2096,
      "Ġsalt": 2097,
      "Ġknow": 2098,
      "Ġshrubs": 2099,
      "ĠIndian": 2100,
      "Ġlittle": 2101,
      "Ġbuilding": 2102,
      "Ġinformation": 2103,
      "Ġbehavior": 2104,
      "ĠAustral": 2105,
      "Ġcedar": 2106,
      "ĠEngland": 2107,
      "bre": 2108,
      "bol": 2109,
      "clo": 2110,
      "eal": 2111,
      "na": 2112,
      "sl": 2113,
      "tar": 2114,
      "uous": 2115,
      "vin": 2116,
      "ĠX": 2117,
      "Ġess": 2118,
      "Ġign": 2119,
      "iny": 2120,
      "infor": 2121,
      "Ġsle": 2122,
      "Ġsuc": 2123,
      "Ġself": 2124,
      "Ġaway": 2125,
      "Ġpost": 2126,
      "Ġpsych": 2127,
      "ern": 2128,
      "Ġfly": 2129,
      "alse": 2130,
      "Ġcould": 2131,
      "ana": 2132,
      "anic": 2133,
      "Ġbase": 2134,
      "itable": 2135,
      "Ġwide": 2136,
      "Ġwoman": 2137,
      "Ġwarm": 2138,
      "Ġda": 2139,
      "Ġden": 2140,
      "Ġhom": 2141,
      "Ġhost": 2142,
      "asp": 2143,
      "ilar": 2144,
      "ached": 2145,
      "idation": 2146,
      "urus": 2147,
      "ames": 2148,
      "ulus": 2149,
      "Ġstruct": 2150,
      "abet": 2151,
      "Ġru": 2152,
      "avor": 2153,
      "antic": 2154,
      "pper": 2155,
      "ĠCl": 2156,
      "iaceae": 2157,
      "ĠPacific": 2158,
      "Ġspok": 2159,
      "illa": 2160,
      "Ġalcohol": 2161,
      "ption": 2162,
      "ĠGerm": 2163,
      "plic": 2164,
      "play": 2165,
      "place": 2166,
      "shaped": 2167,
      "Ġcold": 2168,
      "Ġcomputer": 2169,
      "Ġexpression": 2170,
      "Ġhyp": 2171,
      "Ġproduced": 2172,
      "gged": 2173,
      "Ġmembrane": 2174,
      "Ġlower": 2175,
      "Ġlove": 2176,
      "ĠThis": 2177,
      "Ġsecond": 2178,
      "ground": 2179,
      "Ġfresh": 2180,
      "Ġanimals": 2181,
      "Ġmetal": 2182,
      "ĠAfrica": 2183,
      "Ġcryst": 2184,
      "ajor": 2185,
      "Ġmovement": 2186,
      "Ġsource": 2187,
      "Ġauthor": 2188,
      "Ġcritic": 2189,
      "Ġspoken": 2190,
      "car": 2191,
      "day": 2192,
      "equ": 2193,
      "gon": 2194,
      "gar": 2195,
      "light": 2196,
      "my": 2197,
      "ned": 2198,
      "oly": 2199,
      "osed": 2200,
      "part": 2201,
      "plo": 2202,
      "time": 2203,
      "tee": 2204,
      "inus": 2205,
      "inary": 2206,
      "Ġsing": 2207,
      "orge": 2208,
      "Ġpad": 2209,
      "Ġpale": 2210,
      "Ġposs": 2211,
      "Ġfur": 2212,
      "Ġfig": 2213,
      "Ġfour": 2214,
      "Ġfull": 2215,
      "ouble": 2216,
      "Ġcook": 2217,
      "Ġneck": 2218,
      "Ġinde": 2219,
      "omen": 2220,
      "ico": 2221,
      "Ġbul": 2222,
      "Ġbell": 2223,
      "Ġbug": 2224,
      "Ġbranch": 2225,
      "ymorph": 2226,
      "Ġwalk": 2227,
      "Ġmal": 2228,
      "Ġmakes": 2229,
      "Ġann": 2230,
      "Ġhome": 2231,
      "Ġhang": 2232,
      "room": 2233,
      "usion": 2234,
      "Ġgod": 2235,
      "Ġgrow": 2236,
      "Ġtoo": 2237,
      "oler": 2238,
      "olic": 2239,
      "rain": 2240,
      "ector": 2241,
      "Ġown": 2242,
      "imes": 2243,
      "ama": 2244,
      "Ġstrong": 2245,
      "Ġviol": 2246,
      "utter": 2247,
      "phabet": 2248,
      "ĠCan": 2249,
      "ptic": 2250,
      "Ġyoun": 2251,
      "Ġclot": 2252,
      "Ġsuch": 2253,
      "Ġcoast": 2254,
      "Ġsubject": 2255,
      "Ġcapt": 2256,
      "Ġcapable": 2257,
      "Ġtravel": 2258,
      "Ġboard": 2259,
      "Ġinsect": 2260,
      "Ġbreath": 2261,
      "Ġtransp": 2262,
      "Ġedible": 2263,
      "ceptable": 2264,
      "Ġpaint": 2265,
      "Ġattack": 2266,
      "ableness": 2267,
      "Ġphysical": 2268,
      "Ġmarked": 2269,
      "Ġdevice": 2270,
      "Ġcultivated": 2271,
      "Ġcollection": 2272,
      "ohn": 2273,
      ");": 2274,
      "aid": 2275,
      "jun": 2276,
      "mus": 2277,
      "mil": 2278,
      "met": 2279,
      "norm": 2280,
      "ote": 2281,
      "ope": 2282,
      "rical": 2283,
      "Ġ4": 2284,
      "ened": 2285,
      "inous": 2286,
      "infl": 2287,
      "Ġsac": 2288,
      "ishes": 2289,
      "Ġachie": 2290,
      "onst": 2291,
      "orus": 2292,
      "Ġpair": 2293,
      "Ġtalk": 2294,
      "Ġflow": 2295,
      "Ġfair": 2296,
      "Ġfaith": 2297,
      "Ġfalse": 2298,
      "oud": 2299,
      "alt": 2300,
      "Ġparts": 2301,
      "Ġcoun": 2302,
      "Ġcorn": 2303,
      "Ġcele": 2304,
      "ano": 2305,
      "icle": 2306,
      "Ġbottom": 2307,
      "sequ": 2308,
      "Ġmass": 2309,
      "Ġmind": 2310,
      "Ġmoney": 2311,
      "Ġdance": 2312,
      "Ġdiver": 2313,
      "Ġhol": 2314,
      "Ġlot": 2315,
      "Ġlob": 2316,
      "Ġtown": 2317,
      "ective": 2318,
      "Ġrele": 2319,
      "Ġredu": 2320,
      "elt": 2321,
      "Ġod": 2322,
      "ige": 2323,
      "Ġstand": 2324,
      "Ġrat": 2325,
      "ites": 2326,
      "lock": 2327,
      "Ġunc": 2328,
      "Ġuns": 2329,
      "iage": 2330,
      "ĠMal": 2331,
      "ĠMex": 2332,
      "estic": 2333,
      "Ġspur": 2334,
      "opter": 2335,
      "rupt": 2336,
      "Ġarran": 2337,
      "Ġartery": 2338,
      "Ġrope": 2339,
      "Ġdisorder": 2340,
      "Ġking": 2341,
      "Ġrace": 2342,
      "Ġsmooth": 2343,
      "Ġrelative": 2344,
      "obil": 2345,
      "Ġsuff": 2346,
      "Ġabdom": 2347,
      "iousness": 2348,
      "ensively": 2349,
      "lessly": 2350,
      "Ġbox": 2351,
      "Ġfeature": 2352,
      "Ġbring": 2353,
      "Ġ18": 2354,
      "ney": 2355,
      "Ġincrease": 2356,
      "blem": 2357,
      "Ġinstruction": 2358,
      "Ġbelie": 2359,
      "Ġcommit": 2360,
      "Ġextre": 2361,
      "Ġsecret": 2362,
      "Ġmilk": 2363,
      "Ġfung": 2364,
      "Ġerect": 2365,
      "Ġinflu": 2366,
      "ometry": 2367,
      "ĠIslam": 2368,
      "inguish": 2369,
      "ength": 2370,
      "Ġlacking": 2371,
      "Ġshowy": 2372,
      "Ġinhabit": 2373,
      "Ġestabl": 2374,
      "Ġcountry": 2375,
      "iversity": 2376,
      "Ġsauce": 2377,
      "Ġdevelop": 2378,
      "Ġchemical": 2379,
      "Ġtissue": 2380,
      "Ġyoung": 2381,
      "15": 2382,
      "16": 2383,
      "ait": 2384,
      "aph": 2385,
      "ault": 2386,
      "bed": 2387,
      "band": 2388,
      "book": 2389,
      "come": 2390,
      "dec": 2391,
      "hal": 2392,
      "ling": 2393,
      "ming": 2394,
      "rent": 2395,
      "tal": 2396,
      "tled": 2397,
      "ura": 2398,
      "uke": 2399,
      "wed": 2400,
      "west": 2401,
      "yal": 2402,
      "zo": 2403,
      "Ġes": 2404,
      "Ġice": 2405,
      "ender": 2406,
      "Ġsout": 2407,
      "Ġstem": 2408,
      "isten": 2409,
      "arent": 2410,
      "Ġcere": 2411,
      "Ġcust": 2412,
      "Ġnort": 2413,
      "Ġnarrow": 2414,
      "omas": 2415,
      "Ġbod": 2416,
      "cephal": 2417,
      "Ġwhat": 2418,
      "Ġwing": 2419,
      "Ġwid": 2420,
      "Ġworm": 2421,
      "Ġwax": 2422,
      "Ġmess": 2423,
      "Ġmale": 2424,
      "Ġmajor": 2425,
      "Ġder": 2426,
      "ivid": 2427,
      "Ġgain": 2428,
      "Ġgran": 2429,
      "Ġlie": 2430,
      "Ġlock": 2431,
      "Ġliving": 2432,
      "acle": 2433,
      "acqu": 2434,
      "iding": 2435,
      "iddle": 2436,
      "rad": 2437,
      "Ġreal": 2438,
      "Ġreinfor": 2439,
      "ets": 2440,
      "umber": 2441,
      "Ġstri": 2442,
      "char": 2443,
      "Ġrub": 2444,
      "Ġrib": 2445,
      "Ġriver": 2446,
      "ither": 2447,
      "Ġconcer": 2448,
      "Ġuntil": 2449,
      "utch": 2450,
      "ander": 2451,
      "que": 2452,
      "Ġhed": 2453,
      "Ġther": 2454,
      "ĠCar": 2455,
      "Ġproblem": 2456,
      "Ġchief": 2457,
      "ĠPy": 2458,
      "riend": 2459,
      "ubl": 2460,
      "ills": 2461,
      "iance": 2462,
      "Ġexam": 2463,
      "Ġexcess": 2464,
      "Ġsepar": 2465,
      "Ġlead": 2466,
      "Ġleast": 2467,
      "rup": 2468,
      "orts": 2469,
      "Ġprint": 2470,
      "active": 2471,
      "Ġalphabet": 2472,
      "Ġnext": 2473,
      "ause": 2474,
      "Ġjust": 2475,
      "Ġjob": 2476,
      "ĠThey": 2477,
      "ĠDel": 2478,
      "Ġcarry": 2479,
      "Ġweek": 2480,
      "Ġflowering": 2481,
      "Ġcannot": 2482,
      "ronic": 2483,
      "Ġmonth": 2484,
      "Ġaccus": 2485,
      "ashion": 2486,
      "Ġproduct": 2487,
      "Ġbutter": 2488,
      "189": 2489,
      "Ġskin": 2490,
      "Ġstead": 2491,
      "Ġcaused": 2492,
      "Ġfrequ": 2493,
      "ometimes": 2494,
      "Ġrespons": 2495,
      "inguistic": 2496,
      "Ġseries": 2497,
      "Ġappe": 2498,
      "Ġradio": 2499,
      "Ġtreatment": 2500,
      "Ġfactor": 2501,
      "ĠAsia": 2502,
      "Ġhalf": 2503,
      "Ġhuman": 2504,
      "Ġautumn": 2505,
      "Ġsimilar": 2506,
      "Ġvessel": 2507,
      "Ġconsidered": 2508,
      "iacal": 2509,
      "Ġreligious": 2510,
      "bi": 2511,
      "bat": 2512,
      "bit": 2513,
      "bus": 2514,
      "bid": 2515,
      "back": 2516,
      "ches": 2517,
      "ears": 2518,
      "field": 2519,
      "ien": 2520,
      "nam": 2521,
      "rac": 2522,
      "rous": 2523,
      "tl": 2524,
      "tic": 2525,
      "well": 2526,
      "yx": 2527,
      "Ġ3": 2528,
      "Ġold": 2529,
      "eny": 2530,
      "inte": 2531,
      "ince": 2532,
      "Ġslow": 2533,
      "istence": 2534,
      "Ġaud": 2535,
      "oric": 2536,
      "orch": 2537,
      "Ġpan": 2538,
      "Ġpun": 2539,
      "Ġpos": 2540,
      "Ġpot": 2541,
      "Ġtone": 2542,
      "Ġfro": 2543,
      "Ġfem": 2544,
      "alis": 2545,
      "oma": 2546,
      "Ġban": 2547,
      "Ġbib": 2548,
      "Ġburn": 2549,
      "seud": 2550,
      "Ġwat": 2551,
      "Ġwal": 2552,
      "Ġworld": 2553,
      "Ġmur": 2554,
      "Ġdig": 2555,
      "Ġdress": 2556,
      "ediate": 2557,
      "tend": 2558,
      "Ġhorm": 2559,
      "asian": 2560,
      "iveness": 2561,
      "usted": 2562,
      "Ġlay": 2563,
      "Ġloss": 2564,
      "Ġlength": 2565,
      "Ġtoward": 2566,
      "ilus": 2567,
      "idia": 2568,
      "thod": 2569,
      "Ġeither": 2570,
      "rap": 2571,
      "rav": 2572,
      "Ġadmin": 2573,
      "ada": 2574,
      "iring": 2575,
      "Ġstor": 2576,
      "oton": 2577,
      "Ġrich": 2578,
      "Ġvol": 2579,
      "iful": 2580,
      "ards": 2581,
      "Ġplastic": 2582,
      "ĠMed": 2583,
      "Ġcome": 2584,
      "Ġcommer": 2585,
      "emy": 2586,
      "Ġascend": 2587,
      "ments": 2588,
      "actic": 2589,
      "Ġarch": 2590,
      "rank": 2591,
      "Ġacross": 2592,
      "ĠEm": 2593,
      "Ġtest": 2594,
      "rick": 2595,
      "Ġscience": 2596,
      "Ġrelat": 2597,
      "arks": 2598,
      "lla": 2599,
      "Ġperiod": 2600,
      "weet": 2601,
      "Ġactivity": 2602,
      "Ġcompany": 2603,
      "Ġweight": 2604,
      "lessness": 2605,
      "rency": 2606,
      "anese": 2607,
      "lication": 2608,
      "Ġbright": 2609,
      "Ġcontinu": 2610,
      "Ġvariety": 2611,
      "Ġmusc": 2612,
      "Ġbread": 2613,
      "Ġcurrency": 2614,
      "Ġhydro": 2615,
      "Ġobject": 2616,
      "Ġappro": 2617,
      "Ġproduce": 2618,
      "Ġproduction": 2619,
      "Ġdoor": 2620,
      "Ġbelow": 2621,
      "Ġtender": 2622,
      "Ġstudy": 2623,
      "Ġcalc": 2624,
      "ĠIndia": 2625,
      "Ġbroad": 2626,
      "Ġchee": 2627,
      "Ġinterest": 2628,
      "Ġspecies": 2629,
      "Ġmarket": 2630,
      "Ġcards": 2631,
      "ography": 2632,
      "Ġengine": 2633,
      "Ġlaure": 2634,
      "Ġofficial": 2635,
      "Ġwritten": 2636,
      "Ġsouthwestern": 2637,
      "Ġcrust": 2638,
      "Ġadvance": 2639,
      "Ġassoci": 2640,
      "Ġsharp": 2641,
      "Ġeconomy": 2642,
      "flower": 2643,
      "ĠBritish": 2644,
      "Ġindustrial": 2645,
      "Ġinstrument": 2646,
      "Ġstructure": 2647,
      "Ġcrystall": 2648,
      "Ġbreathing": 2649,
      "obilization": 2650,
      "aud": 2651,
      "bar": 2652,
      "bird": 2653,
      "cast": 2654,
      "do": 2655,
      "fer": 2656,
      "gn": 2657,
      "ges": 2658,
      "iar": 2659,
      "iph": 2660,
      "lat": 2661,
      "line": 2662,
      "sm": 2663,
      "sec": 2664,
      "uted": 2665,
      "used": 2666,
      "van": 2667,
      "Ġhat": 2668,
      "Ġour": 2669,
      "Ġult": 2670,
      "iner": 2671,
      "endron": 2672,
      "Ġsize": 2673,
      "Ġsail": 2674,
      "Ġax": 2675,
      "ones": 2676,
      "arn": 2677,
      "Ġpy": 2678,
      "Ġpay": 2679,
      "erra": 2680,
      "Ġtum": 2681,
      "Ġtour": 2682,
      "Ġfix": 2683,
      "heat": 2684,
      "ouch": 2685,
      "pes": 2686,
      "artment": 2687,
      "Ġcomple": 2688,
      "Ġcree": 2689,
      "Ġnature": 2690,
      "rep": 2691,
      "Ġband": 2692,
      "Ġbow": 2693,
      "Ġbirth": 2694,
      "itute": 2695,
      "itamin": 2696,
      "Ġwall": 2697,
      "Ġwinn": 2698,
      "Ġmel": 2699,
      "Ġmul": 2700,
      "Ġmay": 2701,
      "Ġmuch": 2702,
      "Ġmaking": 2703,
      "Ġdrop": 2704,
      "Ġdoll": 2705,
      "Ġhun": 2706,
      "asing": 2707,
      "uster": 2708,
      "Ġgar": 2709,
      "Ġlef": 2710,
      "Ġlab": 2711,
      "Ġlibr": 2712,
      "olor": 2713,
      "unc": 2714,
      "verage": 2715,
      "ided": 2716,
      "Ġeth": 2717,
      "els": 2718,
      "osoph": 2719,
      "imm": 2720,
      "iment": 2721,
      "imens": 2722,
      "ulf": 2723,
      "ety": 2724,
      "Ġstart": 2725,
      "Ġstren": 2726,
      "Ġstalk": 2727,
      "gebra": 2728,
      "Ġconn": 2729,
      "Ġcontain": 2730,
      "ĠSe": 2731,
      "ĠSen": 2732,
      "ĠSph": 2733,
      "quet": 2734,
      "Ġheld": 2735,
      "Ġthings": 2736,
      "Ġshock": 2737,
      "rier": 2738,
      "ocal": 2739,
      "owl": 2740,
      "ows": 2741,
      "Ġspik": 2742,
      "opod": 2743,
      "Ġdeath": 2744,
      "Ġexh": 2745,
      "Ġleaf": 2746,
      "uda": 2747,
      "ipit": 2748,
      "ipped": 2749,
      "Ġkil": 2750,
      "ĠGre": 2751,
      "Ġrain": 2752,
      "Ġraise": 2753,
      "Ġimpro": 2754,
      "lling": 2755,
      "Ġabnorm": 2756,
      "ĠFor": 2757,
      "Ġmean": 2758,
      "Ġformal": 2759,
      "Ġcharge": 2760,
      "ĠChina": 2761,
      "ĠChurch": 2762,
      "Ġfeet": 2763,
      "Ġbridge": 2764,
      "Ġnote": 2765,
      "Ġdece": 2766,
      "Ġdecor": 2767,
      "Ġmush": 2768,
      "Ġmuscle": 2769,
      "Ġaccom": 2770,
      "Ġaccord": 2771,
      "Ġpoll": 2772,
      "Ġregion": 2773,
      "Ġparad": 2774,
      "Ġbreed": 2775,
      "Ġobs": 2776,
      "Ġobt": 2777,
      "Ġfirm": 2778,
      "iterary": 2779,
      "iterrane": 2780,
      "Ġgradu": 2781,
      "Ġcentury": 2782,
      "Ġsteel": 2783,
      "ĠThomas": 2784,
      "Ġbackground": 2785,
      "Ġelectric": 2786,
      "Ġmedium": 2787,
      "Ġlegal": 2788,
      "Ġsignal": 2789,
      "Ġcircum": 2790,
      "Ġirre": 2791,
      "Ġfilm": 2792,
      "poral": 2793,
      "Ġclean": 2794,
      "ĠAfrican": 2795,
      "Ġwriting": 2796,
      "Ġbiological": 2797,
      "Ġliquid": 2798,
      "Ġcenter": 2799,
      "ĠGeorge": 2800,
      "Ġjoint": 2801,
      "Ġimportant": 2802,
      "Ġorigin": 2803,
      "Ġspirit": 2804,
      "Ġwidely": 2805,
      "ĠMexico": 2806,
      "Ġinfluence": 2807,
      "Ġinhabitant": 2808,
      "Ġlaurel": 2809,
      "iterranean": 2810,
      "aple": 2811,
      "bral": 2812,
      "bug": 2813,
      "cial": 2814,
      "fly": 2815,
      "fall": 2816,
      "har": 2817,
      "jo": 2818,
      "loss": 2819,
      "mur": 2820,
      "mission": 2821,
      "pat": 2822,
      "rish": 2823,
      "ratic": 2824,
      "tail": 2825,
      "uit": 2826,
      "xic": 2827,
      "yg": 2828,
      "ze": 2829,
      "Ġ8": 2830,
      "ino": 2831,
      "inite": 2832,
      "inox": 2833,
      "Ġsat": 2834,
      "Ġsum": 2835,
      "Ġsud": 2836,
      "Ġsometimes": 2837,
      "isy": 2838,
      "isted": 2839,
      "Ġaer": 2840,
      "orous": 2841,
      "Ġpop": 2842,
      "Ġpubl": 2843,
      "atomy": 2844,
      "ersey": 2845,
      "Ġtal": 2846,
      "Ġtro": 2847,
      "Ġtry": 2848,
      "Ġfer": 2849,
      "Ġfib": 2850,
      "Ġfract": 2851,
      "Ġfriend": 2852,
      "heast": 2853,
      "alin": 2854,
      "echan": 2855,
      "Ġcab": 2856,
      "Ġcream": 2857,
      "Ġnow": 2858,
      "ica": 2859,
      "itut": 2860,
      "itude": 2861,
      "Ġwri": 2862,
      "Ġworn": 2863,
      "Ġmotion": 2864,
      "Ġmagn": 2865,
      "Ġhus": 2866,
      "Ġhoney": 2867,
      "asant": 2868,
      "Ġgas": 2869,
      "Ġgum": 2870,
      "Ġgot": 2871,
      "Ġgave": 2872,
      "Ġlast": 2873,
      "Ġlunch": 2874,
      "Ġtool": 2875,
      "iling": 2876,
      "acing": 2877,
      "olia": 2878,
      "olated": 2879,
      "verse": 2880,
      "ider": 2881,
      "Ġevent": 2882,
      "Ġreprodu": 2883,
      "elect": 2884,
      "osus": 2885,
      "Ġop": 2886,
      "Ġow": 2887,
      "ulatory": 2888,
      "igator": 2889,
      "Ġstop": 2890,
      "Ġstore": 2891,
      "abil": 2892,
      "Ġrise": 2893,
      "log": 2894,
      "istle": 2895,
      "ĠSc": 2896,
      "ĠSaint": 2897,
      "ĠAb": 2898,
      "Ġthought": 2899,
      "pher": 2900,
      "Ġbeg": 2901,
      "iah": 2902,
      "Ġproject": 2903,
      "ogloss": 2904,
      "apin": 2905,
      "Ġchang": 2906,
      "ĠPr": 2907,
      "Ġplate": 2908,
      "emon": 2909,
      "esthetic": 2910,
      "rome": 2911,
      "Ġdeer": 2912,
      "Ġdeal": 2913,
      "ometer": 2914,
      "Ġsee": 2915,
      "Ġsex": 2916,
      "Ġlevel": 2917,
      "agon": 2918,
      "ager": 2919,
      "Ġyears": 2920,
      "Ġrose": 2921,
      "ĠEl": 2922,
      "Ġmanual": 2923,
      "Ġrate": 2924,
      "Ġraised": 2925,
      "Ġteach": 2926,
      "rict": 2927,
      "llect": 2928,
      "llable": 2929,
      "weight": 2930,
      "Ġabove": 2931,
      "Ġactive": 2932,
      "iew": 2933,
      "ĠFrance": 2934,
      "ĠJohn": 2935,
      "ologist": 2936,
      "tempt": 2937,
      "196": 2938,
      "Ġforms": 2939,
      "Ġquant": 2940,
      "Ġrecogn": 2941,
      "fully": 2942,
      "renz": 2943,
      "posed": 2944,
      "potent": 2945,
      "Ġusing": 2946,
      "Ġshel": 2947,
      "atically": 2948,
      "Ġtrained": 2949,
      "ront": 2950,
      "Ġboat": 2951,
      "ĠKing": 2952,
      "Ġcontr": 2953,
      "Ġphil": 2954,
      "cover": 2955,
      "Ġsurround": 2956,
      "Ġaccident": 2957,
      "Ġregions": 2958,
      "Ġemot": 2959,
      "Ġinsulin": 2960,
      "Ġbreak": 2961,
      "undle": 2962,
      "Ġdistin": 2963,
      "Ġdistrib": 2964,
      "Ġantip": 2965,
      "exp": 2966,
      "iteration": 2967,
      "Ġunderstand": 2968,
      "188": 2969,
      "Ġcommand": 2970,
      "Ġhighly": 2971,
      "Ġmatter": 2972,
      "syllab": 2973,
      "ways": 2974,
      "Ġsquare": 2975,
      "Ġpurpose": 2976,
      "trade": 2977,
      "trained": 2978,
      "Ġcutting": 2979,
      "Ġmedical": 2980,
      "opsis": 2981,
      "Ġdirect": 2982,
      "Ġrepres": 2983,
      "Ġdiscuss": 2984,
      "Ġbasic": 2985,
      "regular": 2986,
      "Ġbattle": 2987,
      "Ġdeliver": 2988,
      "Ġoxy": 2989,
      "Ġclear": 2990,
      "Ġsuitable": 2991,
      "Ġnorthwestern": 2992,
      "Ġlocated": 2993,
      "Ġsymbol": 2994,
      "Ġroots": 2995,
      "Ġimmediate": 2996,
      "Ġhemis": 2997,
      "Ġpractice": 2998,
      "Ġdesigned": 2999,
      "Ġtrue": 3000,
      "Ġheavy": 3001,
      "Ġsorrel": 3002,
      "Ġorchid": 3003,
      "Ġjudgment": 3004,
      "Ġessential": 3005,
      "Ġsuccess": 3006,
      "military": 3007,
      "inflected": 3008,
      "Ġextreme": 3009,
      "ĠMediterranean": 3010,
      "Ġcheese": 3011,
      "Ġwriter": 3012,
      "aten": 3013,
      "aul": 3014,
      "bib": 3015,
      "bage": 3016,
      "cil": 3017,
      "cri": 3018,
      "cry": 3019,
      "dist": 3020,
      "duc": 3021,
      "gent": 3022,
      "gans": 3023,
      "ira": 3024,
      "iable": 3025,
      "justed": 3026,
      "mir": 3027,
      "mod": 3028,
      "ny": 3029,
      "nic": 3030,
      "oice": 3031,
      "pi": 3032,
      "pple": 3033,
      "pid": 3034,
      "rine": 3035,
      "rus": 3036,
      "rif": 3037,
      "rative": 3038,
      "tu": 3039,
      "woman": 3040,
      "ximate": 3041,
      "zard": 3042,
      "Ġly": 3043,
      "Ġur": 3044,
      "test": 3045,
      "tered": 3046,
      "inth": 3047,
      "inder": 3048,
      "inish": 3049,
      "Ġsav": 3050,
      "Ġsaf": 3051,
      "Ġsister": 3052,
      "Ġsitu": 3053,
      "Ġsusp": 3054,
      "Ġast": 3055,
      "onoun": 3056,
      "aras": 3057,
      "arlet": 3058,
      "Ġpian": 3059,
      "Ġpound": 3060,
      "Ġport": 3061,
      "Ġpock": 3062,
      "Ġpred": 3063,
      "Ġpull": 3064,
      "atal": 3065,
      "Ġtur": 3066,
      "Ġtail": 3067,
      "Ġflex": 3068,
      "alp": 3069,
      "Ġcomplete": 3070,
      "Ġcop": 3071,
      "Ġcott": 3072,
      "Ġcross": 3073,
      "Ġnorm": 3074,
      "Ġnerv": 3075,
      "Ġintens": 3076,
      "Ġthese": 3077,
      "omit": 3078,
      "icy": 3079,
      "Ġbest": 3080,
      "Ġbark": 3081,
      "Ġbush": 3082,
      "Ġbased": 3083,
      "Ġsyn": 3084,
      "ita": 3085,
      "itation": 3086,
      "cement": 3087,
      "Ġwrong": 3088,
      "Ġwitness": 3089,
      "Ġwomen": 3090,
      "Ġmot": 3091,
      "Ġmechan": 3092,
      "Ġdi": 3093,
      "Ġdry": 3094,
      "Ġhour": 3095,
      "roc": 3096,
      "roat": 3097,
      "asy": 3098,
      "asis": 3099,
      "asia": 3100,
      "asses": 3101,
      "Ġorange": 3102,
      "ivation": 3103,
      "Ġginger": 3104,
      "Ġgiant": 3105,
      "Ġlate": 3106,
      "Ġlif": 3107,
      "olith": 3108,
      "Ġeven": 3109,
      "uran": 3110,
      "uration": 3111,
      "urity": 3112,
      "osaur": 3113,
      "Ġoce": 3114,
      "Ġopt": 3115,
      "amb": 3116,
      "ulated": 3117,
      "ette": 3118,
      "ument": 3119,
      "irl": 3120,
      "Ġstim": 3121,
      "Ġstream": 3122,
      "Ġstreet": 3123,
      "Ġconjun": 3124,
      "Ġvacc": 3125,
      "utation": 3126,
      "ĠAp": 3127,
      "ĠCon": 3128,
      "Ġbearing": 3129,
      "ĠPer": 3130,
      "ĠParis": 3131,
      "ĠPoly": 3132,
      "ighter": 3133,
      "aining": 3134,
      "owel": 3135,
      "ians": 3136,
      "Ġexistence": 3137,
      "ounded": 3138,
      "actyl": 3139,
      "Ġaltern": 3140,
      "Ġalleg": 3141,
      "ptive": 3142,
      "Ġrod": 3143,
      "berg": 3144,
      "elling": 3145,
      "aked": 3146,
      "ĠRe": 3147,
      "Ġtext": 3148,
      "Ġnever": 3149,
      "span": 3150,
      "spring": 3151,
      "Ġscream": 3152,
      "Ġclim": 3153,
      "Ġrelation": 3154,
      "achy": 3155,
      "oble": 3156,
      "ĠWh": 3157,
      "ĠWar": 3158,
      "Ġsugar": 3159,
      "iously": 3160,
      "const": 3161,
      "ĠJersey": 3162,
      "angerous": 3163,
      "resident": 3164,
      "ledge": 3165,
      "Ġfamil": 3166,
      "Ġpersons": 3167,
      "Ġmother": 3168,
      "hemat": 3169,
      "Ġfeed": 3170,
      "Ġfeel": 3171,
      "tently": 3172,
      "Ġnumeration": 3173,
      "Ġpolymorph": 3174,
      "Ġregular": 3175,
      "Ġindic": 3176,
      "Ġindivid": 3177,
      "neer": 3178,
      "Ġtrust": 3179,
      "Ġmarine": 3180,
      "Ġprev": 3181,
      "Ġbelief": 3182,
      "Ġequinox": 3183,
      "Ġdraw": 3184,
      "Ġsolar": 3185,
      "Ġplayed": 3186,
      "Ġsevere": 3187,
      "Ġprofit": 3188,
      "Ġstudents": 3189,
      "version": 3190,
      "Ġpresent": 3191,
      "risp": 3192,
      "Ġhands": 3193,
      "Ġconditions": 3194,
      "Ġorganism": 3195,
      "ĠIsland": 3196,
      "Ġphysi": 3197,
      "Ġoperation": 3198,
      "notic": 3199,
      "Ġrounded": 3200,
      "itching": 3201,
      "Ġperformance": 3202,
      "Ġavail": 3203,
      "Ġduct": 3204,
      "Ġfatty": 3205,
      "Ġstraight": 3206,
      "Ġmeasure": 3207,
      "Ġdifferent": 3208,
      "Ġprinciples": 3209,
      "...": 3210,
      "Ġcourse": 3211,
      "white": 3212,
      "Ġkeep": 3213,
      "profess": 3214,
      "Ġpiece": 3215,
      "Ġnegative": 3216,
      "Ġoccurring": 3217,
      "Ġclosely": 3218,
      "rossed": 3219,
      "Ġintended": 3220,
      "Ġentirely": 3221,
      "Ġtube": 3222,
      "Ġtemperature": 3223,
      "liferation": 3224,
      "Ġcandid": 3225,
      "Ġmammal": 3226,
      "ĠJapanese": 3227,
      "Ġsleep": 3228,
      "avorable": 3229,
      "Ġabdominal": 3230,
      "Ġsoutheastern": 3231,
      "Ġhedge": 3232,
      "Ġseparate": 3233,
      "tlantic": 3234,
      "Ġwalnut": 3235,
      "Ġleft": 3236,
      "Ġsudden": 3237,
      "Ġtroops": 3238,
      "Ġvaccine": 3239,
      "')": 3240,
      "Americ": 3241,
      "aim": 3242,
      "bor": 3243,
      "cence": 3244,
      "cient": 3245,
      "down": 3246,
      "ext": 3247,
      "fire": 3248,
      "gal": 3249,
      "gth": 3250,
      "hard": 3251,
      "hold": 3252,
      "iability": 3253,
      "ka": 3254,
      "kl": 3255,
      "ler": 3256,
      "most": 3257,
      "maker": 3258,
      "pend": 3259,
      "pus": 3260,
      "pol": 3261,
      "prop": 3262,
      "ser": 3263,
      "sub": 3264,
      "side": 3265,
      "the": 3266,
      "tim": 3267,
      "tooth": 3268,
      "uh": 3269,
      "uation": 3270,
      "uice": 3271,
      "vity": 3272,
      "wd": 3273,
      "xy": 3274,
      "Ġion": 3275,
      "Ġide": 3276,
      "enry": 3277,
      "inf": 3278,
      "inv": 3279,
      "inted": 3280,
      "Ġsight": 3281,
      "Ġsick": 3282,
      "Ġsaid": 3283,
      "Ġace": 3284,
      "orris": 3285,
      "arc": 3286,
      "arg": 3287,
      "arter": 3288,
      "Ġpict": 3289,
      "ato": 3290,
      "erb": 3291,
      "Ġtit": 3292,
      "Ġfar": 3293,
      "Ġfishes": 3294,
      "Ġfelt": 3295,
      "petent": 3296,
      "alwood": 3297,
      "Ġspeed": 3298,
      "Ġcart": 3299,
      "Ġcow": 3300,
      "Ġcyl": 3301,
      "Ġinj": 3302,
      "rete": 3303,
      "omin": 3304,
      "icult": 3305,
      "Ġbur": 3306,
      "Ġbound": 3307,
      "Ġbag": 3308,
      "Ġsyllable": 3309,
      "Ġwr": 3310,
      "Ġwine": 3311,
      "Ġwest": 3312,
      "Ġmen": 3313,
      "Ġmut": 3314,
      "Ġmill": 3315,
      "Ġmag": 3316,
      "Ġmiss": 3317,
      "Ġmix": 3318,
      "Ġancient": 3319,
      "Ġdin": 3320,
      "Ġdid": 3321,
      "ede": 3322,
      "Ġhonor": 3323,
      "Ġorient": 3324,
      "Ġgoose": 3325,
      "Ġlamp": 3326,
      "ils": 3327,
      "ilation": 3328,
      "acill": 3329,
      "acceptable": 3330,
      "thy": 3331,
      "Ġeast": 3332,
      "raft": 3333,
      "Ġ____,": 3334,
      "Ġreact": 3335,
      "osc": 3336,
      "osp": 3337,
      "amous": 3338,
      "eting": 3339,
      "etch": 3340,
      "ades": 3341,
      "irgin": 3342,
      "Ġstage": 3343,
      "Ġstuff": 3344,
      "change": 3345,
      "Ġris": 3346,
      "Ġring": 3347,
      "Ġrig": 3348,
      "odal": 3349,
      "stra": 3350,
      "stood": 3351,
      "loon": 3352,
      "Ġconcept": 3353,
      "Ġconvent": 3354,
      "istry": 3355,
      "ĠSal": 3356,
      "ĠSwed": 3357,
      "Ġvitamin": 3358,
      "Ġvowel": 3359,
      "iforn": 3360,
      "Ġheart": 3361,
      "Ġhealth": 3362,
      "Ġthre": 3363,
      "ĠCath": 3364,
      "Ġbeaut": 3365,
      "Ġproceed": 3366,
      "ogon": 3367,
      "izer": 3368,
      "apse": 3369,
      "Ġchink": 3370,
      "Ġchange": 3371,
      "Ġcheck": 3372,
      "Ġshop": 3373,
      "ĠPen": 3374,
      "ĠPresident": 3375,
      "rix": 3376,
      "ocratic": 3377,
      "ĠMon": 3378,
      "ĠMark": 3379,
      "ĠMyx": 3380,
      "Ġuses": 3381,
      "establ": 3382,
      "Ġspect": 3383,
      "oper": 3384,
      "Ġdete": 3385,
      "Ġdead": 3386,
      "ibit": 3387,
      "Ġexc": 3388,
      "Ġseem": 3389,
      "ĠIrish": 3390,
      "Ġatomic": 3391,
      "mentary": 3392,
      "Ġleather": 3393,
      "Ġleading": 3394,
      "ago": 3395,
      "pert": 3396,
      "rugg": 3397,
      "Ġpriv": 3398,
      "Ġalong": 3399,
      "Ġwash": 3400,
      "Ġwhole": 3401,
      "ĠLa": 3402,
      "ĠRep": 3403,
      "ĠRuss": 3404,
      "Ġrapid": 3405,
      "Ġteam": 3406,
      "rowave": 3407,
      "plant": 3408,
      "plane": 3409,
      "ĠWest": 3410,
      "Ġpoly": 3411,
      "Ġpoet": 3412,
      "Ġcolon": 3413,
      "Ġcolored": 3414,
      "Ġperf": 3415,
      "Ġcare": 3416,
      "Ġcareful": 3417,
      "Ġcarbon": 3418,
      "Ġoffice": 3419,
      "Ġlarv": 3420,
      "Ġagre": 3421,
      "Ġaggreg": 3422,
      "issa": 3423,
      "blast": 3424,
      "Ġquestion": 3425,
      "Ġmoth": 3426,
      "Ġovert": 3427,
      "prec": 3428,
      "Ġnothing": 3429,
      "proliferation": 3430,
      "iolet": 3431,
      "Ġparas": 3432,
      "Ġparent": 3433,
      "Ġparents": 3434,
      "ramine": 3435,
      "Ġassault": 3436,
      "Ġobed": 3437,
      "Ġobst": 3438,
      "Ġanti": 3439,
      "ĠVel": 3440,
      "Ġedge": 3441,
      "Ġmarsh": 3442,
      "Ġprevent": 3443,
      "ircraft": 3444,
      "Ġsolid": 3445,
      "retched": 3446,
      "comp": 3447,
      "yeur": 3448,
      "Ġextra": 3449,
      "Ġbecause": 3450,
      "Ġminus": 3451,
      "ractive": 3452,
      "Ġlines": 3453,
      "ublican": 3454,
      "Ġvalues": 3455,
      "Ġdrinking": 3456,
      "Ġfoliage": 3457,
      "Ġcorr": 3458,
      "ĠPhil": 3459,
      "legant": 3460,
      "Ġcyan": 3461,
      "Ġbroom": 3462,
      "Ġmedic": 3463,
      "Ġspecial": 3464,
      "Ġpassage": 3465,
      "Ġprogress": 3466,
      "Ġdifficult": 3467,
      "Ġofficer": 3468,
      "asma": 3469,
      "Ġmultip": 3470,
      "Ġseeds": 3471,
      "Ġfinanc": 3472,
      "Ġcovered": 3473,
      "Ġtimber": 3474,
      "Ġhelp": 3475,
      "Ġformerly": 3476,
      "Ġexpert": 3477,
      "Ġinvolving": 3478,
      "limited": 3479,
      "Ġforeign": 3480,
      "Ġjacket": 3481,
      "ĠChristian": 3482,
      "ĠAustralia": 3483,
      "plicit": 3484,
      "Ġfreshwater": 3485,
      "Ġpossible": 3486,
      "Ġfigure": 3487,
      "Ġindex": 3488,
      "Ġcounter": 3489,
      "ĠIslamic": 3490,
      "istency": 3491,
      "Ġcustom": 3492,
      "ĠPyral": 3493,
      "ashionable": 3494,
      "Ġautumnal": 3495,
      "Ġfemale": 3496,
      "Ġhormone": 3497,
      "Ġcommercial": 3498,
      "imensional": 3499,
      "Ġstrength": 3500,
      "Ġobtained": 3501,
      "Ġemotional": 3502,
      "exposure": 3503,
      "syllabic": 3504,
      "Ġindividual": 3505,
      "ĠCatholic": 3506,
      "Ġchinkapin": 3507,
      "Ch": 3508,
      "Is": 3509,
      "bac": 3510,
      "bag": 3511,
      "cing": 3512,
      "cap": 3513,
      "cule": 3514,
      "fast": 3515,
      "ging": 3516,
      "gra": 3517,
      "hi": 3518,
      "her": 3519,
      "ks": 3520,
      "lical": 3521,
      "law": 3522,
      "mult": 3523,
      "nal": 3524,
      "nel": 3525,
      "now": 3526,
      "ping": 3527,
      "pud": 3528,
      "uis": 3529,
      "ules": 3530,
      "var": 3531,
      "vir": 3532,
      "word": 3533,
      "wild": 3534,
      "yond": 3535,
      "Ġidea": 3536,
      "Ġutter": 3537,
      "ofen": 3538,
      "ench": 3539,
      "inst": 3540,
      "inae": 3541,
      "inidae": 3542,
      "inery": 3543,
      "inatal": 3544,
      "Ġsad": 3545,
      "Ġsite": 3546,
      "Ġsale": 3547,
      "isation": 3548,
      "Ġahead": 3549,
      "onym": 3550,
      "onse": 3551,
      "oneness": 3552,
      "ora": 3553,
      "arily": 3554,
      "Ġpion": 3555,
      "Ġpitch": 3556,
      "erc": 3557,
      "Ġtall": 3558,
      "Ġtact": 3559,
      "Ġturn": 3560,
      "Ġtakes": 3561,
      "Ġfle": 3562,
      "Ġfell": 3563,
      "Ġfiber": 3564,
      "Ġfuel": 3565,
      "Ġfrenz": 3566,
      "Ġfront": 3567,
      "ouis": 3568,
      "inext": 3569,
      "alia": 3570,
      "Ġcra": 3571,
      "Ġcrim": 3572,
      "Ġcaus": 3573,
      "Ġnit": 3574,
      "Ġfort": 3575,
      "Ġforces": 3576,
      "Ġbad": 3577,
      "Ġbuck": 3578,
      "sess": 3579,
      "itution": 3580,
      "Ġwa": 3581,
      "Ġwife": 3582,
      "Ġmold": 3583,
      "Ġmouse": 3584,
      "Ġanal": 3585,
      "Ġanterior": 3586,
      "Ġdon": 3587,
      "Ġdim": 3588,
      "Ġdam": 3589,
      "Ġdut": 3590,
      "Ġdia": 3591,
      "Ġdish": 3592,
      "Ġdense": 3593,
      "ioned": 3594,
      "teness": 3595,
      "Ġhapp": 3596,
      "roit": 3597,
      "road": 3598,
      "Ġornam": 3599,
      "iva": 3600,
      "Ġgram": 3601,
      "Ġgrown": 3602,
      "Ġgolf": 3603,
      "teria": 3604,
      "Ġlin": 3605,
      "Ġlily": 3606,
      "Ġlens": 3607,
      "pleasant": 3608,
      "Ġtower": 3609,
      "ilic": 3610,
      "illow": 3611,
      "acrot": 3612,
      "uns": 3613,
      "idimensional": 3614,
      "throp": 3615,
      "thful": 3616,
      "Ġeye": 3617,
      "Ġreject": 3618,
      "Ġreach": 3619,
      "elong": 3620,
      "urb": 3621,
      "oste": 3622,
      "igent": 3623,
      "igra": 3624,
      "Ġaddition": 3625,
      "Ġstr": 3626,
      "Ġrive": 3627,
      "Ġrect": 3628,
      "Ġrust": 3629,
      "Ġrough": 3630,
      "load": 3631,
      "Ġconv": 3632,
      "Ġconver": 3633,
      "Ġcondu": 3634,
      "Ġunw": 3635,
      "Ġuniversity": 3636,
      "Ġunpleasant": 3637,
      "ĠSte": 3638,
      "Ġvent": 3639,
      "Ġview": 3640,
      "ĠAtlantic": 3641,
      "ctrine": 3642,
      "qual": 3643,
      "ĠCol": 3644,
      "ĠCity": 3645,
      "Ġbeyond": 3646,
      "izing": 3647,
      "Ġsho": 3648,
      "ardner": 3649,
      "ĠPle": 3650,
      "ĠMe": 3651,
      "ĠMart": 3652,
      "ĠMong": 3653,
      "Ġupper": 3654,
      "Ġsplit": 3655,
      "Ġdeb": 3656,
      "iller": 3657,
      "Ġextens": 3658,
      "Ġatom": 3659,
      "udge": 3660,
      "rys": 3661,
      "actory": 3662,
      "Ġalg": 3663,
      "Ġalgebra": 3664,
      "Ġarg": 3665,
      "Ġaccept": 3666,
      "ipal": 3667,
      "Ġdisp": 3668,
      "Ġdispar": 3669,
      "ĠEur": 3670,
      "bert": 3671,
      "Ġmanuf": 3672,
      "ternal": 3673,
      "ricted": 3674,
      "spot": 3675,
      "Ġscale": 3676,
      "Ġscarlet": 3677,
      "iles": 3678,
      "Ġjour": 3679,
      "Ġjump": 3680,
      "ĠWood": 3681,
      "Ġpotent": 3682,
      "Ġpoison": 3683,
      "Ġsugg": 3684,
      "ller": 3685,
      "Ġpertaining": 3686,
      "weed": 3687,
      "Ġenter": 3688,
      "conf": 3689,
      "icker": 3690,
      "Ġmeat": 3691,
      "Ġmeans": 3692,
      "ĠJack": 3693,
      "ĠJames": 3694,
      "ologic": 3695,
      "Ġcoat": 3696,
      "angular": 3697,
      "Ġcarries": 3698,
      "190": 3699,
      "197": 3700,
      "aws": 3701,
      "orthy": 3702,
      "airs": 3703,
      "cling": 3704,
      "Ġmoon": 3705,
      "poth": 3706,
      "ermuda": 3707,
      "ervice": 3708,
      "ifications": 3709,
      "Ġresid": 3710,
      "Ġboth": 3711,
      "Ġboot": 3712,
      "Ġnumerous": 3713,
      "Ġnumbers": 3714,
      "gency": 3715,
      "Ġregulate": 3716,
      "Ġemplo": 3717,
      "Ġcurrent": 3718,
      "Ġdistance": 3719,
      "parable": 3720,
      "iently": 3721,
      "Ġapplication": 3722,
      "Ġbetter": 3723,
      "ifferent": 3724,
      "Ġsettled": 3725,
      "Ġdraft": 3726,
      "retch": 3727,
      "Ġdefense": 3728,
      "Ġhigher": 3729,
      "Ġmatch": 3730,
      "Ġplayer": 3731,
      "common": 3732,
      "Ġpainting": 3733,
      "Ġbecame": 3734,
      "Ġminim": 3735,
      "Ġpoints": 3736,
      "Ġ193": 3737,
      "raphic": 3738,
      "grant": 3739,
      "grass": 3740,
      "Ġknown": 3741,
      "Ġknife": 3742,
      "aho": 3743,
      "valuation": 3744,
      "Ġparticle": 3745,
      "Ġparticles": 3746,
      "Ġdrill": 3747,
      "Ġdogs": 3748,
      "Ġcyber": 3749,
      "Ġcatch": 3750,
      "Ġinflamm": 3751,
      "ique": 3752,
      "Ġtyp": 3753,
      "Ġrespir": 3754,
      "Ġresponse": 3755,
      "oxy": 3756,
      "Ġintellect": 3757,
      "Ġocc": 3758,
      "Ġmodern": 3759,
      "Ġclassifications": 3760,
      "Ġradiation": 3761,
      "Ġirregular": 3762,
      "Ġterrit": 3763,
      "Ġavoid": 3764,
      "ographical": 3765,
      "Ġsupport": 3766,
      "Ġserves": 3767,
      "Ġoxidation": 3768,
      "Ġterms": 3769,
      "achelor": 3770,
      "Ġbehind": 3771,
      "iolable": 3772,
      "Ġholding": 3773,
      "Ġfragrant": 3774,
      "aithful": 3775,
      "omatous": 3776,
      "Ġfollowing": 3777,
      "Ġfollowed": 3778,
      "Ġcourt": 3779,
      "Ġdivision": 3780,
      "Ġfluid": 3781,
      "Ġsilvery": 3782,
      "Ġpractices": 3783,
      "volutionary": 3784,
      "Ġefforts": 3785,
      "Ġincluding": 3786,
      "Ġgeometry": 3787,
      "ĠCaliforn": 3788,
      "Ġexperience": 3789,
      "Ġintense": 3790,
      "Ġprofessional": 3791,
      "ĠYork": 3792,
      "Ġislands": 3793,
      "Ġfunds": 3794,
      "Ġinternal": 3795,
      "Ġinternational": 3796,
      "ivalent": 3797,
      "Ġdomestic": 3798,
      "Ġdaisy": 3799,
      "Ġcriticism": 3800,
      "Ġannual": 3801,
      "Ġgrowth": 3802,
      "Ġclothes": 3803,
      "Ġodor": 3804,
      "Ġarranged": 3805,
      "Ġcommittee": 3806,
      "inguishable": 3807,
      "Ġstems": 3808,
      "Ġrubber": 3809,
      "Ġchiefly": 3810,
      "rupted": 3811,
      "Ġlibrary": 3812,
      "Ġaccompan": 3813,
      "Ġparadis": 3814,
      "Ġhusband": 3815,
      "Ġreproduction": 3816,
      "electric": 3817,
      "Ġowl": 3818,
      "Ġhemisphere": 3819,
      "Ġextremely": 3820,
      "alpable": 3821,
      "Ġcotton": 3822,
      "Ġavailable": 3823,
      "professional": 3824,
      "American": 3825,
      "Ġorientation": 3826,
      "ospitable": 3827,
      "Ġlarvae": 3828,
      "bacco": 3829,
      "Ġmanufact": 3830,
      "ĠCalifornia": 3831,
      "13": 3832,
      "II": 3833,
      "Ph": 3834,
      "auc": 3835,
      "birth": 3836,
      "cad": 3837,
      "circ": 3838,
      "dish": 3839,
      "ee": 3840,
      "ephal": 3841,
      "ford": 3842,
      "founded": 3843,
      "give": 3844,
      "hum": 3845,
      "iary": 3846,
      "ja": 3847,
      "just": 3848,
      "ki": 3849,
      "kans": 3850,
      "lar": 3851,
      "lation": 3852,
      "lied": 3853,
      "lasm": 3854,
      "nap": 3855,
      "oted": 3856,
      "pod": 3857,
      "press": 3858,
      "ref": 3859,
      "right": 3860,
      "ster": 3861,
      "squ": 3862,
      "sweet": 3863,
      "tru": 3864,
      "uk": 3865,
      "upe": 3866,
      "uan": 3867,
      "uary": 3868,
      "warm": 3869,
      "yt": 3870,
      "yle": 3871,
      "zon": 3872,
      "Ġ7": 3873,
      "tet": 3874,
      "teen": 3875,
      "inch": 3876,
      "indu": 3877,
      "Ġsan": 3878,
      "Ġsod": 3879,
      "isure": 3880,
      "isiveness": 3881,
      "Ġath": 3882,
      "Ġaqu": 3883,
      "orant": 3884,
      "orical": 3885,
      "orough": 3886,
      "organ": 3887,
      "orried": 3888,
      "Ġisolated": 3889,
      "arous": 3890,
      "Ġpal": 3891,
      "Ġpit": 3892,
      "Ġpath": 3893,
      "Ġpalm": 3894,
      "atter": 3895,
      "atant": 3896,
      "atable": 3897,
      "atile": 3898,
      "atomic": 3899,
      "erize": 3900,
      "Ġtar": 3901,
      "Ġtong": 3902,
      "Ġtomat": 3903,
      "Ġfine": 3904,
      "Ġfab": 3905,
      "Ġfile": 3906,
      "Ġfram": 3907,
      "heart": 3908,
      "pee": 3909,
      "efinite": 3910,
      "Ġcos": 3911,
      "Ġcast": 3912,
      "Ġcerv": 3913,
      "Ġcrown": 3914,
      "Ġcrisp": 3915,
      "Ġnet": 3916,
      "Ġnav": 3917,
      "Ġincl": 3918,
      "Ġforbid": 3919,
      "reading": 3920,
      "oming": 3921,
      "ominate": 3922,
      "ican": 3923,
      "ingers": 3924,
      "Ġbot": 3925,
      "Ġbog": 3926,
      "Ġbay": 3927,
      "Ġbind": 3928,
      "Ġbarb": 3929,
      "Ġbrain": 3930,
      "ymp": 3931,
      "sea": 3932,
      "sexual": 3933,
      "itarian": 3934,
      "Ġwon": 3935,
      "Ġwire": 3936,
      "Ġwings": 3937,
      "Ġmol": 3938,
      "Ġmid": 3939,
      "Ġmouth": 3940,
      "Ġanch": 3941,
      "Ġanesthetic": 3942,
      "ester": 3943,
      "Ġdate": 3944,
      "Ġdull": 3945,
      "Ġduck": 3946,
      "Ġdiam": 3947,
      "Ġdouble": 3948,
      "Ġdangerous": 3949,
      "Ġhur": 3950,
      "Ġharm": 3951,
      "rob": 3952,
      "rod": 3953,
      "rog": 3954,
      "asion": 3955,
      "asual": 3956,
      "ashed": 3957,
      "ivil": 3958,
      "Ġgam": 3959,
      "Ġgerm": 3960,
      "Ġlup": 3961,
      "Ġlinguistic": 3962,
      "wered": 3963,
      "Ġtobacco": 3964,
      "ilate": 3965,
      "thus": 3966,
      "thrum": 3967,
      "aman": 3968,
      "ament": 3969,
      "iginal": 3970,
      "eton": 3971,
      "adjusted": 3972,
      "irac": 3973,
      "Ġstro": 3974,
      "Ġstates": 3975,
      "Ġstiff": 3976,
      "Ġstrugg": 3977,
      "ots": 3978,
      "chin": 3979,
      "Ġrange": 3980,
      "odont": 3981,
      "itect": 3982,
      "lob": 3983,
      "loph": 3984,
      "lobin": 3985,
      "Ġund": 3986,
      "Ġunion": 3987,
      "iston": 3988,
      "Ġvict": 3989,
      "Ġvetch": 3990,
      "ĠAm": 3991,
      "ĠAz": 3992,
      "ĠAnd": 3993,
      "ants": 3994,
      "anthem": 3995,
      "iferous": 3996,
      "ctonic": 3997,
      "ousand": 3998,
      "Ġthen": 3999,
      "Ġthrow": 4000,
      "Ġthousand": 4001,
      "Ġbeat": 4002,
      "Ġprob": 4003,
      "Ġproced": 4004,
      "ogamous": 4005,
      "oglobin": 4006,
      "izard": 4007,
      "Ġchrom": 4008,
      "Ġcherry": 4009,
      "Ġshoo": 4010,
      "Ġshoot": 4011,
      "ĠPe": 4012,
      "ureate": 4013,
      "rief": 4014,
      "ĠMer": 4015,
      "ĠMid": 4016,
      "Ġcompet": 4017,
      "estment": 4018,
      "Ġspin": 4019,
      "Ġspinal": 4020,
      "Ġspring": 4021,
      "alling": 4022,
      "opal": 4023,
      "iby": 4024,
      "Ġexec": 4025,
      "Ġseek": 4026,
      "Ġseats": 4027,
      "Ġleisure": 4028,
      "ishly": 4029,
      "therm": 4030,
      "Ġprices": 4031,
      "Ġallow": 4032,
      "Ġarth": 4033,
      "Ġyield": 4034,
      "ormity": 4035,
      "ĠHis": 4036,
      "ĠHill": 4037,
      "ĠHouse": 4038,
      "aken": 4039,
      "ooted": 4040,
      "Ġkid": 4041,
      "ĠGr": 4042,
      "Ġraw": 4043,
      "ricate": 4044,
      "Ġimpr": 4045,
      "aug": 4046,
      "augh": 4047,
      "obacter": 4048,
      "Ġcolle": 4049,
      "Ġcollo": 4050,
      "Ġflash": 4051,
      "Ġenough": 4052,
      "Ġenemy": 4053,
      "ĠDem": 4054,
      "conce": 4055,
      "ieving": 4056,
      "Ġcompris": 4057,
      "ĠJose": 4058,
      "Ġcarb": 4059,
      "Ġcarpet": 4060,
      "rested": 4061,
      "aware": 4062,
      "intment": 4063,
      "igned": 4064,
      "Ġweak": 4065,
      "Ġfamous": 4066,
      "Ġforming": 4067,
      "Ġformation": 4068,
      "Ġquot": 4069,
      "Ġquick": 4070,
      "Ġsubt": 4071,
      "Ġsubst": 4072,
      "ermost": 4073,
      "aneous": 4074,
      "Ġtrade": 4075,
      "Ġtradition": 4076,
      "tention": 4077,
      "tentional": 4078,
      "Ġdecrease": 4079,
      "cope": 4080,
      "Ġsurve": 4081,
      "Ġsurger": 4082,
      "letic": 4083,
      "gler": 4084,
      "gligent": 4085,
      "ossy": 4086,
      "aft": 4087,
      "Ġaccount": 4088,
      "Ġregard": 4089,
      "Ġemb": 4090,
      "Ġemotion": 4091,
      "Ġincome": 4092,
      "Ġcurtain": 4093,
      "Ġaller": 4094,
      "Ġslender": 4095,
      "Ġworking": 4096,
      "uckle": 4097,
      "upid": 4098,
      "Ġsettle": 4099,
      "Ġdrawing": 4100,
      "Ġsolution": 4101,
      "Ġmathematic": 4102,
      "Ġplayers": 4103,
      "flurried": 4104,
      "Ġstudent": 4105,
      "Ġveget": 4106,
      "Ġblock": 4107,
      "Ġminor": 4108,
      "Ġsoil": 4109,
      "Ġcalef": 4110,
      "umbfounded": 4111,
      "Ġtransfer": 4112,
      "cury": 4113,
      "enned": 4114,
      "inning": 4115,
      "innate": 4116,
      "ribut": 4117,
      "Ġelectron": 4118,
      "Ġcattle": 4119,
      "Ġlawyer": 4120,
      "ometric": 4121,
      "auri": 4122,
      "oresce": 4123,
      "Ġprovide": 4124,
      "Ġprovides": 4125,
      "Ġphysic": 4126,
      "arthermost": 4127,
      "Ġdepartment": 4128,
      "azine": 4129,
      "Ġserve": 4130,
      "Ġapart": 4131,
      "Ġdirection": 4132,
      "Ġconstitu": 4133,
      "Ġcircle": 4134,
      "Ġbitter": 4135,
      "Ġrocket": 4136,
      "arbor": 4137,
      "ructive": 4138,
      "itchen": 4139,
      "Ġshowing": 4140,
      "Ġfilled": 4141,
      "Ġdeliber": 4142,
      "ĠLee": 4143,
      "Ġperformed": 4144,
      "continu": 4145,
      "Ġlocal": 4146,
      "working": 4147,
      "Ġdetail": 4148,
      "Ġearl": 4149,
      "Ġ200": 4150,
      "Ġintro": 4151,
      "Ġdetermine": 4152,
      "Ġdetermined": 4153,
      "Ġcells": 4154,
      "Ġthermal": 4155,
      "offensively": 4156,
      "Ġevidence": 4157,
      "Ġletter": 4158,
      "Ġbooks": 4159,
      "ittingly": 4160,
      "roidal": 4161,
      "ĠIII": 4162,
      "Ġsensation": 4163,
      "Ġeconomic": 4164,
      "ĠZeal": 4165,
      "Ġnuclear": 4166,
      "Ġmicrowave": 4167,
      "ĠGerman": 4168,
      "playable": 4169,
      "Ġinsects": 4170,
      "Ġholly": 4171,
      "Ġesc": 4172,
      "Ġderived": 4173,
      "Ġreinforcement": 4174,
      "umberous": 4175,
      "Ġtherapy": 4176,
      "Ġfrequency": 4177,
      "Ġpunishment": 4178,
      "Ġburning": 4179,
      "Ġadminist": 4180,
      "Ġstories": 4181,
      "acticable": 4182,
      "Ġmuscles": 4183,
      "Ġassociated": 4184,
      "Ġultimate": 4185,
      "Ġcomplex": 4186,
      "Ġmushroom": 4187,
      "Ġoriginally": 4188,
      "murous": 4189,
      "Ġpublish": 4190,
      "Ġferns": 4191,
      "itutional": 4192,
      "Ġdelivery": 4193,
      "cription": 4194,
      "Ġnormal": 4195,
      "achycephal": 4196,
      "Ġrigid": 4197,
      "Ġfinancial": 4198,
      "inextinguishable": 4199,
      "Ġtomato": 4200,
      "Ġfabric": 4201,
      "Ġframe": 4202,
      "Ġsurgery": 4203,
      "continued": 4204,
      "ĠZealand": 4205,
      "20": 4206,
      "25": 4207,
      "ao": 4208,
      "aer": 4209,
      "aired": 4210,
      "bles": 4211,
      "brown": 4212,
      "cir": 4213,
      "carb": 4214,
      "fe": 4215,
      "fty": 4216,
      "footed": 4217,
      "gam": 4218,
      "gence": 4219,
      "gold": 4220,
      "gral": 4221,
      "gium": 4222,
      "hens": 4223,
      "iel": 4224,
      "ken": 4225,
      "len": 4226,
      "las": 4227,
      "lian": 4228,
      "lies": 4229,
      "literary": 4230,
      "mark": 4231,
      "matic": 4232,
      "master": 4233,
      "nis": 4234,
      "nes": 4235,
      "oi": 4236,
      "oec": 4237,
      "pa": 4238,
      "put": 4239,
      "pri": 4240,
      "pire": 4241,
      "pret": 4242,
      "psy": 4243,
      "rh": 4244,
      "rere": 4245,
      "so": 4246,
      "sur": 4247,
      "tis": 4248,
      "tran": 4249,
      "ux": 4250,
      "va": 4251,
      "war": 4252,
      "yc": 4253,
      "yed": 4254,
      "zz": 4255,
      "Ġic": 4256,
      "Ġions": 4257,
      "endered": 4258,
      "Ġson": 4259,
      "Ġsong": 4260,
      "Ġsix": 4261,
      "Ġsneer": 4262,
      "isf": 4263,
      "Ġage": 4264,
      "Ġarom": 4265,
      "onous": 4266,
      "onest": 4267,
      "oring": 4268,
      "oria": 4269,
      "Ġiss": 4270,
      "arse": 4271,
      "Ġpas": 4272,
      "Ġpig": 4273,
      "Ġpet": 4274,
      "Ġpod": 4275,
      "Ġpier": 4276,
      "Ġplex": 4277,
      "Ġpseud": 4278,
      "att": 4279,
      "atum": 4280,
      "attle": 4281,
      "erot": 4282,
      "erog": 4283,
      "erted": 4284,
      "Ġton": 4285,
      "ecl": 4286,
      "eces": 4287,
      "Ġfence": 4288,
      "Ġfold": 4289,
      "Ġfather": 4290,
      "Ġfancy": 4291,
      "hely": 4292,
      "heum": 4293,
      "ineer": 4294,
      "alus": 4295,
      "alam": 4296,
      "alest": 4297,
      "Ġcou": 4298,
      "Ġcum": 4299,
      "Ġcav": 4300,
      "Ġcred": 4301,
      "Ġcamp": 4302,
      "Ġcrab": 4303,
      "Ġcoff": 4304,
      "lein": 4305,
      "level": 4306,
      "Ġinn": 4307,
      "Ġforth": 4308,
      "Ġtheater": 4309,
      "resp": 4310,
      "rethrum": 4311,
      "ounder": 4312,
      "omm": 4313,
      "omian": 4314,
      "omination": 4315,
      "ication": 4316,
      "Ġbab": 4317,
      "Ġbill": 4318,
      "Ġbran": 4319,
      "Ġbacter": 4320,
      "Ġbull": 4321,
      "Ġbinary": 4322,
      "Ġbrief": 4323,
      "yme": 4324,
      "ymn": 4325,
      "Ġwed": 4326,
      "Ġwould": 4327,
      "Ġwool": 4328,
      "Ġwolf": 4329,
      "Ġwages": 4330,
      "Ġmort": 4331,
      "ested": 4332,
      "esie": 4333,
      "Ġdied": 4334,
      "Ġdesp": 4335,
      "Ġdata": 4336,
      "edu": 4337,
      "edless": 4338,
      "tened": 4339,
      "Ġhou": 4340,
      "Ġhoc": 4341,
      "Ġhow": 4342,
      "Ġhook": 4343,
      "Ġhole": 4344,
      "asure": 4345,
      "ivistic": 4346,
      "ivorous": 4347,
      "usive": 4348,
      "Ġgang": 4349,
      "teris": 4350,
      "Ġlost": 4351,
      "Ġlives": 4352,
      "Ġlik": 4353,
      "Ġlizard": 4354,
      "acanth": 4355,
      "unf": 4356,
      "thir": 4357,
      "Ġeating": 4358,
      "Ġeaten": 4359,
      "raid": 4360,
      "rable": 4361,
      "ecting": 4362,
      "Ġrevers": 4363,
      "elch": 4364,
      "urally": 4365,
      "osing": 4366,
      "Ġopp": 4367,
      "ims": 4368,
      "imum": 4369,
      "imony": 4370,
      "igns": 4371,
      "adendron": 4372,
      "irm": 4373,
      "Ġstation": 4374,
      "Ġstone": 4375,
      "Ġstory": 4376,
      "Ġstars": 4377,
      "Ġstring": 4378,
      "Ġstrik": 4379,
      "otte": 4380,
      "Ġrum": 4381,
      "Ġrare": 4382,
      "Ġrank": 4383,
      "Ġrasp": 4384,
      "Ġrendered": 4385,
      "odactyl": 4386,
      "ston": 4387,
      "stream": 4388,
      "stract": 4389,
      "Ġconc": 4390,
      "Ġcongen": 4391,
      "Ġconcent": 4392,
      "Ġconsequ": 4393,
      "Ġcontempt": 4394,
      "Ġwhile": 4395,
      "Ġuninflected": 4396,
      "istant": 4397,
      "ĠSab": 4398,
      "Ġvill": 4399,
      "Ġvisc": 4400,
      "Ġvomit": 4401,
      "ava": 4402,
      "avored": 4403,
      "andins": 4404,
      "andhi": 4405,
      "Ġthink": 4406,
      "Ġthread": 4407,
      "phen": 4408,
      "phic": 4409,
      "phys": 4410,
      "ĠCard": 4411,
      "Ġbeer": 4412,
      "Ġbeard": 4413,
      "Ġbeverage": 4414,
      "izes": 4415,
      "ession": 4416,
      "aper": 4417,
      "apable": 4418,
      "apult": 4419,
      "Ġchurch": 4420,
      "Ġchronic": 4421,
      "Ġshape": 4422,
      "ĠPost": 4423,
      "rie": 4424,
      "ables": 4425,
      "Ġplasma": 4426,
      "ĠMary": 4427,
      "ĠMacrot": 4428,
      "emic": 4429,
      "Ġspoil": 4430,
      "Ġspiny": 4431,
      "romy": 4432,
      "Ġash": 4433,
      "open": 4434,
      "rying": 4435,
      "Ġprice": 4436,
      "Ġprinter": 4437,
      "Ġalike": 4438,
      "arya": 4439,
      "Ġwaste": 4440,
      "Ġacad": 4441,
      "assioned": 4442,
      "ĠHenry": 4443,
      "Ġroyal": 4444,
      "Ġdiscover": 4445,
      "ĠBC": 4446,
      "ĠBart": 4447,
      "ĠBrun": 4448,
      "ĠBermuda": 4449,
      "ellidae": 4450,
      "athus": 4451,
      "Ġkick": 4452,
      "Ġkauri": 4453,
      "ĠRo": 4454,
      "ĠGu": 4455,
      "ĠGod": 4456,
      "Ġragged": 4457,
      "Ġtele": 4458,
      "Ġteeth": 4459,
      "rically": 4460,
      "ressing": 4461,
      "ressive": 4462,
      "Ġsmoke": 4463,
      "Ġclutch": 4464,
      "plish": 4465,
      "obaric": 4466,
      "Ġcolumn": 4467,
      "Ġflight": 4468,
      "Ġperch": 4469,
      "Ġblade": 4470,
      "Ġabs": 4471,
      "Ġabstract": 4472,
      "ordina": 4473,
      "ĠDo": 4474,
      "ĠDow": 4475,
      "icken": 4476,
      "Ġcompul": 4477,
      "ension": 4478,
      "ensive": 4479,
      "ensible": 4480,
      "Ġcoating": 4481,
      "Ġconsort": 4482,
      "Ġconsult": 4483,
      "Ġconsistency": 4484,
      "193": 4485,
      "194": 4486,
      "198": 4487,
      "akey": 4488,
      "ĠOr": 4489,
      "Ġoffensively": 4490,
      "Ġsmaller": 4491,
      "ysis": 4492,
      "yster": 4493,
      "ystem": 4494,
      "Ġweigh": 4495,
      "Ġwealth": 4496,
      "dev": 4497,
      "imeter": 4498,
      "bler": 4499,
      "Ġsuborder": 4500,
      "class": 4501,
      "renic": 4502,
      "iverpud": 4503,
      "erved": 4504,
      "Ġcancer": 4505,
      "pedition": 4506,
      "Ġresour": 4507,
      "Ġresident": 4508,
      "ronym": 4509,
      "ĠKenned": 4510,
      "Ġammon": 4511,
      "Ġcontract": 4512,
      "iopel": 4513,
      "ugg": 4514,
      "Ġexposure": 4515,
      "Ġempt": 4516,
      "Ġinsur": 4517,
      "undred": 4518,
      "Ġincre": 4519,
      "scure": 4520,
      "scri": 4521,
      "inched": 4522,
      "ophy": 4523,
      "venue": 4524,
      "ĠVirgin": 4525,
      "Ġproduces": 4526,
      "Ġdoctrine": 4527,
      "186": 4528,
      "Ġheads": 4529,
      "ceptible": 4530,
      "reamy": 4531,
      "Ġmatrix": 4532,
      "Ġplaying": 4533,
      "Ġstep": 4534,
      "ontia": 4535,
      "ontory": 4536,
      "Ġpainter": 4537,
      "Ġstudies": 4538,
      "Ġveins": 4539,
      "Ġentrance": 4540,
      "Ġmineral": 4541,
      "rates": 4542,
      "Ġbuilt": 4543,
      "versatile": 4544,
      "Ġ194": 4545,
      "hetical": 4546,
      "ĠArkans": 4547,
      "ahu": 4548,
      "Ġpurple": 4549,
      "Ġdrink": 4550,
      "Ġcauses": 4551,
      "Ġnews": 4552,
      "tensive": 4553,
      "Ġlaws": 4554,
      "Ġorganized": 4555,
      "iscopal": 4556,
      "Ġrespect": 4557,
      "inguished": 4558,
      "Ġspecified": 4559,
      "Ġoperations": 4560,
      "Ġlegs": 4561,
      "Ġrounding": 4562,
      "onica": 4563,
      "Ġprincipal": 4564,
      "Ġradi": 4565,
      "Ġfilter": 4566,
      "Ġfruits": 4567,
      "Ġoxid": 4568,
      "omson": 4569,
      "Ġrestaur": 4570,
      "Ġvoyeur": 4571,
      "Ġpattern": 4572,
      "impassioned": 4573,
      "ibernate": 4574,
      "Ġmeasures": 4575,
      "Ġmeasured": 4576,
      "Ġtrip": 4577,
      "Ġproportion": 4578,
      "Ġestate": 4579,
      "alaen": 4580,
      "Ġculture": 4581,
      "Ġdemonst": 4582,
      "uspic": 4583,
      "rably": 4584,
      "Ġrunner": 4585,
      "understood": 4586,
      "Ġcovering": 4587,
      "Ġelementary": 4588,
      "calary": 4589,
      "solved": 4590,
      "Ġkept": 4591,
      "Ġsilver": 4592,
      "Ġpieces": 4593,
      "Ġgolden": 4594,
      "Ġincluded": 4595,
      "Ġnegot": 4596,
      "Ġassociate": 4597,
      "Ġoccurs": 4598,
      "Ġfootball": 4599,
      "Ġballet": 4600,
      "Ġballoon": 4601,
      "aptness": 4602,
      "believing": 4603,
      "corrupted": 4604,
      "Ġparka": 4605,
      "rophied": 4606,
      "Ġcombination": 4607,
      "Ġdrugs": 4608,
      "Ġharsh": 4609,
      "ĠJapan": 4610,
      "Ġreceived": 4611,
      "Ġknowledge": 4612,
      "ĠAustralian": 4613,
      "Ġpsychology": 4614,
      "Ġbaseball": 4615,
      "Ġrupee": 4616,
      "Ġauthority": 4617,
      "gonqu": 4618,
      "Ġcooked": 4619,
      "Ġtooth": 4620,
      "olera": 4621,
      "ĠCanada": 4622,
      "Ġtransparent": 4623,
      "Ġspurge": 4624,
      "Ġracem": 4625,
      "Ġfungi": 4626,
      "Ġestablish": 4627,
      "Ġnortheastern": 4628,
      "Ġnortheast": 4629,
      "Ġbodies": 4630,
      "Ġproblems": 4631,
      "Ġexamination": 4632,
      "Ġexcessive": 4633,
      "Ġleader": 4634,
      "Ġbutterfly": 4635,
      "ienated": 4636,
      "Ġaudience": 4637,
      "Ġbibulous": 4638,
      "Ġwatch": 4639,
      "Ġarchitect": 4640,
      "Ġrelativity": 4641,
      "Ġdollar": 4642,
      "Ġgarment": 4643,
      "Ġspikes": 4644,
      "Ġabnormal": 4645,
      "fallen": 4646,
      "Ġsatisf": 4647,
      "Ġcabbage": 4648,
      "abilize": 4649,
      "ĠScot": 4650,
      "Ġbeginning": 4651,
      "agonistic": 4652,
      "riction": 4653,
      "Ġoxygen": 4654,
      "ducing": 4655,
      "Ġflexible": 4656,
      "Ġcompletely": 4657,
      "Ġhours": 4658,
      "Ġmissile": 4659,
      "ĠMyxobacter": 4660,
      "ĠRussia": 4661,
      "Ġagreement": 4662,
      "retchedness": 4663,
      "Ġmedicine": 4664,
      "Ġpione": 4665,
      "Ġcausing": 4666,
      "Ġornamental": 4667,
      "ĠMongolia": 4668,
      "Ġjournal": 4669,
      "Ġpoisoning": 4670,
      "pothalam": 4671,
      "orriedly": 4672,
      "Ġdiamond": 4673,
      "ibyan": 4674,
      "auguration": 4675,
      "ĠJoseph": 4676,
      "Ġphysicist": 4677,
      "hensile": 4678,
      "Ġaromatic": 4679,
      "erogative": 4680,
      "leveland": 4681,
      "Ġhockey": 4682,
      "ordinaire": 4683,
      "iverpudlian": 4684,
      "-____": 4685,
      ".)": 4686,
      "50": 4687,
      "Cau": 4688,
      "Le": 4689,
      "Roman": 4690,
      "St": 4691,
      "aic": 4692,
      "ailed": 4693,
      "bend": 4694,
      "bal": 4695,
      "bet": 4696,
      "blo": 4697,
      "bank": 4698,
      "bush": 4699,
      "cut": 4700,
      "case": 4701,
      "cingly": 4702,
      "crib": 4703,
      "cCau": 4704,
      "di": 4705,
      "ds": 4706,
      "dic": 4707,
      "del": 4708,
      "det": 4709,
      "dipp": 4710,
      "ea": 4711,
      "eph": 4712,
      "fat": 4713,
      "fam": 4714,
      "gia": 4715,
      "had": 4716,
      "hot": 4717,
      "hand": 4718,
      "high": 4719,
      "here": 4720,
      "itently": 4721,
      "ihad": 4722,
      "jian": 4723,
      "jud": 4724,
      "ked": 4725,
      "ket": 4726,
      "list": 4727,
      "last": 4728,
      "liness": 4729,
      "ma": 4730,
      "men": 4731,
      "mis": 4732,
      "mit": 4733,
      "mouth": 4734,
      "nat": 4735,
      "night": 4736,
      "oa": 4737,
      "ois": 4738,
      "oped": 4739,
      "pine": 4740,
      "pre": 4741,
      "prom": 4742,
      "psey": 4743,
      "piscopal": 4744,
      "ril": 4745,
      "rid": 4746,
      "rub": 4747,
      "some": 4748,
      "ti": 4749,
      "tot": 4750,
      "uition": 4751,
      "uously": 4752,
      "urably": 4753,
      "vest": 4754,
      "vance": 4755,
      "wort": 4756,
      "writ": 4757,
      "ware": 4758,
      "ya": 4759,
      "yon": 4760,
      "yph": 4761,
      "zark": 4762,
      "zyg": 4763,
      "Ġile": 4764,
      "eno": 4765,
      "enoid": 4766,
      "enery": 4767,
      "ini": 4768,
      "inion": 4769,
      "inent": 4770,
      "inian": 4771,
      "inful": 4772,
      "endar": 4773,
      "Ġsold": 4774,
      "Ġsection": 4775,
      "ises": 4776,
      "Ġaw": 4777,
      "Ġaim": 4778,
      "Ġawn": 4779,
      "onious": 4780,
      "orter": 4781,
      "orial": 4782,
      "orization": 4783,
      "arin": 4784,
      "arer": 4785,
      "arel": 4786,
      "arache": 4787,
      "aratus": 4788,
      "Ġpel": 4789,
      "Ġpri": 4790,
      "Ġpers": 4791,
      "Ġpage": 4792,
      "Ġpick": 4793,
      "Ġpars": 4794,
      "Ġpond": 4795,
      "atab": 4796,
      "atient": 4797,
      "atoon": 4798,
      "atulatory": 4799,
      "era": 4800,
      "ero": 4801,
      "Ġtight": 4802,
      "Ġtape": 4803,
      "Ġtask": 4804,
      "Ġtouch": 4805,
      "Ġfring": 4806,
      "Ġfert": 4807,
      "Ġfox": 4808,
      "Ġfinger": 4809,
      "oumar": 4810,
      "Ġcit": 4811,
      "Ġcro": 4812,
      "Ġcord": 4813,
      "Ġcost": 4814,
      "Ġcame": 4815,
      "Ġcork": 4816,
      "anim": 4817,
      "anted": 4818,
      "anopter": 4819,
      "Ġnur": 4820,
      "Ġnam": 4821,
      "Ġnap": 4822,
      "Ġnaut": 4823,
      "leming": 4824,
      "Ġinsp": 4825,
      "Ġinvent": 4826,
      "Ġforest": 4827,
      "Ġforward": 4828,
      "rew": 4829,
      "real": 4830,
      "reant": 4831,
      "reland": 4832,
      "ouna": 4833,
      "omes": 4834,
      "oment": 4835,
      "omach": 4836,
      "ombo": 4837,
      "Ġbath": 4838,
      "Ġbare": 4839,
      "Ġbundle": 4840,
      "yment": 4841,
      "itts": 4842,
      "ceived": 4843,
      "Ġwhe": 4844,
      "Ġwave": 4845,
      "Ġmes": 4846,
      "Ġmars": 4847,
      "Ġanatomy": 4848,
      "esis": 4849,
      "Ġdoc": 4850,
      "Ġdone": 4851,
      "Ġderm": 4852,
      "Ġdiet": 4853,
      "edom": 4854,
      "tenn": 4855,
      "Ġha": 4856,
      "Ġhier": 4857,
      "Ġhundred": 4858,
      "rock": 4859,
      "asury": 4860,
      "Ġord": 4861,
      "Ġorgans": 4862,
      "ivance": 4863,
      "ivities": 4864,
      "usters": 4865,
      "usceptible": 4866,
      "Ġgal": 4867,
      "Ġgest": 4868,
      "Ġgather": 4869,
      "Ġgiving": 4870,
      "Ġgruff": 4871,
      "Ġsense": 4872,
      "Ġlist": 4873,
      "Ġliter": 4874,
      "Ġlively": 4875,
      "Ġlung": 4876,
      "Ġtoile": 4877,
      "Ġtotal": 4878,
      "Ġtoxic": 4879,
      "acad": 4880,
      "aches": 4881,
      "olym": 4882,
      "olly": 4883,
      "idi": 4884,
      "idine": 4885,
      "nst": 4886,
      "nsyl": 4887,
      "Ġeasy": 4888,
      "Ġelegant": 4889,
      "rage": 4890,
      "atell": 4891,
      "Ġrepe": 4892,
      "Ġreason": 4893,
      "urities": 4894,
      "ospor": 4895,
      "osphere": 4896,
      "imistic": 4897,
      "igmatic": 4898,
      "Ġadded": 4899,
      "umed": 4900,
      "uminous": 4901,
      "adel": 4902,
      "Ġstat": 4903,
      "Ġstorm": 4904,
      "Ġstaff": 4905,
      "Ġstyle": 4906,
      "Ġstupid": 4907,
      "Ġstomach": 4908,
      "aboo": 4909,
      "abeth": 4910,
      "Ġren": 4911,
      "Ġrack": 4912,
      "Ġrice": 4913,
      "stone": 4914,
      "stated": 4915,
      "stick": 4916,
      "geois": 4917,
      "look": 4918,
      "Ġwhis": 4919,
      "Ġwhirl": 4920,
      "Ġunt": 4921,
      "Ġunequ": 4922,
      "Ġuntrained": 4923,
      "Ġunlimited": 4924,
      "istan": 4925,
      "ĠSir": 4926,
      "ĠSpan": 4927,
      "Ġviv": 4928,
      "Ġvirt": 4929,
      "Ġvocal": 4930,
      "utic": 4931,
      "aving": 4932,
      "ĠAir": 4933,
      "antage": 4934,
      "ifth": 4935,
      "ifug": 4936,
      "iflor": 4937,
      "ctos": 4938,
      "ctum": 4939,
      "pping": 4940,
      "Ġthigh": 4941,
      "Ġthorn": 4942,
      "ĠCast": 4943,
      "ĠCont": 4944,
      "ĠCleveland": 4945,
      "Ġbeech": 4946,
      "Ġbeast": 4947,
      "izzard": 4948,
      "izabeth": 4949,
      "aping": 4950,
      "Ġchur": 4951,
      "Ġcholera": 4952,
      "Ġshoe": 4953,
      "Ġshots": 4954,
      "ĠPro": 4955,
      "ĠPet": 4956,
      "ĠPash": 4957,
      "ĠPalest": 4958,
      "rian": 4959,
      "ochem": 4960,
      "ighted": 4961,
      "Ġplaster": 4962,
      "ĠMar": 4963,
      "ĠMic": 4964,
      "ĠMad": 4965,
      "Ġcompl": 4966,
      "Ġuter": 4967,
      "ements": 4968,
      "emitic": 4969,
      "estimate": 4970,
      "Ġspike": 4971,
      "Ġgene": 4972,
      "opa": 4973,
      "opath": 4974,
      "Ġdeter": 4975,
      "Ġdepr": 4976,
      "ibral": 4977,
      "Ġseen": 4978,
      "Ġseat": 4979,
      "ĠItal": 4980,
      "ĠIreland": 4981,
      "Ġatoms": 4982,
      "Ġattention": 4983,
      "mentation": 4984,
      "udson": 4985,
      "agion": 4986,
      "ageness": 4987,
      "acker": 4988,
      "Ġalways": 4989,
      "Ġarter": 4990,
      "aceous": 4991,
      "Ġacce": 4992,
      "Ġacceptable": 4993,
      "assuring": 4994,
      "ĠHer": 4995,
      "ĠHow": 4996,
      "ĠHindu": 4997,
      "ips": 4998,
      "iparous": 4999,
      "ĠLl": 5000,
      "ĠLouis": 5001,
      "ĠBos": 5002,
      "ĠEx": 5003,
      "ourt": 5004,
      "ourgeois": 5005,
      "veled": 5006,
      "Ġkiss": 5007,
      "Ġkitchen": 5008,
      "ultiv": 5009,
      "reek": 5010,
      "ternational": 5011,
      "ĠGent": 5012,
      "ĠGandhi": 5013,
      "rich": 5014,
      "Ġneuro": 5015,
      "Ġsmell": 5016,
      "spur": 5017,
      "ĠTai": 5018,
      "Ġimpotent": 5019,
      "Ġimplicit": 5020,
      "Ġscrim": 5021,
      "Ġscene": 5022,
      "Ġclam": 5023,
      "Ġcloud": 5024,
      "Ġclusters": 5025,
      "ilege": 5026,
      "achi": 5027,
      "aux": 5028,
      "Ġareas": 5029,
      "Ġitch": 5030,
      "obel": 5031,
      "shire": 5032,
      "Ġsupple": 5033,
      "Ġherb": 5034,
      "llar": 5035,
      "llig": 5036,
      "ldog": 5037,
      "Ġflour": 5038,
      "ĠUl": 5039,
      "ĠUr": 5040,
      "Ġperinatal": 5041,
      "Ġblame": 5042,
      "Ġability": 5043,
      "Ġabsor": 5044,
      "ording": 5045,
      "ordinate": 5046,
      "ĠDe": 5047,
      "Ġactor": 5048,
      "Ġactivities": 5049,
      "Ġoutside": 5050,
      "Ġmethod": 5051,
      "Ġmeeting": 5052,
      "atively": 5053,
      "ologically": 5054,
      "ensored": 5055,
      "Ġfloor": 5056,
      "Ġfloat": 5057,
      "Ġinfection": 5058,
      "Ġoffspring": 5059,
      "Ġlarch": 5060,
      "ysanopter": 5061,
      "determ": 5062,
      "alese": 5063,
      "ritis": 5064,
      "ĠUniversity": 5065,
      "Ġquest": 5066,
      "prin": 5067,
      "prise": 5068,
      "Ġupon": 5069,
      "Ġshell": 5070,
      "ĠChar": 5071,
      "ĠKandins": 5072,
      "ĠKitts": 5073,
      "Ġamong": 5074,
      "Ġnoted": 5075,
      "Ġmonarch": 5076,
      "Ġmusical": 5077,
      "ossil": 5078,
      "ewis": 5079,
      "ugong": 5080,
      "ionalized": 5081,
      "Ġ10": 5082,
      "Ġ12": 5083,
      "Ġ13": 5084,
      "Ġ15": 5085,
      "Ġ100": 5086,
      "Ġexpense": 5087,
      "Ġindifferent": 5088,
      "Ġindefinite": 5089,
      "Ġbreach": 5090,
      "Ġincor": 5091,
      "scape": 5092,
      "Ġassume": 5093,
      "Ġimpart": 5094,
      "Ġimpression": 5095,
      "ophob": 5096,
      "ophilic": 5097,
      "Ġaft": 5098,
      "Ġantic": 5099,
      "Ġantib": 5100,
      "Ġsystems": 5101,
      "Ġapply": 5102,
      "ĠVerra": 5103,
      "Ġguess": 5104,
      "Ġguard": 5105,
      "Ġguide": 5106,
      "Ġguilt": 5107,
      "amps": 5108,
      "boat": 5109,
      "Ġworks": 5110,
      "Ġprepar": 5111,
      "Ġbelt": 5112,
      "semary": 5113,
      "semble": 5114,
      "Ġmembers": 5115,
      "Ġgrain": 5116,
      "Ġgrape": 5117,
      "Ġstatement": 5118,
      "Ġskirt": 5119,
      "Ġdesert": 5120,
      "comm": 5121,
      "Ġtending": 5122,
      "Ġtennis": 5123,
      "ontal": 5124,
      "flu": 5125,
      "Ġattitude": 5126,
      "Ġnonproliferation": 5127,
      "Ġnonsyllabic": 5128,
      "ĠThomson": 5129,
      "Ġgroups": 5130,
      "Ġsecurity": 5131,
      "versive": 5132,
      "Ġsole": 5133,
      "Ġpresident": 5134,
      "Ġchildbirth": 5135,
      "Ġsociety": 5136,
      "Ġcalendar": 5137,
      "Ġcloth": 5138,
      "Ġvalley": 5139,
      "Ġtransmission": 5140,
      "Ġwoody": 5141,
      "meas": 5142,
      "Ġremain": 5143,
      "Ġremove": 5144,
      "ĠPhthir": 5145,
      "ribute": 5146,
      "Ġshrubby": 5147,
      "ĠIndies": 5148,
      "Ġnewborn": 5149,
      "rimonious": 5150,
      "Ġreflect": 5151,
      "Ġorganic": 5152,
      "Ġprovince": 5153,
      "Ġwarrant": 5154,
      "Ġdepos": 5155,
      "Ġhorses": 5156,
      "Ġspecific": 5157,
      "appro": 5158,
      "Ġaffection": 5159,
      "Ġdirt": 5160,
      "Ġdiscolor": 5161,
      "Ġsignals": 5162,
      "Ġcircuit": 5163,
      "restrial": 5164,
      "Ġbasis": 5165,
      "Ġbasket": 5166,
      "Ġmodel": 5167,
      "Ġiron": 5168,
      "Ġceremon": 5169,
      "regon": 5170,
      "ĠLeakey": 5171,
      "Ġpowerful": 5172,
      "yrs": 5173,
      "yracanth": 5174,
      "Ġterrestrial": 5175,
      "Ġsnow": 5176,
      "Ġfacts": 5177,
      "Ġelm": 5178,
      "Ġelse": 5179,
      "Ġserved": 5180,
      "Ġservice": 5181,
      "ĠAlgonqu": 5182,
      "Ġarms": 5183,
      "Ġarmy": 5184,
      "Ġarmed": 5185,
      "control": 5186,
      "vision": 5187,
      "atinum": 5188,
      "Ġinviolable": 5189,
      "Ġdetails": 5190,
      "Ġverte": 5191,
      "Ġpromontory": 5192,
      "Ġfrag": 5193,
      "Ġdemobilization": 5194,
      "Ġdemocratic": 5195,
      "Ġunfashionable": 5196,
      "Ġsymmet": 5197,
      "omatot": 5198,
      "Ġhairy": 5199,
      "Ġruns": 5200,
      "Ġmaterials": 5201,
      "bridge": 5202,
      "sorily": 5203,
      "Ġamounts": 5204,
      "stead": 5205,
      "solve": 5206,
      "where": 5207,
      "Ġevents": 5208,
      "Ġprotective": 5209,
      "Ġmusician": 5210,
      "Ġglands": 5211,
      "Ġliquor": 5212,
      "rika": 5213,
      "Ġcreate": 5214,
      "Ġtimes": 5215,
      "Ġlimited": 5216,
      "ĠMusic": 5217,
      "ĠNevis": 5218,
      "Ġnaturalized": 5219,
      "Ġheavily": 5220,
      "ĠCalvin": 5221,
      "Ġexplos": 5222,
      "Ġnucleus": 5223,
      "Ġangle": 5224,
      "ruffy": 5225,
      "Ġtechnical": 5226,
      "Ġpatent": 5227,
      "helm": 5228,
      "Ġtemperate": 5229,
      "color": 5230,
      "marry": 5231,
      "Ġidentification": 5232,
      "Ġharmon": 5233,
      "ĠHydro": 5234,
      "Ġexpressing": 5235,
      "Ġcommunication": 5236,
      "Ġconceited": 5237,
      "Ġhomogen": 5238,
      "Ġhostility": 5239,
      "Ġhypnotic": 5240,
      "Ġbells": 5241,
      "Ġmalle": 5242,
      "Ġviolence": 5243,
      "Ġachiever": 5244,
      "Ġflows": 5245,
      "Ġfaithful": 5246,
      "Ġinstructions": 5247,
      "Ġfungus": 5248,
      "Ġestablished": 5249,
      "Ġdevelopment": 5250,
      "ukewarm": 5251,
      "Ġcerebral": 5252,
      "Ġstrip": 5253,
      "Ġribbon": 5254,
      "Ġconcern": 5255,
      "Ġresponsible": 5256,
      "Ġappear": 5257,
      "Ġradioactive": 5258,
      "business": 5259,
      "Ġlayer": 5260,
      "ĠEmment": 5261,
      "Ġtestimony": 5262,
      "Ġhydrogen": 5263,
      "Ġapproval": 5264,
      "Ġcrustace": 5265,
      "Ġcrystallization": 5266,
      "audius": 5267,
      "vania": 5268,
      "Ġpyrethrum": 5269,
      "Ġfixed": 5270,
      "Ġethnic": 5271,
      "ipitously": 5272,
      "ĠForce": 5273,
      "ĠForest": 5274,
      "Ġmeaning": 5275,
      "Ġdeceptive": 5276,
      "Ġdecorative": 5277,
      "Ġfraction": 5278,
      "alinize": 5279,
      "oglossum": 5280,
      "Ġteacher": 5281,
      "Ġshelter": 5282,
      "Ġphilosoph": 5283,
      "piper": 5284,
      "Ġsafety": 5285,
      "Ġsuspend": 5286,
      "onounce": 5287,
      "Ġpounds": 5288,
      "Ġpocket": 5289,
      "Ġsynt": 5290,
      "Ġmechanical": 5291,
      "Ġconjunct": 5292,
      "Ġfamiliar": 5293,
      "ĠIslands": 5294,
      "Ġsickness": 5295,
      "Ġpicture": 5296,
      "Ġmillion": 5297,
      "Ġmagazine": 5298,
      "Ġmixed": 5299,
      "Ġdinosaur": 5300,
      "Ġbeautiful": 5301,
      "ogonal": 5302,
      "pertrophied": 5303,
      "ĠRepublican": 5304,
      "Ġcarefully": 5305,
      "Ġaggregate": 5306,
      "Ġparasitic": 5307,
      "Ġcriminal": 5308,
      "Ġconduct": 5309,
      "Ġventure": 5310,
      "ĠColumb": 5311,
      "Ġalgae": 5312,
      "Ġdisparage": 5313,
      "ĠWoodward": 5314,
      "Ġsuggest": 5315,
      "Ġinflammation": 5316,
      "Ġrespiratory": 5317,
      "Ġathletic": 5318,
      "Ġtongue": 5319,
      "Ġcervical": 5320,
      "Ġbottle": 5321,
      "Ġmolec": 5322,
      "Ġstruggle": 5323,
      "Ġarthritis": 5324,
      "Ġcomprising": 5325,
      "Ġescape": 5326,
      "circling": 5327,
      "Ġplexus": 5328,
      "esiege": 5329,
      "Ġhouses": 5330,
      "Ġraspberry": 5331,
      "Ġdiscovered": 5332,
      "ronymic": 5333,
      "Ġrestaurant": 5334,
      "cCauley": 5335,
      "oumarouna": 5336,
      "Ġtoilet": 5337,
      "nsylvania": 5338,
      "atellite": 5339,
      "ĠSpanish": 5340,
      "ibraltar": 5341,
      "ĠItalian": 5342,
      ",'": 5343,
      ".,": 5344,
      "59": 5345,
      "70": 5346,
      "Al": 5347,
      "NA": 5348,
      "aige": 5349,
      "bb": 5350,
      "bu": 5351,
      "bul": 5352,
      "bot": 5353,
      "bable": 5354,
      "bow": 5355,
      "bill": 5356,
      "bound": 5357,
      "bdom": 5358,
      "block": 5359,
      "ca": 5360,
      "cc": 5361,
      "cr": 5362,
      "cin": 5363,
      "cart": 5364,
      "cra": 5365,
      "coll": 5366,
      "dr": 5367,
      "dy": 5368,
      "daho": 5369,
      "fol": 5370,
      "fort": 5371,
      "fight": 5372,
      "flex": 5373,
      "gical": 5374,
      "gone": 5375,
      "gory": 5376,
      "gden": 5377,
      "hen": 5378,
      "hom": 5379,
      "hus": 5380,
      "ham": 5381,
      "host": 5382,
      "hild": 5383,
      "iatic": 5384,
      "iator": 5385,
      "je": 5386,
      "jan": 5387,
      "jac": 5388,
      "jold": 5389,
      "kay": 5390,
      "know": 5391,
      "kjold": 5392,
      "lot": 5393,
      "lore": 5394,
      "mach": 5395,
      "mail": 5396,
      "mented": 5397,
      "num": 5398,
      "nch": 5399,
      "nology": 5400,
      "nivorous": 5401,
      "oam": 5402,
      "oop": 5403,
      "oiled": 5404,
      "pis": 5405,
      "phe": 5406,
      "pom": 5407,
      "pur": 5408,
      "pad": 5409,
      "pir": 5410,
      "port": 5411,
      "path": 5412,
      "post": 5413,
      "rass": 5414,
      "ridge": 5415,
      "riage": 5416,
      "sw": 5417,
      "sand": 5418,
      "sized": 5419,
      "sman": 5420,
      "tri": 5421,
      "tamin": 5422,
      "tishly": 5423,
      "uters": 5424,
      "vet": 5425,
      "wit": 5426,
      "wise": 5427,
      "witching": 5428,
      "worthy": 5429,
      "yaf": 5430,
      "yves": 5431,
      "zin": 5432,
      "zano": 5433,
      "Ġ5": 5434,
      "Ġom": 5435,
      "Ġtent": 5436,
      "Ġumb": 5437,
      "Ġiod": 5438,
      "Ġinextinguishable": 5439,
      "tero": 5440,
      "teoric": 5441,
      "enef": 5442,
      "ening": 5443,
      "enses": 5444,
      "enbor": 5445,
      "inomy": 5446,
      "ends": 5447,
      "ending": 5448,
      "Ġsaw": 5449,
      "Ġsides": 5450,
      "Ġsinus": 5451,
      "Ġsomatot": 5452,
      "isan": 5453,
      "iscont": 5454,
      "Ġaph": 5455,
      "Ġather": 5456,
      "Ġappos": 5457,
      "Ġaureate": 5458,
      "oni": 5459,
      "onec": 5460,
      "onas": 5461,
      "onial": 5462,
      "onaut": 5463,
      "ori": 5464,
      "oral": 5465,
      "orse": 5466,
      "original": 5467,
      "aret": 5468,
      "aria": 5469,
      "Ġpou": 5470,
      "Ġpom": 5471,
      "Ġpul": 5472,
      "Ġpant": 5473,
      "Ġpow": 5474,
      "Ġpest": 5475,
      "Ġpast": 5476,
      "Ġpau": 5477,
      "Ġpung": 5478,
      "Ġpinnate": 5479,
      "athe": 5480,
      "atie": 5481,
      "atius": 5482,
      "erou": 5483,
      "erver": 5484,
      "Ġtan": 5485,
      "Ġtank": 5486,
      "Ġtilt": 5487,
      "Ġfast": 5488,
      "Ġfight": 5489,
      "Ġfind": 5490,
      "Ġfail": 5491,
      "Ġfinal": 5492,
      "Ġfarm": 5493,
      "Ġfasc": 5494,
      "Ġfibr": 5495,
      "Ġfarthermost": 5496,
      "Ġfrying": 5497,
      "Ġfossil": 5498,
      "outer": 5499,
      "inea": 5500,
      "ineated": 5501,
      "alo": 5502,
      "echar": 5503,
      "Ġca": 5504,
      "Ġcel": 5505,
      "Ġcam": 5506,
      "Ġcrow": 5507,
      "Ġcrop": 5508,
      "Ġcode": 5509,
      "Ġcrossed": 5510,
      "Ġcivil": 5511,
      "aner": 5512,
      "anover": 5513,
      "annel": 5514,
      "Ġnational": 5515,
      "Ġnerve": 5516,
      "Ġnuis": 5517,
      "legh": 5518,
      "leep": 5519,
      "leaf": 5520,
      "Ġina": 5521,
      "Ġinject": 5522,
      "Ġintentional": 5523,
      "Ġinaptness": 5524,
      "reen": 5525,
      "reat": 5526,
      "omorph": 5527,
      "iced": 5528,
      "icum": 5529,
      "icient": 5530,
      "Ġbra": 5531,
      "Ġbig": 5532,
      "Ġbore": 5533,
      "Ġbaked": 5534,
      "ympan": 5535,
      "see": 5536,
      "Ġsynd": 5537,
      "Ġsyllab": 5538,
      "itar": 5539,
      "itan": 5540,
      "itating": 5541,
      "itious": 5542,
      "cell": 5543,
      "Ġwin": 5544,
      "Ġwound": 5545,
      "Ġwheat": 5546,
      "Ġwittingly": 5547,
      "Ġmac": 5548,
      "Ġmap": 5549,
      "Ġmile": 5550,
      "Ġmax": 5551,
      "Ġmaster": 5552,
      "Ġans": 5553,
      "Ġanx": 5554,
      "esus": 5555,
      "Ġdic": 5556,
      "Ġdue": 5557,
      "Ġdye": 5558,
      "Ġdict": 5559,
      "Ġdyn": 5560,
      "Ġdumbfounded": 5561,
      "eding": 5562,
      "tender": 5563,
      "Ġhose": 5564,
      "Ġhurried": 5565,
      "Ġhospitable": 5566,
      "Ġharbor": 5567,
      "Ġhibernate": 5568,
      "roe": 5569,
      "roy": 5570,
      "root": 5571,
      "rother": 5572,
      "Ġoral": 5573,
      "Ġorio": 5574,
      "Ġorthod": 5575,
      "Ġgro": 5576,
      "Ġling": 5577,
      "Ġlater": 5578,
      "Ġlake": 5579,
      "Ġliterary": 5580,
      "Ġlighter": 5581,
      "plement": 5582,
      "Ġtot": 5583,
      "Ġtook": 5584,
      "ilian": 5585,
      "ilious": 5586,
      "illed": 5587,
      "acy": 5588,
      "acating": 5589,
      "acient": 5590,
      "acinth": 5591,
      "entally": 5592,
      "olar": 5593,
      "olate": 5594,
      "unn": 5595,
      "ungh": 5596,
      "versed": 5597,
      "idros": 5598,
      "thr": 5599,
      "thorn": 5600,
      "thology": 5601,
      "Ġey": 5602,
      "Ġeight": 5603,
      "Ġears": 5604,
      "raise": 5605,
      "raceae": 5606,
      "ects": 5607,
      "Ġrese": 5608,
      "Ġreading": 5609,
      "Ġrevolution": 5610,
      "Ġrebell": 5611,
      "Ġreplace": 5612,
      "eler": 5613,
      "elder": 5614,
      "urg": 5615,
      "osity": 5616,
      "osper": 5617,
      "Ġov": 5618,
      "Ġoiled": 5619,
      "Ġokay": 5620,
      "imal": 5621,
      "immer": 5622,
      "amine": 5623,
      "amate": 5624,
      "amide": 5625,
      "ambers": 5626,
      "amoa": 5627,
      "ulating": 5628,
      "igue": 5629,
      "Ġadmir": 5630,
      "Ġadroit": 5631,
      "uments": 5632,
      "aded": 5633,
      "adally": 5634,
      "irect": 5635,
      "irrel": 5636,
      "Ġstill": 5637,
      "Ġstored": 5638,
      "Ġstaple": 5639,
      "Ġstretch": 5640,
      "oty": 5641,
      "othe": 5642,
      "choton": 5643,
      "abhar": 5644,
      "Ġran": 5645,
      "Ġrit": 5646,
      "Ġrule": 5647,
      "Ġrheum": 5648,
      "odel": 5649,
      "odendron": 5650,
      "sting": 5651,
      "stud": 5652,
      "stock": 5653,
      "ssher": 5654,
      "gement": 5655,
      "Ġconve": 5656,
      "Ġcongr": 5657,
      "Ġconden": 5658,
      "Ġwhale": 5659,
      "Ġunst": 5660,
      "Ġunprof": 5661,
      "Ġunacceptable": 5662,
      "Ġunadjusted": 5663,
      "Ġunflurried": 5664,
      "Ġunplayable": 5665,
      "ĠSan": 5666,
      "ĠSym": 5667,
      "ĠSay": 5668,
      "ĠSystem": 5669,
      "ĠSamoa": 5670,
      "Ġvac": 5671,
      "Ġvul": 5672,
      "Ġvital": 5673,
      "Ġvena": 5674,
      "Ġviolet": 5675,
      "ĠAe": 5676,
      "ando": 5677,
      "andy": 5678,
      "andra": 5679,
      "ifol": 5680,
      "Ġonce": 5681,
      "ctic": 5682,
      "quis": 5683,
      "question": 5684,
      "Ġheated": 5685,
      "Ġthing": 5686,
      "Ġthough": 5687,
      "Ġthird": 5688,
      "Ġthinking": 5689,
      "Ġthistle": 5690,
      "phia": 5691,
      "phores": 5692,
      "phodel": 5693,
      "ĠCur": 5694,
      "ĠCong": 5695,
      "ĠCourt": 5696,
      "ĠCoumarouna": 5697,
      "Ġbear": 5698,
      "Ġbeef": 5699,
      "Ġbeet": 5700,
      "Ġbewitching": 5701,
      "iaircraft": 5702,
      "iazyg": 5703,
      "Ġproximate": 5704,
      "Ġproducing": 5705,
      "izon": 5706,
      "izontal": 5707,
      "aphe": 5708,
      "apfallen": 5709,
      "Ġshir": 5710,
      "ĠPl": 5711,
      "ĠPod": 5712,
      "ĠPort": 5713,
      "ĠPrun": 5714,
      "ĠPlin": 5715,
      "ĠPlat": 5716,
      "ocy": 5717,
      "ighten": 5718,
      "Ġplum": 5719,
      "Ġplain": 5720,
      "Ġplunder": 5721,
      "ĠMord": 5722,
      "ĠMiss": 5723,
      "ĠMah": 5724,
      "ĠMcCauley": 5725,
      "Ġcompetent": 5726,
      "emade": 5727,
      "Ġspite": 5728,
      "Ġspill": 5729,
      "Ġsport": 5730,
      "opic": 5731,
      "oping": 5732,
      "oparas": 5733,
      "Ġdew": 5734,
      "ianic": 5735,
      "ibomian": 5736,
      "Ġexact": 5737,
      "Ġexcept": 5738,
      "Ġexchange": 5739,
      "Ġsequ": 5740,
      "Ġsearch": 5741,
      "ĠIV": 5742,
      "ĠIc": 5743,
      "Ġatm": 5744,
      "Ġattend": 5745,
      "Ġlewd": 5746,
      "udiation": 5747,
      "ishness": 5748,
      "agell": 5749,
      "agues": 5750,
      "agrant": 5751,
      "peror": 5752,
      "persed": 5753,
      "perform": 5754,
      "ruc": 5755,
      "rue": 5756,
      "iales": 5757,
      "orton": 5758,
      "Ġprerogative": 5759,
      "actus": 5760,
      "Ġallo": 5761,
      "Ġalmost": 5762,
      "Ġarr": 5763,
      "Ġarts": 5764,
      "Ġarena": 5765,
      "ranc": 5766,
      "Ġacry": 5767,
      "orme": 5768,
      "ĠHel": 5769,
      "Ġrole": 5770,
      "Ġrosemary": 5771,
      "Ġdisk": 5772,
      "Ġdiscontinued": 5773,
      "ĠBar": 5774,
      "ĠEuc": 5775,
      "oody": 5776,
      "akob": 5777,
      "vea": 5778,
      "veil": 5779,
      "Ġkit": 5780,
      "ences": 5781,
      "onging": 5782,
      "ulture": 5783,
      "ĠGall": 5784,
      "ĠGulf": 5785,
      "ĠGibraltar": 5786,
      "Ġrays": 5787,
      "Ġtell": 5788,
      "Ġtease": 5789,
      "Ġteleg": 5790,
      "Ġtelling": 5791,
      "Ġtectonic": 5792,
      "Ġneut": 5793,
      "Ġnegligent": 5794,
      "Ġsmiled": 5795,
      "Ġimage": 5796,
      "due": 5797,
      "Ġscad": 5798,
      "Ġscatter": 5799,
      "Ġclub": 5800,
      "Ġclip": 5801,
      "Ġclaim": 5802,
      "auten": 5803,
      "auraceae": 5804,
      "Ġjure": 5805,
      "obby": 5806,
      "shore": 5807,
      "shold": 5808,
      "Ġflounder": 5809,
      "Ġflavored": 5810,
      "Ġblush": 5811,
      "Ġblunt": 5812,
      "Ġblatant": 5813,
      "Ġenclo": 5814,
      "Ġenjo": 5815,
      "Ġable": 5816,
      "Ġaboriginal": 5817,
      "ĠDes": 5818,
      "concer": 5819,
      "Ġacts": 5820,
      "Ġactin": 5821,
      "Ġactions": 5822,
      "uevar": 5823,
      "iezo": 5824,
      "Ġoutward": 5825,
      "ĠFinn": 5826,
      "ĠFleming": 5827,
      "ameter": 5828,
      "Ġcompan": 5829,
      "Ġcomposition": 5830,
      "ĠJune": 5831,
      "ĠJihad": 5832,
      "ĠJesus": 5833,
      "ensis": 5834,
      "angida": 5835,
      "Ġcarried": 5836,
      "temporal": 5837,
      "Ġconsc": 5838,
      "199": 5839,
      "Ġinflect": 5840,
      "Ġinfective": 5841,
      "ĠOxy": 5842,
      "ĠOregon": 5843,
      "Ġlarger": 5844,
      "Ġweap": 5845,
      "ĠUnion": 5846,
      "Ġquell": 5847,
      "Ġpersonal": 5848,
      "print": 5849,
      "poses": 5850,
      "Ġusage": 5851,
      "Ġsheep": 5852,
      "ervative": 5853,
      "anea": 5854,
      "Ġtrain": 5855,
      "Ġtrace": 5856,
      "Ġtraining": 5857,
      "hemoglobin": 5858,
      "hemophilic": 5859,
      "ronically": 5860,
      "Ġboy": 5861,
      "Ġamend": 5862,
      "Ġfear": 5863,
      "Ġbrill": 5864,
      "Ġnovel": 5865,
      "Ġcontact": 5866,
      "Ġvaried": 5867,
      "Ġdecisiveness": 5868,
      "arsius": 5869,
      "arskjold": 5870,
      "hesitating": 5871,
      "atherine": 5872,
      "axy": 5873,
      "generation": 5874,
      "lets": 5875,
      "Ġmonitor": 5876,
      "Ġmonogamous": 5877,
      "Ġmusk": 5878,
      "arean": 5879,
      "Ġregister": 5880,
      "Ġ17": 5881,
      "Ġexpenses": 5882,
      "ansfield": 5883,
      "Ġinserted": 5884,
      "undane": 5885,
      "neum": 5886,
      "rumpet": 5887,
      "Ġsouari": 5888,
      "Ġincident": 5889,
      "Ġincapable": 5890,
      "Ġwaters": 5891,
      "Ġcurved": 5892,
      "Ġdistress": 5893,
      "Ġdisturb": 5894,
      "Ġhyper": 5895,
      "Ġhypothalam": 5896,
      "Ġhyacinth": 5897,
      "Ġimpalpable": 5898,
      "Ġimpurities": 5899,
      "ophen": 5900,
      "tersweet": 5901,
      "venant": 5902,
      "Ġtrig": 5903,
      "Ġtract": 5904,
      "Ġguava": 5905,
      "Ġslight": 5906,
      "Ġslumberous": 5907,
      "iterate": 5908,
      "volute": 5909,
      "box": 5910,
      "boy": 5911,
      "Ġworked": 5912,
      "Ġmarrow": 5913,
      "Ġinstigator": 5914,
      "Ġdoes": 5915,
      "Ġdoctor": 5916,
      "183": 5917,
      "oides": 5918,
      "Ġbelonging": 5919,
      "Ġmemory": 5920,
      "Ġgrouse": 5921,
      "Ġgray": 5922,
      "Ġgravity": 5923,
      "iffith": 5924,
      "Ġdrawn": 5925,
      "Ġdragon": 5926,
      "Ġgenera": 5927,
      "Ġgenerally": 5928,
      "begone": 5929,
      "Ġsolve": 5930,
      "ceremon": 5931,
      "Ġski": 5932,
      "Ġplays": 5933,
      "selves": 5934,
      "Ġprofusion": 5935,
      "Ġpainted": 5936,
      "Ġattached": 5937,
      "Ġnonprofessional": 5938,
      "Ġbuff": 5939,
      "othermic": 5940,
      "otherapy": 5941,
      "Ġprescription": 5942,
      "Ġsquirrel": 5943,
      "Ġhandle": 5944,
      "ĠAfter": 5945,
      "ĠArche": 5946,
      "ĠArmy": 5947,
      "Ġsalam": 5948,
      "Ġtransmit": 5949,
      "Ġpurplish": 5950,
      "Ġdrunk": 5951,
      "Ġglossy": 5952,
      "Ġerror": 5953,
      "Ġairplane": 5954,
      "Ġcorner": 5955,
      "Ġdogtooth": 5956,
      "Ġremote": 5957,
      "ĠPhasc": 5958,
      "traversed": 5959,
      "Ġfreedom": 5960,
      "legal": 5961,
      "asonable": 5962,
      "Ġgoods": 5963,
      "Ġartific": 5964,
      "Ġartists": 5965,
      "Ġcatapult": 5966,
      "Ġinflation": 5967,
      "Ġinflected": 5968,
      "oolf": 5969,
      "ammarskjold": 5970,
      "Ġyourself": 5971,
      "iscreet": 5972,
      "akeroot": 5973,
      "archy": 5974,
      "Ġbrother": 5975,
      "Ġwarning": 5976,
      "aze": 5977,
      "Ġcheap": 5978,
      "Ġchewing": 5979,
      "Ġapple": 5980,
      "Ġaffairs": 5981,
      "Ġdirty": 5982,
      "Ġreputation": 5983,
      "Ġdiscip": 5984,
      "Ġpassword": 5985,
      "Ġbittersweet": 5986,
      "Ġrocky": 5987,
      "Ġgoing": 5988,
      "stances": 5989,
      "Ġshows": 5990,
      "Ġtreaty": 5991,
      "ĠLept": 5992,
      "Ġpowers": 5993,
      "yrinth": 5994,
      "Ġterror": 5995,
      "Ġterrier": 5996,
      "Ġsnakeroot": 5997,
      "Ġavens": 5998,
      "Ġtopographical": 5999
    },
    "merges": [
      [
        "o",
        "f"
      ],
      [
        "t",
        "e"
      ],
      [
        "e",
        "n"
      ],
      [
        "i",
        "n"
      ],
      [
        "en",
        "d"
      ],
      [
        "x",
        "t"
      ],
      [
        "of",
        "te"
      ],
      [
        "<",
        "|"
      ],
      [
        "|",
        ">"
      ],
      [
        "end",
        "ofte"
      ],
      [
        "endofte",
        "xt"
      ],
      [
        "Ġ",
        "s"
      ],
      [
        "i",
        "s"
      ],
      [
        "Ġ",
        "a"
      ],
      [
        "o",
        "n"
      ],
      [
        "o",
        "r"
      ],
      [
        "Ġ",
        "is"
      ],
      [
        "a",
        "r"
      ],
      [
        "Ġ",
        "p"
      ],
      [
        "a",
        "t"
      ],
      [
        "e",
        "r"
      ],
      [
        "Ġ",
        "of"
      ],
      [
        "Ġ",
        "t"
      ],
      [
        "e",
        "c"
      ],
      [
        "Ġ",
        "f"
      ],
      [
        "Ġ",
        "\""
      ],
      [
        "h",
        "e"
      ],
      [
        "o",
        "u"
      ],
      [
        "in",
        "e"
      ],
      [
        "p",
        "e"
      ],
      [
        "h",
        "at"
      ],
      [
        "e",
        "f"
      ],
      [
        "ar",
        "t"
      ],
      [
        "a",
        "l"
      ],
      [
        "Ġp",
        "art"
      ],
      [
        "ec",
        "h"
      ],
      [
        "Ġs",
        "pe"
      ],
      [
        "Ġ",
        "c"
      ],
      [
        "Ġspe",
        "ech"
      ],
      [
        "ef",
        "ine"
      ],
      [
        "\"",
        "?"
      ],
      [
        "D",
        "efine"
      ],
      [
        "W",
        "hat"
      ],
      [
        "a",
        "n"
      ],
      [
        "Ġ",
        "n"
      ],
      [
        "l",
        "e"
      ],
      [
        "Ġ",
        "in"
      ],
      [
        "Ġf",
        "or"
      ],
      [
        "Ġt",
        "he"
      ],
      [
        "r",
        "e"
      ],
      [
        "_",
        "_"
      ],
      [
        "ou",
        "n"
      ],
      [
        "o",
        "m"
      ],
      [
        "i",
        "c"
      ],
      [
        "in",
        "g"
      ],
      [
        "Ġ",
        "b"
      ],
      [
        "y",
        "m"
      ],
      [
        "s",
        "e"
      ],
      [
        "Ġs",
        "y"
      ],
      [
        "n",
        "on"
      ],
      [
        "non",
        "ym"
      ],
      [
        "Ġsy",
        "nonym"
      ],
      [
        "Ġn",
        "oun"
      ],
      [
        "i",
        "t"
      ],
      [
        "c",
        "e"
      ],
      [
        "Ġ",
        "w"
      ],
      [
        "Ġ",
        "m"
      ],
      [
        "Ġa",
        "n"
      ],
      [
        "e",
        "s"
      ],
      [
        "Ġ",
        "d"
      ],
      [
        "i",
        "on"
      ],
      [
        "e",
        "d"
      ],
      [
        "te",
        "n"
      ],
      [
        "Ġ",
        "h"
      ],
      [
        "r",
        "o"
      ],
      [
        "a",
        "s"
      ],
      [
        "Ġ",
        "or"
      ],
      [
        "i",
        "v"
      ],
      [
        "l",
        "y"
      ],
      [
        "u",
        "s"
      ],
      [
        "Ġ",
        "g"
      ],
      [
        "Ġs",
        "en"
      ],
      [
        "te",
        "r"
      ],
      [
        "ten",
        "ce"
      ],
      [
        "Ġsen",
        "tence"
      ],
      [
        "U",
        "se"
      ],
      [
        "Ġ",
        "l"
      ],
      [
        "p",
        "le"
      ],
      [
        "w",
        "er"
      ],
      [
        "Ġt",
        "o"
      ],
      [
        "i",
        "l"
      ],
      [
        "a",
        "c"
      ],
      [
        "en",
        "t"
      ],
      [
        "o",
        "l"
      ],
      [
        "u",
        "n"
      ],
      [
        "v",
        "er"
      ],
      [
        "i",
        "d"
      ],
      [
        "n",
        "s"
      ],
      [
        "t",
        "h"
      ],
      [
        "om",
        "ple"
      ],
      [
        "omple",
        "te"
      ],
      [
        "A",
        "ns"
      ],
      [
        "C",
        "omplete"
      ],
      [
        "__",
        "__"
      ],
      [
        "Ans",
        "wer"
      ],
      [
        "Ġan",
        "d"
      ],
      [
        "Ġ",
        "e"
      ],
      [
        "r",
        "a"
      ],
      [
        "Ġ",
        "____"
      ],
      [
        "iv",
        "e"
      ],
      [
        "ec",
        "t"
      ],
      [
        "a",
        "te"
      ],
      [
        "Ġ",
        "re"
      ],
      [
        "e",
        "l"
      ],
      [
        "u",
        "r"
      ],
      [
        "o",
        "s"
      ],
      [
        "Ġ",
        "o"
      ],
      [
        "i",
        "m"
      ],
      [
        "at",
        "ion"
      ],
      [
        "a",
        "m"
      ],
      [
        "u",
        "l"
      ],
      [
        "i",
        "g"
      ],
      [
        "Ġa",
        "d"
      ],
      [
        "e",
        "t"
      ],
      [
        "u",
        "m"
      ],
      [
        "a",
        "d"
      ],
      [
        "i",
        "r"
      ],
      [
        "Ġs",
        "t"
      ],
      [
        "o",
        "t"
      ],
      [
        "c",
        "h"
      ],
      [
        "a",
        "b"
      ],
      [
        "Ġ",
        "r"
      ],
      [
        "o",
        "d"
      ],
      [
        "s",
        "t"
      ],
      [
        "it",
        "h"
      ],
      [
        "s",
        "s"
      ],
      [
        "g",
        "e"
      ],
      [
        "i",
        "te"
      ],
      [
        "l",
        "o"
      ],
      [
        "Ġc",
        "on"
      ],
      [
        "ver",
        "b"
      ],
      [
        "j",
        "ect"
      ],
      [
        "Ġ",
        "("
      ],
      [
        "Ġw",
        "h"
      ],
      [
        "Ġw",
        "ith"
      ],
      [
        "Ġ",
        "un"
      ],
      [
        "is",
        "t"
      ],
      [
        "Ġ",
        "S"
      ],
      [
        "Ġ",
        "v"
      ],
      [
        "Ġad",
        "ject"
      ],
      [
        "Ġadject",
        "ive"
      ],
      [
        "u",
        "t"
      ],
      [
        "a",
        "v"
      ],
      [
        "Ġ",
        "A"
      ],
      [
        "an",
        "d"
      ],
      [
        "an",
        "t"
      ],
      [
        "i",
        "f"
      ],
      [
        "Ġ",
        "on"
      ],
      [
        "c",
        "t"
      ],
      [
        "p",
        "p"
      ],
      [
        "ou",
        "s"
      ],
      [
        "q",
        "u"
      ],
      [
        "Ġ",
        "he"
      ],
      [
        "Ġt",
        "hat"
      ],
      [
        "Ġt",
        "h"
      ],
      [
        "Ġ",
        "verb"
      ],
      [
        "p",
        "h"
      ],
      [
        "al",
        "ly"
      ],
      [
        "Ġ",
        "C"
      ],
      [
        "Ġb",
        "e"
      ],
      [
        "i",
        "a"
      ],
      [
        "Ġb",
        "y"
      ],
      [
        "Ġp",
        "ro"
      ],
      [
        "it",
        "y"
      ],
      [
        "T",
        "he"
      ],
      [
        "o",
        "g"
      ],
      [
        "i",
        "z"
      ],
      [
        "es",
        "s"
      ],
      [
        "a",
        "p"
      ],
      [
        "Ġc",
        "h"
      ],
      [
        "Ġs",
        "h"
      ],
      [
        "ar",
        "d"
      ],
      [
        "Ġ",
        "P"
      ],
      [
        "u",
        "re"
      ],
      [
        "r",
        "i"
      ],
      [
        "ab",
        "le"
      ],
      [
        "o",
        "c"
      ],
      [
        "ig",
        "h"
      ],
      [
        "Ġp",
        "l"
      ],
      [
        "a",
        "in"
      ],
      [
        "k",
        "e"
      ],
      [
        "Ġ",
        "M"
      ],
      [
        "o",
        "w"
      ],
      [
        "te",
        "d"
      ],
      [
        "Ġc",
        "om"
      ],
      [
        "Ġ",
        "u"
      ],
      [
        "u",
        "b"
      ],
      [
        "e",
        "m"
      ],
      [
        "es",
        "t"
      ],
      [
        "Ġs",
        "p"
      ],
      [
        "r",
        "om"
      ],
      [
        "a",
        "y"
      ],
      [
        "er",
        "s"
      ],
      [
        "al",
        "l"
      ],
      [
        "ic",
        "al"
      ],
      [
        "se",
        "d"
      ],
      [
        "Ġa",
        "s"
      ],
      [
        "Ġg",
        "en"
      ],
      [
        "o",
        "p"
      ],
      [
        "Ġd",
        "e"
      ],
      [
        "om",
        "e"
      ],
      [
        "il",
        "l"
      ],
      [
        "i",
        "an"
      ],
      [
        "i",
        "b"
      ],
      [
        "Ġe",
        "x"
      ],
      [
        "Ġs",
        "e"
      ],
      [
        "a",
        "e"
      ],
      [
        "d",
        "er"
      ],
      [
        "Ġ",
        "I"
      ],
      [
        "Ġa",
        "t"
      ],
      [
        "m",
        "ent"
      ],
      [
        "Ġ",
        "le"
      ],
      [
        "u",
        "d"
      ],
      [
        "oun",
        "d"
      ],
      [
        "r",
        "y"
      ],
      [
        "is",
        "h"
      ],
      [
        "a",
        "g"
      ],
      [
        "p",
        "er"
      ],
      [
        "ac",
        "k"
      ],
      [
        "ou",
        "t"
      ],
      [
        "r",
        "u"
      ],
      [
        "th",
        "er"
      ],
      [
        "pp",
        "os"
      ],
      [
        "as",
        "t"
      ],
      [
        "i",
        "al"
      ],
      [
        "or",
        "t"
      ],
      [
        "Ġp",
        "r"
      ],
      [
        "ac",
        "t"
      ],
      [
        "Ġa",
        "l"
      ],
      [
        "ar",
        "y"
      ],
      [
        "Ġo",
        "ppos"
      ],
      [
        "Ġgen",
        "us"
      ],
      [
        "Ġa",
        "r"
      ],
      [
        "Ġw",
        "as"
      ],
      [
        "Ġwh",
        "o"
      ],
      [
        "r",
        "an"
      ],
      [
        "Ġoppos",
        "ite"
      ],
      [
        "igh",
        "t"
      ],
      [
        "a",
        "ce"
      ],
      [
        "p",
        "t"
      ],
      [
        "Ġ",
        "y"
      ],
      [
        "Ġa",
        "c"
      ],
      [
        "or",
        "m"
      ],
      [
        "Ġf",
        "rom"
      ],
      [
        "as",
        "s"
      ],
      [
        "Ġ",
        "H"
      ],
      [
        "on",
        "e"
      ],
      [
        "Ġ",
        "ro"
      ],
      [
        "Ġh",
        "av"
      ],
      [
        "i",
        "p"
      ],
      [
        "ate",
        "d"
      ],
      [
        "Ġ",
        "L"
      ],
      [
        "Ġd",
        "is"
      ],
      [
        "n",
        "ess"
      ],
      [
        "Ġ",
        "B"
      ],
      [
        "a",
        "ge"
      ],
      [
        "Ġ",
        "E"
      ],
      [
        "ou",
        "r"
      ],
      [
        "b",
        "er"
      ],
      [
        "Ġm",
        "an"
      ],
      [
        "o",
        "od"
      ],
      [
        "u",
        "c"
      ],
      [
        "m",
        "er"
      ],
      [
        "el",
        "l"
      ],
      [
        "a",
        "k"
      ],
      [
        "er",
        "e"
      ],
      [
        "Ġh",
        "is"
      ],
      [
        "at",
        "h"
      ],
      [
        "o",
        "o"
      ],
      [
        "v",
        "e"
      ],
      [
        "Ġs",
        "ome"
      ],
      [
        "Ġ",
        "k"
      ],
      [
        "en",
        "ce"
      ],
      [
        "on",
        "g"
      ],
      [
        "ul",
        "t"
      ],
      [
        "Ġ",
        "R"
      ],
      [
        "re",
        "e"
      ],
      [
        "i",
        "es"
      ],
      [
        "Ġ",
        "N"
      ],
      [
        "us",
        "t"
      ],
      [
        "ter",
        "n"
      ],
      [
        "Ġ",
        "G"
      ],
      [
        "an",
        "ce"
      ],
      [
        "Ġ",
        "ra"
      ],
      [
        "at",
        "ing"
      ],
      [
        "Ġ",
        "te"
      ],
      [
        "Ġhav",
        "ing"
      ],
      [
        "r",
        "ic"
      ],
      [
        "Ġn",
        "e"
      ],
      [
        "re",
        "ss"
      ],
      [
        "id",
        "e"
      ],
      [
        "t",
        "o"
      ],
      [
        "it",
        "ion"
      ],
      [
        "Ġs",
        "m"
      ],
      [
        "s",
        "p"
      ],
      [
        "Ġ",
        "T"
      ],
      [
        "Ġu",
        "sed"
      ],
      [
        "Ġ",
        "im"
      ],
      [
        "ic",
        "e"
      ],
      [
        "d",
        "u"
      ],
      [
        "id",
        "ae"
      ],
      [
        "Ġs",
        "c"
      ],
      [
        "Ġc",
        "l"
      ],
      [
        "Ġre",
        "l"
      ],
      [
        "g",
        "h"
      ],
      [
        "i",
        "le"
      ],
      [
        "ac",
        "h"
      ],
      [
        "a",
        "u"
      ],
      [
        "Ġa",
        "re"
      ],
      [
        "ar",
        "k"
      ],
      [
        "ro",
        "w"
      ],
      [
        "a",
        "ter"
      ],
      [
        "Ġ",
        "j"
      ],
      [
        "i",
        "ly"
      ],
      [
        "p",
        "l"
      ],
      [
        "Ġ",
        "it"
      ],
      [
        "lo",
        "w"
      ],
      [
        "o",
        "b"
      ],
      [
        "Ġ",
        "W"
      ],
      [
        "Ġ",
        "The"
      ],
      [
        "Ġp",
        "o"
      ],
      [
        "s",
        "h"
      ],
      [
        "Ġs",
        "u"
      ],
      [
        "Ġh",
        "er"
      ],
      [
        "l",
        "l"
      ],
      [
        "l",
        "d"
      ],
      [
        "Ġc",
        "ol"
      ],
      [
        "Ġf",
        "l"
      ],
      [
        "a",
        "se"
      ],
      [
        "Ġ",
        "U"
      ],
      [
        "Ġp",
        "er"
      ],
      [
        "or",
        "y"
      ],
      [
        "Ġb",
        "l"
      ],
      [
        "w",
        "e"
      ],
      [
        "Ġ",
        "en"
      ],
      [
        "Ġa",
        "b"
      ],
      [
        "or",
        "d"
      ],
      [
        "or",
        "e"
      ],
      [
        "ate",
        "s"
      ],
      [
        "i",
        "ous"
      ],
      [
        "Ġ",
        "D"
      ],
      [
        "ite",
        "d"
      ],
      [
        "f",
        "f"
      ],
      [
        "os",
        "t"
      ],
      [
        "c",
        "on"
      ],
      [
        "Ġa",
        "ct"
      ],
      [
        "u",
        "e"
      ],
      [
        "Ġn",
        "ot"
      ],
      [
        "i",
        "e"
      ],
      [
        "i",
        "re"
      ],
      [
        "Ġ",
        "out"
      ],
      [
        "u",
        "al"
      ],
      [
        "Ġ",
        "F"
      ],
      [
        "is",
        "m"
      ],
      [
        "iz",
        "e"
      ],
      [
        "il",
        "d"
      ],
      [
        "am",
        "e"
      ],
      [
        "i",
        "ally"
      ],
      [
        "ic",
        "k"
      ],
      [
        "Ġan",
        "y"
      ],
      [
        "ou",
        "gh"
      ],
      [
        "ĠS",
        "t"
      ],
      [
        "Ġm",
        "e"
      ],
      [
        "Ġg",
        "r"
      ],
      [
        "ol",
        "d"
      ],
      [
        "at",
        "ive"
      ],
      [
        "Ġcom",
        "p"
      ],
      [
        "mer",
        "ic"
      ],
      [
        "'",
        "s"
      ],
      [
        "Ġ",
        "J"
      ],
      [
        "ol",
        "og"
      ],
      [
        "en",
        "s"
      ],
      [
        "Ġc",
        "o"
      ],
      [
        "an",
        "g"
      ],
      [
        "Ġc",
        "ar"
      ],
      [
        "Ġad",
        "verb"
      ],
      [
        "te",
        "m"
      ],
      [
        "re",
        "s"
      ],
      [
        "Ġcon",
        "s"
      ],
      [
        "1",
        "9"
      ],
      [
        "t",
        "ain"
      ],
      [
        "a",
        "ke"
      ],
      [
        "n",
        "er"
      ],
      [
        "in",
        "d"
      ],
      [
        "Ġf",
        "lo"
      ],
      [
        "le",
        "d"
      ],
      [
        "a",
        "w"
      ],
      [
        "in",
        "t"
      ],
      [
        "Ġin",
        "f"
      ],
      [
        "Ġin",
        "to"
      ],
      [
        "ic",
        "h"
      ],
      [
        "Ġon",
        "e"
      ],
      [
        "m",
        "on"
      ],
      [
        "r",
        "al"
      ],
      [
        "ig",
        "n"
      ],
      [
        "Ġ",
        "O"
      ],
      [
        "Ġof",
        "f"
      ],
      [
        "a",
        "il"
      ],
      [
        "u",
        "ally"
      ],
      [
        "Ġl",
        "ar"
      ],
      [
        "ĠA",
        "meric"
      ],
      [
        "or",
        "n"
      ],
      [
        "he",
        "d"
      ],
      [
        "Ġsm",
        "all"
      ],
      [
        "y",
        "s"
      ],
      [
        "i",
        "ed"
      ],
      [
        "is",
        "e"
      ],
      [
        "or",
        "k"
      ],
      [
        "Ġw",
        "e"
      ],
      [
        "ist",
        "ic"
      ],
      [
        "or",
        "th"
      ],
      [
        "a",
        "ir"
      ],
      [
        "d",
        "e"
      ],
      [
        "i",
        "um"
      ],
      [
        "l",
        "and"
      ],
      [
        "Ġf",
        "am"
      ],
      [
        "al",
        "e"
      ],
      [
        "Ġa",
        "g"
      ],
      [
        "ers",
        "on"
      ],
      [
        "r",
        "it"
      ],
      [
        "le",
        "ss"
      ],
      [
        "ĠU",
        "n"
      ],
      [
        "is",
        "s"
      ],
      [
        "ro",
        "p"
      ],
      [
        "im",
        "e"
      ],
      [
        "ct",
        "ion"
      ],
      [
        "b",
        "l"
      ],
      [
        "Ġfor",
        "m"
      ],
      [
        "Ġ",
        "qu"
      ],
      [
        "Ġs",
        "ub"
      ],
      [
        "c",
        "l"
      ],
      [
        "Ġp",
        "e"
      ],
      [
        "Ġp",
        "erson"
      ],
      [
        "Ġc",
        "ap"
      ],
      [
        "Ġm",
        "o"
      ],
      [
        "es",
        "p"
      ],
      [
        "Ġo",
        "ver"
      ],
      [
        "Ġr",
        "ec"
      ],
      [
        "iz",
        "ed"
      ],
      [
        "f",
        "ul"
      ],
      [
        "p",
        "r"
      ],
      [
        "r",
        "en"
      ],
      [
        "p",
        "o"
      ],
      [
        "le",
        "s"
      ],
      [
        "ce",
        "ss"
      ],
      [
        "th",
        "ing"
      ],
      [
        "Ġu",
        "p"
      ],
      [
        "c",
        "y"
      ],
      [
        "in",
        "k"
      ],
      [
        "er",
        "m"
      ],
      [
        "iv",
        "er"
      ],
      [
        "ad",
        "e"
      ],
      [
        "t",
        "ing"
      ],
      [
        "Ġflo",
        "wer"
      ],
      [
        "Ġ",
        "us"
      ],
      [
        "se",
        "s"
      ],
      [
        "Ġs",
        "he"
      ],
      [
        "er",
        "v"
      ],
      [
        "Ġc",
        "an"
      ],
      [
        "oc",
        "k"
      ],
      [
        "i",
        "ke"
      ],
      [
        "ĠUn",
        "ited"
      ],
      [
        "an",
        "e"
      ],
      [
        "e",
        "p"
      ],
      [
        "t",
        "y"
      ],
      [
        "Ġt",
        "re"
      ],
      [
        "ul",
        "ar"
      ],
      [
        "if",
        "ic"
      ],
      [
        "at",
        "ic"
      ],
      [
        "pe",
        "d"
      ],
      [
        "ion",
        "s"
      ],
      [
        "ver",
        "y"
      ],
      [
        "l",
        "ect"
      ],
      [
        "Ġch",
        "ar"
      ],
      [
        "ĠSt",
        "ates"
      ],
      [
        "Ġfam",
        "ily"
      ],
      [
        "l",
        "ic"
      ],
      [
        "Ġt",
        "ra"
      ],
      [
        "he",
        "m"
      ],
      [
        "Ġre",
        "s"
      ],
      [
        "oo",
        "k"
      ],
      [
        "r",
        "on"
      ],
      [
        "ec",
        "ially"
      ],
      [
        "ing",
        "s"
      ],
      [
        "Ġb",
        "o"
      ],
      [
        "ĠC",
        "h"
      ],
      [
        "Ġ",
        "K"
      ],
      [
        "Ġa",
        "m"
      ],
      [
        "Ġf",
        "e"
      ],
      [
        "Ġb",
        "r"
      ],
      [
        "esp",
        "ecially"
      ],
      [
        "Ġn",
        "o"
      ],
      [
        "ac",
        "ter"
      ],
      [
        "Ġcon",
        "t"
      ],
      [
        "Ġv",
        "ar"
      ],
      [
        "ine",
        "d"
      ],
      [
        "ten",
        "t"
      ],
      [
        "ib",
        "le"
      ],
      [
        "p",
        "ro"
      ],
      [
        "Ġd",
        "ec"
      ],
      [
        "Ġpl",
        "ant"
      ],
      [
        "v",
        "el"
      ],
      [
        "ar",
        "s"
      ],
      [
        "Ġp",
        "h"
      ],
      [
        "he",
        "s"
      ],
      [
        "ent",
        "s"
      ],
      [
        "c",
        "o"
      ],
      [
        "in",
        "al"
      ],
      [
        "Ġs",
        "ur"
      ],
      [
        "Ġt",
        "w"
      ],
      [
        "Ġn",
        "um"
      ],
      [
        "Ġwh",
        "ite"
      ],
      [
        "ath",
        "er"
      ],
      [
        "a",
        "x"
      ],
      [
        "g",
        "en"
      ],
      [
        "le",
        "t"
      ],
      [
        "ĠAmeric",
        "an"
      ],
      [
        "re",
        "d"
      ],
      [
        "Ġm",
        "on"
      ],
      [
        "od",
        "y"
      ],
      [
        "c",
        "k"
      ],
      [
        "g",
        "l"
      ],
      [
        "t",
        "le"
      ],
      [
        "Ġm",
        "us"
      ],
      [
        "os",
        "s"
      ],
      [
        "Ġwh",
        "ich"
      ],
      [
        "a",
        "f"
      ],
      [
        "e",
        "w"
      ],
      [
        "ar",
        "e"
      ],
      [
        "i",
        "o"
      ],
      [
        "u",
        "g"
      ],
      [
        "u",
        "te"
      ],
      [
        "on",
        "d"
      ],
      [
        "Ġac",
        "c"
      ],
      [
        "Ġp",
        "ol"
      ],
      [
        "ion",
        "al"
      ],
      [
        "Ġre",
        "g"
      ],
      [
        "Ġ",
        "1"
      ],
      [
        "Ġt",
        "ree"
      ],
      [
        "oun",
        "t"
      ],
      [
        "as",
        "h"
      ],
      [
        "Ġor",
        "der"
      ],
      [
        "Ġg",
        "re"
      ],
      [
        "id",
        "ent"
      ],
      [
        "Ġex",
        "p"
      ],
      [
        "Ġe",
        "m"
      ],
      [
        "Ġbe",
        "ing"
      ],
      [
        "ow",
        "n"
      ],
      [
        "Ġp",
        "ar"
      ],
      [
        "an",
        "s"
      ],
      [
        "Ġin",
        "d"
      ],
      [
        "Ġin",
        "s"
      ],
      [
        "Ġb",
        "re"
      ],
      [
        "ter",
        "m"
      ],
      [
        "un",
        "d"
      ],
      [
        "n",
        "e"
      ],
      [
        "r",
        "um"
      ],
      [
        "Ġs",
        "ou"
      ],
      [
        "Ġin",
        "c"
      ],
      [
        "en",
        "ess"
      ],
      [
        "Ġthe",
        "y"
      ],
      [
        "Ġw",
        "ater"
      ],
      [
        "Ġh",
        "as"
      ],
      [
        "il",
        "ity"
      ],
      [
        "ra",
        "m"
      ],
      [
        "Ġrel",
        "ating"
      ],
      [
        "Ġlar",
        "ge"
      ],
      [
        "s",
        "c"
      ],
      [
        "s",
        "tem"
      ],
      [
        "in",
        "c"
      ],
      [
        "Ġa",
        "ss"
      ],
      [
        "Ġc",
        "ur"
      ],
      [
        "Ġd",
        "ist"
      ],
      [
        "Ġh",
        "y"
      ],
      [
        "el",
        "d"
      ],
      [
        "Ġo",
        "b"
      ],
      [
        "Ġsome",
        "thing"
      ],
      [
        "Ġim",
        "p"
      ],
      [
        "b",
        "le"
      ],
      [
        "o",
        "ph"
      ],
      [
        "p",
        "ar"
      ],
      [
        "Ġa",
        "f"
      ],
      [
        "at",
        "or"
      ],
      [
        "Ġan",
        "t"
      ],
      [
        "ter",
        "s"
      ],
      [
        "Ġal",
        "l"
      ],
      [
        "i",
        "ent"
      ],
      [
        "o",
        "ver"
      ],
      [
        "Ġsy",
        "stem"
      ],
      [
        "d",
        "ition"
      ],
      [
        "n",
        "d"
      ],
      [
        "v",
        "en"
      ],
      [
        "Ġa",
        "pp"
      ],
      [
        "ine",
        "ss"
      ],
      [
        "om",
        "an"
      ],
      [
        "Ġ",
        "V"
      ],
      [
        "in",
        "s"
      ],
      [
        "ul",
        "l"
      ],
      [
        "Ġpro",
        "du"
      ],
      [
        "Ġflower",
        "s"
      ],
      [
        "Ġtw",
        "o"
      ],
      [
        "e",
        "x"
      ],
      [
        "o",
        "ple"
      ],
      [
        "Ġt",
        "r"
      ],
      [
        "Ġg",
        "u"
      ],
      [
        "ur",
        "n"
      ],
      [
        "av",
        "es"
      ],
      [
        "Ġchar",
        "acter"
      ],
      [
        "Ġs",
        "l"
      ],
      [
        "Ġf",
        "ir"
      ],
      [
        "al",
        "s"
      ],
      [
        "ther",
        "n"
      ],
      [
        "i",
        "ter"
      ],
      [
        "r",
        "ing"
      ],
      [
        "Ġt",
        "ran"
      ],
      [
        "Ġb",
        "ut"
      ],
      [
        "it",
        "al"
      ],
      [
        "am",
        "p"
      ],
      [
        "Ġun",
        "der"
      ],
      [
        "Ġth",
        "r"
      ],
      [
        "row",
        "n"
      ],
      [
        "g",
        "g"
      ],
      [
        "v",
        "ol"
      ],
      [
        "b",
        "o"
      ],
      [
        "g",
        "re"
      ],
      [
        "Ġ",
        "ed"
      ],
      [
        "ar",
        "m"
      ],
      [
        "an",
        "k"
      ],
      [
        "Ġthe",
        "ir"
      ],
      [
        "Ġb",
        "et"
      ],
      [
        "Ġw",
        "ork"
      ],
      [
        "Ġm",
        "ar"
      ],
      [
        "ation",
        "s"
      ],
      [
        "if",
        "e"
      ],
      [
        "f",
        "orm"
      ],
      [
        "Ġin",
        "st"
      ],
      [
        "iz",
        "ation"
      ],
      [
        "Ġd",
        "o"
      ],
      [
        "1",
        "8"
      ],
      [
        "o",
        "id"
      ],
      [
        "w",
        "ard"
      ],
      [
        "Ġp",
        "re"
      ],
      [
        "al",
        "k"
      ],
      [
        "Ġb",
        "el"
      ],
      [
        "se",
        "m"
      ],
      [
        "Ġm",
        "em"
      ],
      [
        "es",
        "tern"
      ],
      [
        "Ġl",
        "o"
      ],
      [
        "uc",
        "k"
      ],
      [
        "g",
        "an"
      ],
      [
        "i",
        "eld"
      ],
      [
        "u",
        "p"
      ],
      [
        "Ġt",
        "ime"
      ],
      [
        "ef",
        "f"
      ],
      [
        "Ġe",
        "qu"
      ],
      [
        "Ġun",
        "it"
      ],
      [
        "Ġhe",
        "ad"
      ],
      [
        "Ġcom",
        "m"
      ],
      [
        "Ġbl",
        "ack"
      ],
      [
        "Ġgr",
        "ou"
      ],
      [
        "olog",
        "y"
      ],
      [
        "Ġpe",
        "ople"
      ],
      [
        "p",
        "en"
      ],
      [
        "t",
        "s"
      ],
      [
        "at",
        "ure"
      ],
      [
        "ce",
        "pt"
      ],
      [
        "us",
        "h"
      ],
      [
        "Ġg",
        "ra"
      ],
      [
        "ir",
        "c"
      ],
      [
        "Ġst",
        "ate"
      ],
      [
        "ut",
        "ion"
      ],
      [
        "if",
        "f"
      ],
      [
        "Ġ",
        "`"
      ],
      [
        "Ġs",
        "et"
      ],
      [
        "ing",
        "ly"
      ],
      [
        "Ġb",
        "ody"
      ],
      [
        "Ġw",
        "ere"
      ],
      [
        "Ġd",
        "ra"
      ],
      [
        "Ġpl",
        "ace"
      ],
      [
        "Ġcom",
        "mon"
      ],
      [
        "Ġgen",
        "er"
      ],
      [
        "b",
        "e"
      ],
      [
        "i",
        "er"
      ],
      [
        "v",
        "ent"
      ],
      [
        "Ġs",
        "ol"
      ],
      [
        "al",
        "ity"
      ],
      [
        "re",
        "t"
      ],
      [
        "re",
        "am"
      ],
      [
        "ce",
        "d"
      ],
      [
        "Ġd",
        "ef"
      ],
      [
        "Ġh",
        "igh"
      ],
      [
        "Ġman",
        "ner"
      ],
      [
        "c",
        "er"
      ],
      [
        "i",
        "or"
      ],
      [
        "y",
        "l"
      ],
      [
        "Ġs",
        "k"
      ],
      [
        "ic",
        "ally"
      ],
      [
        "Ġm",
        "at"
      ],
      [
        "Ġd",
        "es"
      ],
      [
        "Ġpl",
        "ay"
      ],
      [
        "Ġus",
        "ually"
      ],
      [
        "u",
        "ro"
      ],
      [
        "Ġc",
        "ent"
      ],
      [
        "Ġm",
        "ade"
      ],
      [
        "el",
        "low"
      ],
      [
        "ir",
        "d"
      ],
      [
        "Ġse",
        "ver"
      ],
      [
        "Ġsome",
        "one"
      ],
      [
        "c",
        "om"
      ],
      [
        "o",
        "k"
      ],
      [
        "Ġ",
        "ten"
      ],
      [
        "Ġs",
        "te"
      ],
      [
        "on",
        "t"
      ],
      [
        "se",
        "l"
      ],
      [
        "Ġl",
        "ong"
      ],
      [
        "Ġth",
        "an"
      ],
      [
        "Ġpr",
        "of"
      ],
      [
        "f",
        "l"
      ],
      [
        "y",
        "e"
      ],
      [
        "or",
        "ed"
      ],
      [
        "Ġp",
        "ain"
      ],
      [
        "he",
        "ad"
      ],
      [
        "Ġe",
        "xt"
      ],
      [
        "Ġst",
        "ud"
      ],
      [
        "Ġwh",
        "en"
      ],
      [
        "Ġv",
        "e"
      ],
      [
        "Ġsh",
        "r"
      ],
      [
        "Ġat",
        "t"
      ],
      [
        "ĠE",
        "n"
      ],
      [
        "s",
        "y"
      ],
      [
        "Ġ",
        "ent"
      ],
      [
        "Ġn",
        "on"
      ],
      [
        "Ġb",
        "ec"
      ],
      [
        "Ġb",
        "lo"
      ],
      [
        "Ġm",
        "in"
      ],
      [
        "ra",
        "te"
      ],
      [
        "ive",
        "ly"
      ],
      [
        "ĠT",
        "h"
      ],
      [
        "Ġpo",
        "int"
      ],
      [
        "we",
        "en"
      ],
      [
        "Ġgrou",
        "p"
      ],
      [
        "g",
        "er"
      ],
      [
        "r",
        "act"
      ],
      [
        "w",
        "ay"
      ],
      [
        "Ġs",
        "ec"
      ],
      [
        "ou",
        "se"
      ],
      [
        "Ġb",
        "u"
      ],
      [
        "Ġb",
        "ack"
      ],
      [
        "ver",
        "s"
      ],
      [
        "Ġaf",
        "ter"
      ],
      [
        "Ġthr",
        "ough"
      ],
      [
        "o",
        "ther"
      ],
      [
        "v",
        "ed"
      ],
      [
        "in",
        "ation"
      ],
      [
        "Ġs",
        "o"
      ],
      [
        "Ġp",
        "res"
      ],
      [
        "Ġm",
        "il"
      ],
      [
        "Ġl",
        "ine"
      ],
      [
        "Ġit",
        "s"
      ],
      [
        "i",
        "x"
      ],
      [
        "Ġ",
        "end"
      ],
      [
        "Ġ",
        "19"
      ],
      [
        "Ġ",
        "eff"
      ],
      [
        "in",
        "a"
      ],
      [
        "or",
        "ld"
      ],
      [
        "he",
        "t"
      ],
      [
        "ur",
        "al"
      ],
      [
        "Ġwith",
        "out"
      ],
      [
        "ub",
        "lic"
      ],
      [
        "Ġle",
        "aves"
      ],
      [
        "ĠH",
        "e"
      ],
      [
        "r",
        "is"
      ],
      [
        "Ġs",
        "qu"
      ],
      [
        "Ġh",
        "and"
      ],
      [
        "ra",
        "ph"
      ],
      [
        "ur",
        "ing"
      ],
      [
        "os",
        "ition"
      ],
      [
        "Ġo",
        "ther"
      ],
      [
        "ist",
        "ing"
      ],
      [
        "ĠA",
        "f"
      ],
      [
        "ĠA",
        "r"
      ],
      [
        "Ġth",
        "is"
      ],
      [
        "Ġch",
        "ild"
      ],
      [
        "a",
        "pe"
      ],
      [
        "g",
        "r"
      ],
      [
        "o",
        "se"
      ],
      [
        "Ġs",
        "al"
      ],
      [
        "Ġs",
        "oc"
      ],
      [
        "Ġf",
        "un"
      ],
      [
        "Ġc",
        "al"
      ],
      [
        "Ġc",
        "lo"
      ],
      [
        "an",
        "ge"
      ],
      [
        "om",
        "y"
      ],
      [
        "it",
        "s"
      ],
      [
        "Ġm",
        "ake"
      ],
      [
        "um",
        "b"
      ],
      [
        "Ġv",
        "al"
      ],
      [
        "ri",
        "ed"
      ],
      [
        "Ġk",
        "n"
      ],
      [
        "ĠN",
        "orth"
      ],
      [
        "rop",
        "ical"
      ],
      [
        "Ġnum",
        "ber"
      ],
      [
        "Ġtran",
        "s"
      ],
      [
        "Ġbet",
        "ween"
      ],
      [
        "a",
        "h"
      ],
      [
        "c",
        "ur"
      ],
      [
        "v",
        "al"
      ],
      [
        "w",
        "n"
      ],
      [
        "en",
        "n"
      ],
      [
        "in",
        "n"
      ],
      [
        "Ġp",
        "ur"
      ],
      [
        "ec",
        "ted"
      ],
      [
        "Ġpart",
        "ic"
      ],
      [
        "Ġw",
        "ood"
      ],
      [
        "Ġd",
        "r"
      ],
      [
        "Ġg",
        "l"
      ],
      [
        "Ġre",
        "t"
      ],
      [
        "av",
        "e"
      ],
      [
        "ace",
        "ae"
      ],
      [
        "m",
        "e"
      ],
      [
        "Ġ",
        "er"
      ],
      [
        "Ġa",
        "ir"
      ],
      [
        "Ġf",
        "ol"
      ],
      [
        "ou",
        "ld"
      ],
      [
        "Ġc",
        "or"
      ],
      [
        "Ġc",
        "au"
      ],
      [
        "Ġd",
        "og"
      ],
      [
        "Ġh",
        "ad"
      ],
      [
        "Ġre",
        "d"
      ],
      [
        "Ġre",
        "m"
      ],
      [
        "Ġcon",
        "dition"
      ],
      [
        "ĠP",
        "h"
      ],
      [
        "ri",
        "b"
      ],
      [
        "Ġy",
        "ellow"
      ],
      [
        "Ġshr",
        "ub"
      ],
      [
        "d",
        "en"
      ],
      [
        "i",
        "et"
      ],
      [
        "t",
        "ra"
      ],
      [
        "Ġ",
        "very"
      ],
      [
        "Ġf",
        "re"
      ],
      [
        "Ġc",
        "ut"
      ],
      [
        "le",
        "g"
      ],
      [
        "re",
        "l"
      ],
      [
        "ic",
        "t"
      ],
      [
        "it",
        "ary"
      ],
      [
        "as",
        "on"
      ],
      [
        "Ġg",
        "ood"
      ],
      [
        "Ġe",
        "lect"
      ],
      [
        "ĠI",
        "nd"
      ],
      [
        "Ġar",
        "t"
      ],
      [
        "Ġac",
        "id"
      ],
      [
        "Ġne",
        "w"
      ],
      [
        "Ġvar",
        "ious"
      ],
      [
        "r",
        "im"
      ],
      [
        "er",
        "t"
      ],
      [
        "Ġc",
        "y"
      ],
      [
        "Ġc",
        "at"
      ],
      [
        "Ġm",
        "ore"
      ],
      [
        "ten",
        "s"
      ],
      [
        "ro",
        "l"
      ],
      [
        "Ġl",
        "aw"
      ],
      [
        "ect",
        "ion"
      ],
      [
        "ab",
        "l"
      ],
      [
        "Ġr",
        "ef"
      ],
      [
        "Ġpro",
        "cess"
      ],
      [
        "Ġinf",
        "l"
      ],
      [
        "Ġsever",
        "al"
      ],
      [
        "o",
        "ol"
      ],
      [
        "o",
        "ot"
      ],
      [
        "pe",
        "t"
      ],
      [
        "om",
        "et"
      ],
      [
        "Ġan",
        "im"
      ],
      [
        "as",
        "tern"
      ],
      [
        "Ġor",
        "gan"
      ],
      [
        "am",
        "m"
      ],
      [
        "ĠI",
        "s"
      ],
      [
        "Ġy",
        "our"
      ],
      [
        "ĠN",
        "ew"
      ],
      [
        "Ġcons",
        "isting"
      ],
      [
        "Ġcap",
        "ital"
      ],
      [
        "Ġfir",
        "st"
      ],
      [
        "a",
        "ur"
      ],
      [
        "i",
        "qu"
      ],
      [
        "o",
        "le"
      ],
      [
        "is",
        "c"
      ],
      [
        "or",
        "es"
      ],
      [
        "at",
        "ory"
      ],
      [
        "Ġt",
        "y"
      ],
      [
        "Ġt",
        "ropical"
      ],
      [
        "ec",
        "k"
      ],
      [
        "Ġc",
        "ity"
      ],
      [
        "ce",
        "s"
      ],
      [
        "Ġm",
        "et"
      ],
      [
        "Ġh",
        "ard"
      ],
      [
        "Ġre",
        "sp"
      ],
      [
        "Ġwh",
        "ere"
      ],
      [
        "Ġpro",
        "v"
      ],
      [
        "ak",
        "er"
      ],
      [
        "ific",
        "ation"
      ],
      [
        "Ġph",
        "ys"
      ],
      [
        "d",
        "om"
      ],
      [
        "i",
        "am"
      ],
      [
        "i",
        "ence"
      ],
      [
        "m",
        "an"
      ],
      [
        "o",
        "x"
      ],
      [
        "x",
        "ual"
      ],
      [
        "Ġ",
        "especially"
      ],
      [
        "ar",
        "ch"
      ],
      [
        "art",
        "h"
      ],
      [
        "ing",
        "u"
      ],
      [
        "Ġb",
        "ro"
      ],
      [
        "Ġb",
        "us"
      ],
      [
        "Ġw",
        "ar"
      ],
      [
        "Ġm",
        "y"
      ],
      [
        "Ġl",
        "ife"
      ],
      [
        "Ġo",
        "pen"
      ],
      [
        "ot",
        "t"
      ],
      [
        "Ġde",
        "p"
      ],
      [
        "Ġman",
        "y"
      ],
      [
        "0",
        "0"
      ],
      [
        "a",
        "z"
      ],
      [
        "e",
        "ar"
      ],
      [
        "ofte",
        "n"
      ],
      [
        "on",
        "s"
      ],
      [
        "Ġc",
        "he"
      ],
      [
        "Ġin",
        "te"
      ],
      [
        "Ġm",
        "ed"
      ],
      [
        "Ġh",
        "or"
      ],
      [
        "Ġsp",
        "ec"
      ],
      [
        "op",
        "s"
      ],
      [
        "Ġy",
        "ou"
      ],
      [
        "Ġhav",
        "e"
      ],
      [
        "ress",
        "ion"
      ],
      [
        "uro",
        "pe"
      ],
      [
        "a",
        "pp"
      ],
      [
        "b",
        "orn"
      ],
      [
        "f",
        "ace"
      ],
      [
        "g",
        "y"
      ],
      [
        "Ġs",
        "er"
      ],
      [
        "Ġa",
        "p"
      ],
      [
        "Ġa",
        "ff"
      ],
      [
        "Ġd",
        "ir"
      ],
      [
        "Ġd",
        "own"
      ],
      [
        "Ġre",
        "p"
      ],
      [
        "Ġo",
        "c"
      ],
      [
        "Ġo",
        "per"
      ],
      [
        "Ġcon",
        "st"
      ],
      [
        "Ġle",
        "g"
      ],
      [
        "Ġar",
        "ound"
      ],
      [
        "Ġdis",
        "c"
      ],
      [
        "e",
        "k"
      ],
      [
        "en",
        "g"
      ],
      [
        "en",
        "se"
      ],
      [
        "Ġs",
        "ign"
      ],
      [
        "Ġp",
        "ass"
      ],
      [
        "er",
        "ed"
      ],
      [
        "Ġc",
        "irc"
      ],
      [
        "Ġin",
        "ter"
      ],
      [
        "re",
        "st"
      ],
      [
        "Ġb",
        "it"
      ],
      [
        "iv",
        "ing"
      ],
      [
        "us",
        "ually"
      ],
      [
        "ast",
        "ic"
      ],
      [
        "Ġro",
        "ck"
      ],
      [
        "ak",
        "es"
      ],
      [
        "Ġtre",
        "es"
      ],
      [
        "i",
        "ef"
      ],
      [
        "n",
        "ot"
      ],
      [
        "ar",
        "b"
      ],
      [
        "ou",
        "th"
      ],
      [
        "Ġn",
        "ame"
      ],
      [
        "Ġb",
        "as"
      ],
      [
        "se",
        "t"
      ],
      [
        "Ġm",
        "od"
      ],
      [
        "Ġm",
        "ark"
      ],
      [
        "Ġg",
        "o"
      ],
      [
        "Ġg",
        "et"
      ],
      [
        "Ġl",
        "ight"
      ],
      [
        "ol",
        "l"
      ],
      [
        "Ġe",
        "le"
      ],
      [
        "im",
        "ate"
      ],
      [
        "ation",
        "al"
      ],
      [
        "Ġr",
        "ound"
      ],
      [
        "ure",
        "s"
      ],
      [
        "ru",
        "ct"
      ],
      [
        "Ġcl",
        "ass"
      ],
      [
        "a",
        "i"
      ],
      [
        "a",
        "ut"
      ],
      [
        "d",
        "ed"
      ],
      [
        "i",
        "ate"
      ],
      [
        "k",
        "y"
      ],
      [
        "p",
        "an"
      ],
      [
        "v",
        "ing"
      ],
      [
        "on",
        "ic"
      ],
      [
        "er",
        "ation"
      ],
      [
        "Ġc",
        "ard"
      ],
      [
        "it",
        "ch"
      ],
      [
        "Ġl",
        "ack"
      ],
      [
        "um",
        "p"
      ],
      [
        "st",
        "ance"
      ],
      [
        "if",
        "y"
      ],
      [
        "Ġsh",
        "ow"
      ],
      [
        "Ġpr",
        "inc"
      ],
      [
        "ĠE",
        "urope"
      ],
      [
        "Ġra",
        "d"
      ],
      [
        "tain",
        "ing"
      ],
      [
        "Ġtre",
        "at"
      ],
      [
        "l",
        "ike"
      ],
      [
        "Ġ",
        "ir"
      ],
      [
        "te",
        "s"
      ],
      [
        "Ġs",
        "we"
      ],
      [
        "is",
        "on"
      ],
      [
        "er",
        "y"
      ],
      [
        "Ġf",
        "il"
      ],
      [
        "Ġc",
        "er"
      ],
      [
        "re",
        "g"
      ],
      [
        "ic",
        "s"
      ],
      [
        "Ġb",
        "at"
      ],
      [
        "Ġd",
        "el"
      ],
      [
        "ad",
        "ing"
      ],
      [
        "ĠS",
        "he"
      ],
      [
        "if",
        "ied"
      ],
      [
        "ran",
        "e"
      ],
      [
        "ĠL",
        "e"
      ],
      [
        "Ġpo",
        "wer"
      ],
      [
        "Ġper",
        "form"
      ],
      [
        "ĠAmeric",
        "a"
      ],
      [
        "Ġag",
        "ain"
      ],
      [
        "l",
        "or"
      ],
      [
        "y",
        "r"
      ],
      [
        "Ġ",
        "ter"
      ],
      [
        "Ġs",
        "n"
      ],
      [
        "is",
        "hed"
      ],
      [
        "Ġa",
        "v"
      ],
      [
        "or",
        "s"
      ],
      [
        "or",
        "der"
      ],
      [
        "Ġp",
        "ap"
      ],
      [
        "er",
        "ous"
      ],
      [
        "Ġf",
        "ru"
      ],
      [
        "Ġf",
        "act"
      ],
      [
        "ic",
        "es"
      ],
      [
        "Ġb",
        "ird"
      ],
      [
        "as",
        "c"
      ],
      [
        "iv",
        "es"
      ],
      [
        "Ġto",
        "p"
      ],
      [
        "Ġe",
        "l"
      ],
      [
        "ĠA",
        "s"
      ],
      [
        "if",
        "orm"
      ],
      [
        "og",
        "raph"
      ],
      [
        "Ġsh",
        "ort"
      ],
      [
        "em",
        "ent"
      ],
      [
        "Ġte",
        "m"
      ],
      [
        "Ġsu",
        "pp"
      ],
      [
        "olog",
        "ical"
      ],
      [
        "Ġsou",
        "thern"
      ],
      [
        "gre",
        "en"
      ],
      [
        "Ġblo",
        "od"
      ],
      [
        "i",
        "ple"
      ],
      [
        "p",
        "or"
      ],
      [
        "u",
        "es"
      ],
      [
        "Ġ",
        "often"
      ],
      [
        "Ġs",
        "ound"
      ],
      [
        "Ġs",
        "erv"
      ],
      [
        "Ġb",
        "ef"
      ],
      [
        "Ġd",
        "u"
      ],
      [
        "ac",
        "c"
      ],
      [
        "Ġo",
        "x"
      ],
      [
        "Ġcon",
        "f"
      ],
      [
        "ĠA",
        "l"
      ],
      [
        "Ġsh",
        "ip"
      ],
      [
        "Ġde",
        "v"
      ],
      [
        "Ġar",
        "m"
      ],
      [
        "ĠW",
        "orld"
      ],
      [
        "cl",
        "ud"
      ],
      [
        "Ġsur",
        "face"
      ],
      [
        "b",
        "s"
      ],
      [
        "i",
        "ation"
      ],
      [
        "r",
        "ant"
      ],
      [
        "Ġ",
        "ill"
      ],
      [
        "Ġ",
        "term"
      ],
      [
        "Ġp",
        "ine"
      ],
      [
        "Ġp",
        "ublic"
      ],
      [
        "Ġc",
        "le"
      ],
      [
        "Ġn",
        "ut"
      ],
      [
        "Ġin",
        "h"
      ],
      [
        "om",
        "b"
      ],
      [
        "om",
        "s"
      ],
      [
        "Ġw",
        "ay"
      ],
      [
        "Ġw",
        "ord"
      ],
      [
        "Ġw",
        "ild"
      ],
      [
        "Ġto",
        "ge"
      ],
      [
        "ac",
        "he"
      ],
      [
        "Ġre",
        "st"
      ],
      [
        "Ġre",
        "sem"
      ],
      [
        "Ġv",
        "o"
      ],
      [
        "ous",
        "ly"
      ],
      [
        "Ġbe",
        "h"
      ],
      [
        "oo",
        "th"
      ],
      [
        "Ġsu",
        "it"
      ],
      [
        "con",
        "t"
      ],
      [
        "ang",
        "u"
      ],
      [
        "Ġcont",
        "rol"
      ],
      [
        "Ġtoge",
        "ther"
      ],
      [
        "i",
        "k"
      ],
      [
        "v",
        "is"
      ],
      [
        "v",
        "es"
      ],
      [
        "w",
        "ing"
      ],
      [
        "ar",
        "ic"
      ],
      [
        "Ġp",
        "at"
      ],
      [
        "er",
        "ent"
      ],
      [
        "Ġf",
        "at"
      ],
      [
        "Ġf",
        "ood"
      ],
      [
        "Ġn",
        "orth"
      ],
      [
        "Ġd",
        "ay"
      ],
      [
        "Ġh",
        "im"
      ],
      [
        "Ġg",
        "over"
      ],
      [
        "Ġl",
        "oc"
      ],
      [
        "Ġo",
        "il"
      ],
      [
        "im",
        "p"
      ],
      [
        "ul",
        "ation"
      ],
      [
        "Ġst",
        "ra"
      ],
      [
        "ph",
        "al"
      ],
      [
        "Ġpro",
        "g"
      ],
      [
        "ib",
        "er"
      ],
      [
        "ru",
        "ction"
      ],
      [
        "Ġwho",
        "se"
      ],
      [
        "Ġare",
        "a"
      ],
      [
        "Ġen",
        "g"
      ],
      [
        "Ġme",
        "as"
      ],
      [
        "po",
        "se"
      ],
      [
        "Ġsoc",
        "ial"
      ],
      [
        "Ġbef",
        "ore"
      ],
      [
        "Ġgover",
        "n"
      ],
      [
        "f",
        "or"
      ],
      [
        "i",
        "ol"
      ],
      [
        "r",
        "ong"
      ],
      [
        "u",
        "le"
      ],
      [
        "w",
        "ork"
      ],
      [
        "en",
        "ted"
      ],
      [
        "in",
        "ing"
      ],
      [
        "Ġs",
        "w"
      ],
      [
        "Ġs",
        "and"
      ],
      [
        "Ġs",
        "ame"
      ],
      [
        "is",
        "ter"
      ],
      [
        "at",
        "in"
      ],
      [
        "Ġt",
        "ri"
      ],
      [
        "al",
        "es"
      ],
      [
        "Ġn",
        "at"
      ],
      [
        "le",
        "x"
      ],
      [
        "Ġin",
        "v"
      ],
      [
        "om",
        "ic"
      ],
      [
        "it",
        "u"
      ],
      [
        "Ġm",
        "ater"
      ],
      [
        "Ġm",
        "ost"
      ],
      [
        "Ġd",
        "et"
      ],
      [
        "Ġh",
        "al"
      ],
      [
        "Ġh",
        "um"
      ],
      [
        "ro",
        "ss"
      ],
      [
        "as",
        "ter"
      ],
      [
        "Ġl",
        "ow"
      ],
      [
        "Ġe",
        "ar"
      ],
      [
        "Ġpro",
        "p"
      ],
      [
        "Ġpro",
        "per"
      ],
      [
        "Ġu",
        "se"
      ],
      [
        "one",
        "y"
      ],
      [
        "ile",
        "d"
      ],
      [
        "gl",
        "ish"
      ],
      [
        "Ġcent",
        "ral"
      ],
      [
        "ĠEn",
        "glish"
      ],
      [
        "ĠAf",
        "ric"
      ],
      [
        "h",
        "y"
      ],
      [
        "i",
        "us"
      ],
      [
        "l",
        "am"
      ],
      [
        "m",
        "at"
      ],
      [
        "t",
        "il"
      ],
      [
        "w",
        "estern"
      ],
      [
        "Ġ",
        "2"
      ],
      [
        "Ġ",
        "z"
      ],
      [
        "Ġ",
        "ver"
      ],
      [
        "Ġ",
        "est"
      ],
      [
        "of",
        "t"
      ],
      [
        "Ġa",
        "ut"
      ],
      [
        "or",
        "ph"
      ],
      [
        "ar",
        "ing"
      ],
      [
        "al",
        "a"
      ],
      [
        "Ġc",
        "ult"
      ],
      [
        "le",
        "y"
      ],
      [
        "ing",
        "er"
      ],
      [
        "it",
        "ies"
      ],
      [
        "Ġw",
        "ind"
      ],
      [
        "Ġd",
        "iff"
      ],
      [
        "Ġh",
        "old"
      ],
      [
        "iv",
        "ity"
      ],
      [
        "Ġl",
        "a"
      ],
      [
        "Ġl",
        "angu"
      ],
      [
        "Ġr",
        "ight"
      ],
      [
        "Ġon",
        "ly"
      ],
      [
        "ain",
        "t"
      ],
      [
        "ber",
        "ry"
      ],
      [
        "Ġoff",
        "ic"
      ],
      [
        "bl",
        "ing"
      ],
      [
        "Ġgener",
        "al"
      ],
      [
        "1",
        "7"
      ],
      [
        "d",
        "ing"
      ],
      [
        "e",
        "ase"
      ],
      [
        "o",
        "e"
      ],
      [
        "u",
        "ff"
      ],
      [
        "Ġ",
        "ec"
      ],
      [
        "on",
        "y"
      ],
      [
        "or",
        "thern"
      ],
      [
        "Ġp",
        "rom"
      ],
      [
        "Ġp",
        "ress"
      ],
      [
        "Ġt",
        "ake"
      ],
      [
        "Ġf",
        "ra"
      ],
      [
        "Ġc",
        "ry"
      ],
      [
        "Ġb",
        "ank"
      ],
      [
        "Ġw",
        "rit"
      ],
      [
        "Ġan",
        "other"
      ],
      [
        "Ġd",
        "em"
      ],
      [
        "as",
        "m"
      ],
      [
        "iv",
        "ed"
      ],
      [
        "us",
        "p"
      ],
      [
        "un",
        "g"
      ],
      [
        "ur",
        "y"
      ],
      [
        "Ġst",
        "ock"
      ],
      [
        "ch",
        "n"
      ],
      [
        "Ġun",
        "f"
      ],
      [
        "Ġhe",
        "at"
      ],
      [
        "og",
        "en"
      ],
      [
        "Ġse",
        "a"
      ],
      [
        "Ġcol",
        "or"
      ],
      [
        "Ġgr",
        "ound"
      ],
      [
        "Ġsou",
        "th"
      ],
      [
        "Ġve",
        "in"
      ],
      [
        "a",
        "ith"
      ],
      [
        "b",
        "ra"
      ],
      [
        "g",
        "ed"
      ],
      [
        "g",
        "et"
      ],
      [
        "i",
        "pp"
      ],
      [
        "w",
        "ood"
      ],
      [
        "in",
        "u"
      ],
      [
        "in",
        "ter"
      ],
      [
        "Ġs",
        "ym"
      ],
      [
        "Ġp",
        "osition"
      ],
      [
        "at",
        "a"
      ],
      [
        "Ġf",
        "ree"
      ],
      [
        "Ġc",
        "ount"
      ],
      [
        "an",
        "y"
      ],
      [
        "Ġin",
        "t"
      ],
      [
        "Ġfor",
        "ce"
      ],
      [
        "re",
        "ase"
      ],
      [
        "om",
        "at"
      ],
      [
        "Ġm",
        "ult"
      ],
      [
        "Ġh",
        "air"
      ],
      [
        "us",
        "s"
      ],
      [
        "Ġg",
        "ame"
      ],
      [
        "Ġl",
        "it"
      ],
      [
        "Ġl",
        "og"
      ],
      [
        "ent",
        "al"
      ],
      [
        "un",
        "e"
      ],
      [
        "un",
        "t"
      ],
      [
        "un",
        "ch"
      ],
      [
        "Ġe",
        "very"
      ],
      [
        "ra",
        "b"
      ],
      [
        "Ġr",
        "un"
      ],
      [
        "ist",
        "s"
      ],
      [
        "Ġth",
        "ere"
      ],
      [
        "Ġde",
        "term"
      ],
      [
        "Ġse",
        "ed"
      ],
      [
        "Ġse",
        "xual"
      ],
      [
        "ĠR",
        "oman"
      ],
      [
        "Ġplant",
        "s"
      ],
      [
        "Ġpol",
        "it"
      ],
      [
        "Ġcharacter",
        "ized"
      ],
      [
        "Ġfol",
        "low"
      ],
      [
        "Ġprinc",
        "iple"
      ],
      [
        "Ġmater",
        "ial"
      ],
      [
        ".",
        "."
      ],
      [
        "a",
        "j"
      ],
      [
        "b",
        "r"
      ],
      [
        "c",
        "le"
      ],
      [
        "c",
        "ent"
      ],
      [
        "s",
        "or"
      ],
      [
        "u",
        "ch"
      ],
      [
        "Ġs",
        "ch"
      ],
      [
        "Ġs",
        "oft"
      ],
      [
        "Ġf",
        "in"
      ],
      [
        "Ġf",
        "ield"
      ],
      [
        "Ġc",
        "our"
      ],
      [
        "Ġc",
        "ell"
      ],
      [
        "Ġb",
        "i"
      ],
      [
        "Ġm",
        "ach"
      ],
      [
        "Ġd",
        "iv"
      ],
      [
        "Ġd",
        "uring"
      ],
      [
        "Ġh",
        "o"
      ],
      [
        "ro",
        "t"
      ],
      [
        "iv",
        "en"
      ],
      [
        "Ġg",
        "un"
      ],
      [
        "ter",
        "y"
      ],
      [
        "un",
        "der"
      ],
      [
        "ul",
        "ate"
      ],
      [
        "ot",
        "ion"
      ],
      [
        "ab",
        "ility"
      ],
      [
        "Ġth",
        "erm"
      ],
      [
        "Ġbe",
        "en"
      ],
      [
        "Ġpl",
        "ane"
      ],
      [
        "Ġro",
        "ot"
      ],
      [
        "Ġim",
        "m"
      ],
      [
        "Ġfl",
        "u"
      ],
      [
        "Ġco",
        "ver"
      ],
      [
        "Ġsub",
        "stance"
      ],
      [
        "Ġmo",
        "v"
      ],
      [
        "Ġres",
        "ult"
      ],
      [
        "Ġam",
        "ount"
      ],
      [
        "Ġbu",
        "ild"
      ],
      [
        "Ġchild",
        "ren"
      ],
      [
        "Ġfun",
        "ction"
      ],
      [
        "Ġret",
        "urn"
      ],
      [
        "Ġele",
        "ment"
      ],
      [
        "Ġfru",
        "it"
      ],
      [
        "Ġgovern",
        "ment"
      ],
      [
        "a",
        "ined"
      ],
      [
        "b",
        "y"
      ],
      [
        "b",
        "ers"
      ],
      [
        "b",
        "all"
      ],
      [
        "c",
        "he"
      ],
      [
        "c",
        "al"
      ],
      [
        "c",
        "hed"
      ],
      [
        "d",
        "is"
      ],
      [
        "f",
        "t"
      ],
      [
        "g",
        "est"
      ],
      [
        "m",
        "in"
      ],
      [
        "o",
        "ve"
      ],
      [
        "s",
        "te"
      ],
      [
        "s",
        "ol"
      ],
      [
        "w",
        "h"
      ],
      [
        "y",
        "n"
      ],
      [
        "y",
        "es"
      ],
      [
        "Ġ",
        "ke"
      ],
      [
        "of",
        "f"
      ],
      [
        "in",
        "ant"
      ],
      [
        "Ġs",
        "il"
      ],
      [
        "Ġp",
        "ink"
      ],
      [
        "Ġt",
        "ax"
      ],
      [
        "Ġf",
        "ound"
      ],
      [
        "al",
        "y"
      ],
      [
        "Ġc",
        "r"
      ],
      [
        "an",
        "th"
      ],
      [
        "Ġb",
        "all"
      ],
      [
        "Ġw",
        "estern"
      ],
      [
        "Ġl",
        "and"
      ],
      [
        "il",
        "t"
      ],
      [
        "id",
        "ge"
      ],
      [
        "Ġe",
        "p"
      ],
      [
        "Ġe",
        "v"
      ],
      [
        "Ġe",
        "arth"
      ],
      [
        "um",
        "n"
      ],
      [
        "Ġhe",
        "m"
      ],
      [
        "Ġpro",
        "te"
      ],
      [
        "ure",
        "d"
      ],
      [
        "Ġpr",
        "act"
      ],
      [
        "ran",
        "ch"
      ],
      [
        "Ġy",
        "ear"
      ],
      [
        "Ġdis",
        "ease"
      ],
      [
        "ak",
        "ing"
      ],
      [
        "Ġcol",
        "lect"
      ],
      [
        "Ġen",
        "er"
      ],
      [
        "Ġab",
        "out"
      ],
      [
        "pr",
        "of"
      ],
      [
        "Ġmus",
        "ic"
      ],
      [
        "vol",
        "ution"
      ],
      [
        "Ġgl",
        "ass"
      ],
      [
        "iet",
        "y"
      ],
      [
        "Ġty",
        "pe"
      ],
      [
        "r",
        "ist"
      ],
      [
        "r",
        "ound"
      ],
      [
        "u",
        "ter"
      ],
      [
        "y",
        "ing"
      ],
      [
        "Ġ",
        "-"
      ],
      [
        "Ġs",
        "im"
      ],
      [
        "is",
        "ion"
      ],
      [
        "Ġp",
        "i"
      ],
      [
        "at",
        "s"
      ],
      [
        "Ġf",
        "ire"
      ],
      [
        "Ġn",
        "orthern"
      ],
      [
        "oun",
        "tain"
      ],
      [
        "Ġb",
        "ar"
      ],
      [
        "Ġm",
        "ust"
      ],
      [
        "Ġg",
        "old"
      ],
      [
        "Ġg",
        "land"
      ],
      [
        "Ġl",
        "ike"
      ],
      [
        "Ġl",
        "iqu"
      ],
      [
        "id",
        "a"
      ],
      [
        "ate",
        "ly"
      ],
      [
        "Ġad",
        "v"
      ],
      [
        "um",
        "e"
      ],
      [
        "ĠA",
        "n"
      ],
      [
        "ri",
        "k"
      ],
      [
        "Ġle",
        "t"
      ],
      [
        "ĠW",
        "ill"
      ],
      [
        "Ġact",
        "ion"
      ],
      [
        "Ġrec",
        "ord"
      ],
      [
        "Ġcharacter",
        "istic"
      ],
      [
        "Ġmem",
        "ber"
      ],
      [
        "Ġbec",
        "ome"
      ],
      [
        "Ġeff",
        "ort"
      ],
      [
        "Ġresem",
        "bling"
      ],
      [
        "d",
        "le"
      ],
      [
        "d",
        "ro"
      ],
      [
        "n",
        "ing"
      ],
      [
        "r",
        "ec"
      ],
      [
        "r",
        "un"
      ],
      [
        "Ġ",
        "if"
      ],
      [
        "Ġs",
        "un"
      ],
      [
        "on",
        "or"
      ],
      [
        "Ġc",
        "re"
      ],
      [
        "Ġin",
        "clud"
      ],
      [
        "Ġb",
        "ed"
      ],
      [
        "Ġb",
        "ook"
      ],
      [
        "Ġb",
        "rown"
      ],
      [
        "it",
        "ive"
      ],
      [
        "it",
        "ting"
      ],
      [
        "Ġm",
        "or"
      ],
      [
        "Ġm",
        "er"
      ],
      [
        "Ġh",
        "ot"
      ],
      [
        "iv",
        "ers"
      ],
      [
        "Ġg",
        "ive"
      ],
      [
        "ul",
        "ous"
      ],
      [
        "Ġst",
        "ar"
      ],
      [
        "ab",
        "it"
      ],
      [
        "ĠC",
        "y"
      ],
      [
        "ag",
        "n"
      ],
      [
        "ru",
        "g"
      ],
      [
        "ort",
        "ion"
      ],
      [
        "ell",
        "a"
      ],
      [
        "Ġne",
        "g"
      ],
      [
        "Ġfl",
        "at"
      ],
      [
        "ough",
        "t"
      ],
      [
        "Ġinf",
        "orm"
      ],
      [
        "ĠO",
        "ld"
      ],
      [
        "ren",
        "ch"
      ],
      [
        "Ġass",
        "oc"
      ],
      [
        "Ġoc",
        "cur"
      ],
      [
        "ĠEurope",
        "an"
      ],
      [
        "Ġpap",
        "er"
      ],
      [
        "Ġproper",
        "ty"
      ],
      [
        "a",
        "sed"
      ],
      [
        "a",
        "ff"
      ],
      [
        "d",
        "ra"
      ],
      [
        "g",
        "o"
      ],
      [
        "g",
        "u"
      ],
      [
        "l",
        "in"
      ],
      [
        "o",
        "v"
      ],
      [
        "o",
        "ke"
      ],
      [
        "p",
        "s"
      ],
      [
        "in",
        "ate"
      ],
      [
        "Ġs",
        "em"
      ],
      [
        "is",
        "ed"
      ],
      [
        "Ġt",
        "im"
      ],
      [
        "al",
        "m"
      ],
      [
        "Ġc",
        "all"
      ],
      [
        "ic",
        "ate"
      ],
      [
        "Ġb",
        "omb"
      ],
      [
        "it",
        "ic"
      ],
      [
        "ce",
        "ae"
      ],
      [
        "Ġw",
        "ell"
      ],
      [
        "Ġd",
        "ark"
      ],
      [
        "ro",
        "id"
      ],
      [
        "iv",
        "ated"
      ],
      [
        "Ġg",
        "iven"
      ],
      [
        "Ġl",
        "im"
      ],
      [
        "id",
        "es"
      ],
      [
        "Ġe",
        "astern"
      ],
      [
        "el",
        "f"
      ],
      [
        "ur",
        "ch"
      ],
      [
        "os",
        "is"
      ],
      [
        "ir",
        "th"
      ],
      [
        "st",
        "and"
      ],
      [
        "Ġv",
        "es"
      ],
      [
        "Ġhe",
        "l"
      ],
      [
        "ĠM",
        "us"
      ],
      [
        "est",
        "ion"
      ],
      [
        "ĠI",
        "I"
      ],
      [
        "ĠI",
        "n"
      ],
      [
        "Ġle",
        "ss"
      ],
      [
        "ran",
        "ce"
      ],
      [
        "Ġro",
        "ad"
      ],
      [
        "uc",
        "le"
      ],
      [
        "uc",
        "ation"
      ],
      [
        "ĠR",
        "iver"
      ],
      [
        "ĠN",
        "e"
      ],
      [
        "con",
        "s"
      ],
      [
        "Ġcons",
        "id"
      ],
      [
        "iss",
        "ion"
      ],
      [
        "Ġqu",
        "ality"
      ],
      [
        "Ġmo",
        "ve"
      ],
      [
        "bo",
        "ard"
      ],
      [
        "Ġdes",
        "ign"
      ],
      [
        "sy",
        "ch"
      ],
      [
        "Ġmil",
        "itary"
      ],
      [
        "Ġclo",
        "se"
      ],
      [
        "Ġpartic",
        "ular"
      ],
      [
        "iform",
        "es"
      ],
      [
        "Ġbeh",
        "av"
      ],
      [
        "Ġnat",
        "ural"
      ],
      [
        "Ġlangu",
        "age"
      ],
      [
        "a",
        "ped"
      ],
      [
        "g",
        "ment"
      ],
      [
        "h",
        "ol"
      ],
      [
        "i",
        "od"
      ],
      [
        "o",
        "h"
      ],
      [
        "r",
        "at"
      ],
      [
        "s",
        "on"
      ],
      [
        "u",
        "se"
      ],
      [
        "Ġ",
        ";"
      ],
      [
        "Ġs",
        "au"
      ],
      [
        "Ġp",
        "en"
      ],
      [
        "Ġp",
        "le"
      ],
      [
        "Ġt",
        "able"
      ],
      [
        "Ġt",
        "ru"
      ],
      [
        "Ġf",
        "all"
      ],
      [
        "Ġf",
        "oot"
      ],
      [
        "ine",
        "s"
      ],
      [
        "pe",
        "l"
      ],
      [
        "an",
        "c"
      ],
      [
        "Ġn",
        "ative"
      ],
      [
        "Ġfor",
        "mer"
      ],
      [
        "re",
        "ad"
      ],
      [
        "Ġb",
        "al"
      ],
      [
        "ro",
        "s"
      ],
      [
        "Ġg",
        "e"
      ],
      [
        "Ġsen",
        "s"
      ],
      [
        "Ġl",
        "ive"
      ],
      [
        "Ġe",
        "t"
      ],
      [
        "Ġe",
        "gg"
      ],
      [
        "Ġre",
        "ad"
      ],
      [
        "ĠA",
        "ust"
      ],
      [
        "ct",
        "ive"
      ],
      [
        "Ġhe",
        "av"
      ],
      [
        "ĠC",
        "al"
      ],
      [
        "ap",
        "t"
      ],
      [
        "Ġsh",
        "ar"
      ],
      [
        "ard",
        "en"
      ],
      [
        "Ġsp",
        "ot"
      ],
      [
        "Ġde",
        "vel"
      ],
      [
        "Ġex",
        "per"
      ],
      [
        "Ġex",
        "pl"
      ],
      [
        "Ġpr",
        "ec"
      ],
      [
        "oo",
        "se"
      ],
      [
        "ide",
        "a"
      ],
      [
        "Ġcol",
        "l"
      ],
      [
        "ĠF",
        "rench"
      ],
      [
        "Ġwe",
        "ather"
      ],
      [
        "hem",
        "atic"
      ],
      [
        "gen",
        "us"
      ],
      [
        "Ġgre",
        "y"
      ],
      [
        "Ġgre",
        "at"
      ],
      [
        "het",
        "ic"
      ],
      [
        "Ġbus",
        "iness"
      ],
      [
        "Ġagain",
        "st"
      ],
      [
        "Ġec",
        "on"
      ],
      [
        "Ġpolit",
        "ical"
      ],
      [
        "b",
        "an"
      ],
      [
        "b",
        "el"
      ],
      [
        "b",
        "ell"
      ],
      [
        "g",
        "in"
      ],
      [
        "i",
        "ac"
      ],
      [
        "k",
        "in"
      ],
      [
        "o",
        "on"
      ],
      [
        "t",
        "op"
      ],
      [
        "Ġ",
        "Z"
      ],
      [
        "en",
        "a"
      ],
      [
        "en",
        "e"
      ],
      [
        "Ġs",
        "or"
      ],
      [
        "Ġs",
        "our"
      ],
      [
        "Ġs",
        "ide"
      ],
      [
        "ar",
        "i"
      ],
      [
        "ar",
        "l"
      ],
      [
        "ar",
        "ian"
      ],
      [
        "ar",
        "row"
      ],
      [
        "Ġp",
        "ut"
      ],
      [
        "Ġf",
        "ac"
      ],
      [
        "Ġf",
        "ish"
      ],
      [
        "Ġc",
        "en"
      ],
      [
        "Ġc",
        "hem"
      ],
      [
        "Ġn",
        "ight"
      ],
      [
        "Ġn",
        "ucle"
      ],
      [
        "Ġin",
        "ten"
      ],
      [
        "Ġin",
        "vol"
      ],
      [
        "se",
        "y"
      ],
      [
        "it",
        "or"
      ],
      [
        "Ġm",
        "ain"
      ],
      [
        "Ġan",
        "g"
      ],
      [
        "Ġh",
        "ouse"
      ],
      [
        "ac",
        "ific"
      ],
      [
        "ent",
        "ly"
      ],
      [
        "ol",
        "f"
      ],
      [
        "id",
        "ence"
      ],
      [
        "th",
        "ers"
      ],
      [
        "am",
        "in"
      ],
      [
        "ch",
        "ie"
      ],
      [
        "od",
        "e"
      ],
      [
        "Ġcon",
        "taining"
      ],
      [
        "ct",
        "or"
      ],
      [
        "Ġbe",
        "an"
      ],
      [
        "ri",
        "al"
      ],
      [
        "Ġde",
        "g"
      ],
      [
        "ud",
        "e"
      ],
      [
        "ag",
        "ed"
      ],
      [
        "ru",
        "ff"
      ],
      [
        "ĠG",
        "e"
      ],
      [
        "Ġte",
        "chn"
      ],
      [
        "Ġne",
        "ar"
      ],
      [
        "Ġne",
        "ed"
      ],
      [
        "Ġj",
        "o"
      ],
      [
        "ĠW",
        "e"
      ],
      [
        "Ġsu",
        "per"
      ],
      [
        "Ġher",
        "bs"
      ],
      [
        "Ġbl",
        "ue"
      ],
      [
        "ire",
        "d"
      ],
      [
        "Ġlar",
        "gest"
      ],
      [
        "Ġequ",
        "al"
      ],
      [
        "sel",
        "f"
      ],
      [
        "Ġprof",
        "ess"
      ],
      [
        "Ġent",
        "ire"
      ],
      [
        "enn",
        "ial"
      ],
      [
        "Ġcau",
        "se"
      ],
      [
        "Ġanim",
        "al"
      ],
      [
        "Ġswe",
        "et"
      ],
      [
        "Ġpress",
        "ure"
      ],
      [
        "Ġet",
        "c"
      ],
      [
        "c",
        "end"
      ],
      [
        "c",
        "or"
      ],
      [
        "e",
        "le"
      ],
      [
        "f",
        "lo"
      ],
      [
        "l",
        "im"
      ],
      [
        "n",
        "ate"
      ],
      [
        "r",
        "or"
      ],
      [
        "r",
        "ation"
      ],
      [
        "s",
        "u"
      ],
      [
        "u",
        "el"
      ],
      [
        "w",
        "ater"
      ],
      [
        "Ġ",
        "Y"
      ],
      [
        "en",
        "cy"
      ],
      [
        "Ġa",
        "u"
      ],
      [
        "Ġis",
        "land"
      ],
      [
        "Ġp",
        "a"
      ],
      [
        "Ġp",
        "ark"
      ],
      [
        "er",
        "ate"
      ],
      [
        "Ġt",
        "ub"
      ],
      [
        "Ġt",
        "iss"
      ],
      [
        "ec",
        "e"
      ],
      [
        "Ġf",
        "und"
      ],
      [
        "he",
        "l"
      ],
      [
        "al",
[...]
