{
  "version": "1.0",
  "truncation": null,
  "padding": null,
  "added_tokens": [
    {
      "id": 0,
      "content": "<|endoftext|>",
      "single_word": false,
      "lstrip": false,
      "rstrip": false,
      "normalized": false,
      "special": true
    },
    {
      "id": 1,
      "content": "<pad>",
      "single_word": false,
      "lstrip": false,
      "rstrip": false,
      "normalized": false,
      "special": true
    },
    {
      "id": 2,
      "content": "<unk>",
      "single_word": false,
      "lstrip": false,
      "rstrip": false,
      "normalized": false,
      "special": true
    }
  ],
  "normalizer": null,
  "pre_tokenizer": {
    "type": "ByteLevel",
    "add_prefix_space": false,
    "trim_offsets": true,
    "use_regex": true
  },
  "post_processor": {
    "type": "ByteLevel",
    "add_prefix_space": true,
    "trim_offsets": false,
    "use_regex": true
  },
  "decoder": {
    "type": "ByteLevel",
    "add_prefix_space": true,
    "trim_offsets": true,
    "use_regex": true
  },
  "model": {
    "type": "BPE",
    "dropout": null,
    "unk_token": null,
    "continuing_subword_prefix": null,
    "end_of_word_suffix": null,
    "fuse_unk": false,
    "byte_fallback": false,
    "ignore_merges": false,
    "vocab": {
      "<|endoftext|>": 0,
      "<pad>": 1,
      "<unk>": 2,
      "!": 3,
      "\"": 4,
      "#": 5,
      "$": 6,
      "%": 7,
      "&": 8,
      "'": 9,
      "(": 10,
      ")": 11,
      "*": 12,
      "+": 13,
      ",": 14,
      "-": 15,
      ".": 16,
      "/": 17,
      "0": 18,
      "1": 19,
      "2": 20,
      "3": 21,
      "4": 22,
      "5": 23,
      "6": 24,
      "7": 25,
      "8": 26,
      "9": 27,
      ":": 28,
      ";": 29,
      "<": 30,
      "=": 31,
      ">": 32,
      "?": 33,
      "@": 34,
      "A": 35,
      "B": 36,
      "C": 37,
      "D": 38,
      "E": 39,
      "F": 40,
      "G": 41,
      "H": 42,
      "I": 43,
      "J": 44,
      "K": 45,
      "L": 46,
      "M": 47,
      "N": 48,
      "O": 49,
      "P": 50,
      "Q": 51,
      "R": 52,
      "S": 53,
      "T": 54,
      "U": 55,
      "V": 56,
      "W": 57,
      "X": 58,
      "Y": 59,
      "Z": 60,
      "[": 61,
      "\\": 62,
      "]": 63,
      "^": 64,
      "_": 65,
      "`": 66,
      "a": 67,
      "b": 68,
      "c": 69,
      "d": 70,
      "e": 71,
      "f": 72,
      "g": 73,
      "h": 74,
      "i": 75,
      "j": 76,
      "k": 77,
      "l": 78,
      "m": 79,
      "n": 80,
      "o": 81,
      "p": 82,
      "q": 83,
      "r": 84,
      "s": 85,
      "t": 86,
      "u": 87,
      "v": 88,
      "w": 89,
      "x": 90,
      "y": 91,
      "z": 92,
      "{": 93,
      "|": 94,
      "}": 95,
      "~": 96,
      "¡": 97,
      "¢": 98,
      "£": 99,
      "¤": 100,
      "¥": 101,
      "¦": 102,
      "§": 103,
      "¨": 104,
      "©": 105,
      "ª": 106,
      "«": 107,
      "¬": 108,
      "®": 109,
      "¯": 110,
      "°": 111,
      "±": 112,
      "²": 113,
      "³": 114,
      "´": 115,
      "µ": 116,
      "¶": 117,
      "·": 118,
      "¸": 119,
      "¹": 120,
      "º": 121,
      "»": 122,
      "¼": 123,
      "½": 124,
      "¾": 125,
      "¿": 126,
      "À": 127,
      "Á": 128,
      "Â": 129,
      "Ã": 130,
      "Ä": 131,
      "Å": 132,
      "Æ": 133,
      "Ç": 134,
      "È": 135,
      "É": 136,
      "Ê": 137,
      "Ë": 138,
      "Ì": 139,
      "Í": 140,
      "Î": 141,
      "Ï": 142,
      "Ð": 143,
      "Ñ": 144,
      "Ò": 145,
      "Ó": 146,
      "Ô": 147,
      "Õ": 148,
      "Ö": 149,
      "×": 150,
      "Ø": 151,
      "Ù": 152,
      "Ú": 153,
      "Û": 154,
      "Ü": 155,
      "Ý": 156,
      "Þ": 157,
      "ß": 158,
      "à": 159,
      "á": 160,
      "â": 161,
      "ã": 162,
      "ä": 163,
      "å": 164,
      "æ": 165,
      "ç": 166,
      "è": 167,
      "é": 168,
      "ê": 169,
      "ë": 170,
      "ì": 171,
      "í": 172,
      "î": 173,
      "ï": 174,
      "ð": 175,
      "ñ": 176,
      "ò": 177,
      "ó": 178,
      "ô": 179,
      "õ": 180,
      "ö": 181,
      "÷": 182,
      "ø": 183,
      "ù": 184,
      "ú": 185,
      "û": 186,
      "ü": 187,
      "ý": 188,
      "þ": 189,
      "ÿ": 190,
      "Ā": 191,
      "ā": 192,
      "Ă": 193,
      "ă": 194,
      "Ą": 195,
      "ą": 196,
      "Ć": 197,
      "ć": 198,
      "Ĉ": 199,
      "ĉ": 200,
      "Ċ": 201,
      "ċ": 202,
      "Č": 203,
      "č": 204,
      "Ď": 205,
      "ď": 206,
      "Đ": 207,
      "đ": 208,
      "Ē": 209,
      "ē": 210,
      "Ĕ": 211,
      "ĕ": 212,
      "Ė": 213,
      "ė": 214,
      "Ę": 215,
      "ę": 216,
      "Ě": 217,
      "ě": 218,
      "Ĝ": 219,
      "ĝ": 220,
      "Ğ": 221,
      "ğ": 222,
      "Ġ": 223,
      "ġ": 224,
      "Ģ": 225,
      "ģ": 226,
      "Ĥ": 227,
      "ĥ": 228,
      "Ħ": 229,
      "ħ": 230,
      "Ĩ": 231,
      "ĩ": 232,
      "Ī": 233,
      "ī": 234,
      "Ĭ": 235,
      "ĭ": 236,
      "Į": 237,
      "į": 238,
      "İ": 239,
      "ı": 240,
      "Ĳ": 241,
      "ĳ": 242,
      "Ĵ": 243,
      "ĵ": 244,
      "Ķ": 245,
      "ķ": 246,
      "ĸ": 247,
      "Ĺ": 248,
      "ĺ": 249,
      "Ļ": 250,
      "ļ": 251,
      "Ľ": 252,
      "ľ": 253,
      "Ŀ": 254,
      "ŀ": 255,
      "Ł": 256,
      "ł": 257,
      "Ń": 258,
      "of": 259,
      "te": 260,
      "en": 261,
      "end": 262,
      "in": 263,
      "xt": 264,
      "ofte": 265,
      "<|": 266,
      "|>": 267,
      "endofte": 268,
      "endoftext": 269,
      "Ġs": 270,
      "Ġa": 271,
      "is": 272,
      "or": 273,
      "on": 274,
      "Ġp": 275,
      "ar": 276,
      "Ġis": 277,
      "at": 278,
      "Ġof": 279,
      "Ġt": 280,
      "er": 281,
      "ec": 282,
      "Ġf": 283,
      "Ġ\"": 284,
      "he": 285,
      "ou": 286,
      "pe": 287,
      "ine": 288,
      "hat": 289,
      "ef": 290,
      "art": 291,
      "Ġpart": 292,
      "le": 293,
      "Ġc": 294,
      "ech": 295,
      "Ġspe": 296,
      "Ġspeech": 297,
      "efine": 298,
      "What": 299,
      "\"?": 300,
      "Define": 301,
      "an": 302,
      "al": 303,
      "Ġn": 304,
      "Ġin": 305,
      "Ġthe": 306,
      "re": 307,
      "__": 308,
      "Ġfor": 309,
      "oun": 310,
      "ic": 311,
      "ing": 312,
      "Ġb": 313,
      "om": 314,
      "se": 315,
      "Ġsy": 316,
      "ce": 317,
      "ym": 318,
      "it": 319,
      "Ġnoun": 320,
      "non": 321,
      "Ġsynon": 322,
      "Ġsynonym": 323,
      "Ġw": 324,
      "Ġm": 325,
      "Ġd": 326,
      "Ġan": 327,
      "es": 328,
      "ion": 329,
      "ten": 330,
      "ve": 331,
      "as": 332,
      "ro": 333,
      "ed": 334,
      "Ġor": 335,
      "ly": 336,
      "Ġh": 337,
      "Ġsen": 338,
      "tence": 339,
      "Ġsentence": 340,
      "Use": 341,
      "Ġg": 342,
      "ter": 343,
      "ent": 344,
      "omp": 345,
      "il": 346,
      "us": 347,
      "Ġto": 348,
      "ra": 349,
      "wer": 350,
      "ol": 351,
      "ver": 352,
      "Ġl": 353,
      "ns": 354,
      "ti": 355,
      "omple": 356,
      "omplete": 357,
      "Ġe": 358,
      "Ans": 359,
      "Complete": 360,
      "____": 361,
      "Answer": 362,
      "Ġ____": 363,
      "Ġand": 364,
      "id": 365,
      "th": 366,
      "un": 367,
      "os": 368,
      "ac": 369,
      "ur": 370,
      "Ġre": 371,
      "op": 372,
      "ate": 373,
      "Ġad": 374,
      "ation": 375,
      "el": 376,
      "im": 377,
      "ch": 378,
      "ul": 379,
      "ig": 380,
      "et": 381,
      "ad": 382,
      "am": 383,
      "ab": 384,
      "lo": 385,
      "Ġst": 386,
      "ir": 387,
      "tive": 388,
      "od": 389,
      "jec": 390,
      "Ġr": 391,
      "um": 392,
      "ith": 393,
      "st": 394,
      "ge": 395,
      "ite": 396,
      "verb": 397,
      "Ġcon": 398,
      "oc": 399,
      "ot": 400,
      "jective": 401,
      "Ġadjective": 402,
      "Ġ(": 403,
      "ss": 404,
      "ous": 405,
      "Ġwith": 406,
      "ĠA": 407,
      "Ġwh": 408,
      "ia": 409,
      "Ġthat": 410,
      "ial": 411,
      "Ġon": 412,
      "ĠS": 413,
      "if": 414,
      "ist": 415,
      "and": 416,
      "ant": 417,
      "ive": 418,
      "Ġhe": 419,
      "la": 420,
      "qu": 421,
      "Ġverb": 422,
      "ĠC": 423,
      "Ġun": 424,
      "ity": 425,
      "Ġv": 426,
      "ct": 427,
      "Ġch": 428,
      "ical": 429,
      "Ġth": 430,
      "Ġbe": 431,
      "Ġby": 432,
      "ap": 433,
      "ut": 434,
      "ak": 435,
      "up": 436,
      "The": 437,
      "Ġpro": 438,
      "Ġop": 439,
      "ip": 440,
      "Ġsp": 441,
      "Ġsh": 442,
      "ure": 443,
      "ow": 444,
      "ect": 445,
      "out": 446,
      "igh": 447,
      "pos": 448,
      "rom": 449,
      "ers": 450,
      "ment": 451,
      "all": 452,
      "ome": 453,
      "ard": 454,
      "able": 455,
      "iz": 456,
      "ess": 457,
      "av": 458,
      "ud": 459,
      "Ġde": 460,
      "Ġex": 461,
      "use": 462,
      "og": 463,
      "Ġo": 464,
      "Ġle": 465,
      "ae": 466,
      "ted": 467,
      "ib": 468,
      "ub": 469,
      "ĠM": 470,
      "ass": 471,
      "ag": 472,
      "ain": 473,
      "iv": 474,
      "ish": 475,
      "der": 476,
      "ian": 477,
      "Ġse": 478,
      "Ġas": 479,
      "ast": 480,
      "ight": 481,
      "posite": 482,
      "Ġgen": 483,
      "ay": 484,
      "Ġopposite": 485,
      "Ġar": 486,
      "est": 487,
      "ill": 488,
      "ry": 489,
      "one": 490,
      "Ġac": 491,
      "Ġfrom": 492,
      "Ġat": 493,
      "ance": 494,
      "ack": 495,
      "Ġal": 496,
      "Ġsome": 497,
      "ĠB": 498,
      "per": 499,
      "ary": 500,
      "ated": 501,
      "age": 502,
      "ph": 503,
      "Ġwas": 504,
      "Ġy": 505,
      "ound": 506,
      "Ġwho": 507,
      "ies": 508,
      "Ġdis": 509,
      "ke": 510,
      "ran": 511,
      "ric": 512,
      "orm": 513,
      "em": 514,
      "ĠP": 515,
      "ĠI": 516,
      "ort": 517,
      "ther": 518,
      "les": 519,
      "ĠH": 520,
      "Ġgenus": 521,
      "ru": 522,
      "Ġj": 523,
      "ust": 524,
      "Ġra": 525,
      "res": 526,
      "low": 527,
      "ĠE": 528,
      "our": 529,
      "ace": 530,
      "ater": 531,
      "ere": 532,
      "mer": 533,
      "ang": 534,
      "used": 535,
      "Ġrel": 536,
      "Ġte": 537,
      "ide": 538,
      "ĠT": 539,
      "Ġim": 540,
      "ew": 541,
      "ual": 542,
      "Ġco": 543,
      "Ġen": 544,
      "ase": 545,
      "Ġpl": 546,
      "Ġro": 547,
      "ĠG": 548,
      "ck": 549,
      "ice": 550,
      "ff": 551,
      "Ġpr": 552,
      "ong": 553,
      "row": 554,
      "ness": 555,
      "ĠN": 556,
      "ence": 557,
      "Ġsm": 558,
      "led": 559,
      "ood": 560,
      "ath": 561,
      "ating": 562,
      "tern": 563,
      "ree": 564,
      "Ġwor": 565,
      "sp": 566,
      "ĠL": 567,
      "du": 568,
      "Ġit": 569,
      "Ġper": 570,
      "Ġbl": 571,
      "ok": 572,
      "ress": 573,
      "aving": 574,
      "ake": 575,
      "Ġout": 576,
      "Ġcom": 577,
      "Ġhis": 578,
      "ep": 579,
      "ri": 580,
      "to": 581,
      "Ġpo": 582,
      "Ġpla": 583,
      "sh": 584,
      "Ġhaving": 585,
      "ious": 586,
      "ĠR": 587,
      "old": 588,
      "ost": 589,
      "ative": 590,
      "ore": 591,
      "Ġk": 592,
      "ind": 593,
      "Ġab": 594,
      "ism": 595,
      "ild": 596,
      "ug": 597,
      "Ġup": 598,
      "ell": 599,
      "ĠW": 600,
      "Ġgr": 601,
      "ach": 602,
      "red": 603,
      "Ġused": 604,
      "Ġsc": 605,
      "'s": 606,
      "Ġare": 607,
      "ory": 608,
      "Ġme": 609,
      "ily": 610,
      "ys": 611,
      "Ġqu": 612,
      "orn": 613,
      "ition": 614,
      "ose": 615,
      "tain": 616,
      "ord": 617,
      "land": 618,
      "Ġap": 619,
      "Ġman": 620,
      "Ġbo": 621,
      "ially": 622,
      "ĠThe": 623,
      "Ġoff": 624,
      "Ġcl": 625,
      "Ġnot": 626,
      "idae": 627,
      "ign": 628,
      "ĠD": 629,
      "ĠF": 630,
      "ates": 631,
      "ber": 632,
      "ie": 633,
      "ue": 634,
      "ick": 635,
      "gh": 636,
      "ium": 637,
      "we": 638,
      "ĠU": 639,
      "Ġadverb": 640,
      "tion": 641,
      "ough": 642,
      "ped": 643,
      "Ġcomp": 644,
      "ich": 645,
      "int": 646,
      "ark": 647,
      "Ġcol": 648,
      "Ġher": 649,
      "meric": 650,
      "less": 651,
      "ner": 652,
      "Ġwe": 653,
      "rit": 654,
      "Ġact": 655,
      "ock": 656,
      "air": 657,
      "ld": 658,
      "Ġform": 659,
      "ise": 660,
      "ail": 661,
      "ile": 662,
      "tem": 663,
      "ĠAmeric": 664,
      "erson": 665,
      "Ġcar": 666,
      "ular": 667,
      "pl": 668,
      "thing": 669,
      "aw": 670,
      "ll": 671,
      "Ġpe": 672,
      "Ġsmall": 673,
      "Ġone": 674,
      "ĠJ": 675,
      "hes": 676,
      "Ġrec": 677,
      "ĠSt": 678,
      "ized": 679,
      "ring": 680,
      "olog": 681,
      "bl": 682,
      "Ġinto": 683,
      "iver": 684,
      "uc": 685,
      "Ġperson": 686,
      "ful": 687,
      "iss": 688,
      "Ġsup": 689,
      "Ġcons": 690,
      "Ġsub": 691,
      "Ġag": 692,
      "Ġph": 693,
      "Ġcan": 694,
      "Ġany": 695,
      "esp": 696,
      "acter": 697,
      "fer": 698,
      "orth": 699,
      "Ġel": 700,
      "oph": 701,
      "Ġdec": 702,
      "ade": 703,
      "Ġmo": 704,
      "ram": 705,
      "ĠCh": 706,
      "rop": 707,
      "Ġchar": 708,
      "own": 709,
      "ited": 710,
      "hed": 711,
      "ically": 712,
      "ike": 713,
      "cl": 714,
      "are": 715,
      "ble": 716,
      "bo": 717,
      "Ġflo": 718,
      "Ġgre": 719,
      "ave": 720,
      "ob": 721,
      "ars": 722,
      "ale": 723,
      "con": 724,
      "Ġ1": 725,
      "ecially": 726,
      "ible": 727,
      "Ġimp": 728,
      "Ġfam": 729,
      "Ġno": 730,
      "Ġover": 731,
      "Ġsomething": 732,
      "especially": 733,
      "man": 734,
      "ral": 735,
      "ult": 736,
      "eff": 737,
      "Ġtra": 738,
      "Ġspec": 739,
      "ually": 740,
      "cy": 741,
      "ĠO": 742,
      "arm": 743,
      "Ġinf": 744,
      "Ġlo": 745,
      "ody": 746,
      "ize": 747,
      "Ġtr": 748,
      "lic": 749,
      "ame": 750,
      "Ġbeing": 751,
      "atic": 752,
      "outh": 753,
      "ane": 754,
      "Ġcomm": 755,
      "ific": 756,
      "Ġind": 757,
      "Ġwhich": 758,
      "ĠUn": 759,
      "Ġfamily": 760,
      "Ġne": 761,
      "Ġexp": 762,
      "ĠV": 763,
      "ink": 764,
      "erv": 765,
      "ient": 766,
      "pr": 767,
      "Ġlar": 768,
      "Ġplant": 769,
      "ĠUnited": 770,
      "ts": 771,
      "tic": 772,
      "Ġfe": 773,
      "co": 774,
      "ior": 775,
      "ward": 776,
      "Ġve": 777,
      "Ġfl": 778,
      "Ġcont": 779,
      "ire": 780,
      "stem": 781,
      "Ġsur": 782,
      "Ġtw": 783,
      "Ġcharacter": 784,
      "Ġshe": 785,
      "Ġgo": 786,
      "tiv": 787,
      "gan": 788,
      "Ġca": 789,
      "ren": 790,
      "Ġsk": 791,
      "Ġpol": 792,
      "tim": 793,
      "ĠStates": 794,
      "ting": 795,
      "Ġam": 796,
      "ract": 797,
      "ied": 798,
      "ern": 799,
      "Ġclo": 800,
      "Ġrelating": 801,
      "ens": 802,
      "Ġreg": 803,
      "ool": 804,
      "uff": 805,
      "Ġsystem": 806,
      "Ġwater": 807,
      "Ġacc": 808,
      "af": 809,
      "ex": 810,
      "par": 811,
      "pro": 812,
      "Ġcap": 813,
      "Ġinc": 814,
      "Ġmus": 815,
      "ator": 816,
      "ility": 817,
      "urn": 818,
      "Ġwork": 819,
      "ron": 820,
      "Ġus": 821,
      "Ġpre": 822,
      "Ġpos": 823,
      "ellow": 824,
      "Ġeff": 825,
      "ount": 826,
      "istic": 827,
      "rans": 828,
      "pt": 829,
      "ple": 830,
      "Ġpar": 831,
      "Ġtre": 832,
      "act": 833,
      "Ġall": 834,
      "ne": 835,
      "alk": 836,
      "Ġlong": 837,
      "ident": 838,
      "Ġflower": 839,
      "hem": 840,
      "ined": 841,
      "Ġbre": 842,
      "Ġdes": 843,
      "ional": 844,
      "Ġtwo": 845,
      "ax": 846,
      "ds": 847,
      "sc": 848,
      "ouse": 849,
      "Ġinter": 850,
      "ions": 851,
      "vel": 852,
      "Ġem": 853,
      "Ġwhite": 854,
      "yl": 855,
      "inal": 856,
      "Ġwere": 857,
      "Ġev": 858,
      "ather": 859,
      "Ġplay": 860,
      "ĠAmerican": 861,
      "gen": 862,
      "io": 863,
      "ins": 864,
      "Ġhas": 865,
      "Ġob": 866,
      "rown": 867,
      "de": 868,
      "Ġter": 869,
      "Ġver": 870,
      "ature": 871,
      "eral": 872,
      "Ġcur": 873,
      "cess": 874,
      "Ġdown": 875,
      "ash": 876,
      "ural": 877,
      "Ġres": 878,
      "be": 879,
      "ĠK": 880,
      "Ġthey": 881,
      "Ġbody": 882,
      "Ġdist": 883,
      "ved": 884,
      "Ġstud": 885,
      "ange": 886,
      "als": 887,
      "ret": 888,
      "Ġmy": 889,
      "ents": 890,
      "ime": 891,
      "Ġhead": 892,
      "Ġvar": 893,
      "Ġrad": 894,
      "mo": 895,
      "tle": 896,
      "ond": 897,
      "ĠNorth": 898,
      "form": 899,
      "uro": 900,
      "ons": 901,
      "Ġpres": 902,
      "Ġins": 903,
      "sed": 904,
      "Ġmem": 905,
      "astern": 906,
      "Ġhad": 907,
      "ations": 908,
      "Ġunder": 909,
      "Ġmanner": 910,
      "Ġelect": 911,
      "Ġnew": 912,
      "ings": 913,
      "Ġlarge": 914,
      "iel": 915,
      "Ġcent": 916,
      "ality": 917,
      "Ġbut": 918,
      "ced": 919,
      "Ġmar": 920,
      "amp": 921,
      "Ġthan": 922,
      "Ġgra": 923,
      "irc": 924,
      "Ġsomeone": 925,
      "enn": 926,
      "Ġset": 927,
      "iness": 928,
      "oman": 929,
      "Ġmake": 930,
      "Ġstate": 931,
      "Ġref": 932,
      "aceae": 933,
      "Ġblack": 934,
      "gr": 935,
      "ger": 936,
      "sy": 937,
      "Ġir": 938,
      "ina": 939,
      "arp": 940,
      "Ġtrans": 941,
      "erm": 942,
      "Ġinv": 943,
      "Ġbu": 944,
      "Ġbet": 945,
      "Ġorgan": 946,
      "Ġequ": 947,
      "ject": 948,
      "az": 949,
      "ape": 950,
      "gl": 951,
      "ty": 952,
      "head": 953,
      "reg": 954,
      "Ġblo": 955,
      "Ġmade": 956,
      "Ġorder": 957,
      "Ġlang": 958,
      "Ġval": 959,
      "Ġits": 960,
      "Ġnum": 961,
      "Ġatt": 962,
      "Ġlangu": 963,
      "Ġsl": 964,
      "ans": 965,
      "Ġtheir": 966,
      "Ġbr": 967,
      "its": 968,
      "Ġdef": 969,
      "estern": 970,
      "Ġext": 971,
      "und": 972,
      "ople": 973,
      "ction": 974,
      "ology": 975,
      "aur": 976,
      "inc": 977,
      "Ġsol": 978,
      "isc": 979,
      "Ġpass": 980,
      "ung": 981,
      "Ġthis": 982,
      "ization": 983,
      "Ġother": 984,
      "iving": 985,
      "ĠEn": 986,
      "Ġabout": 987,
      "Ġflowers": 988,
      "nd": 989,
      "Ġsec": 990,
      "Ġsch": 991,
      "Ġty": 992,
      "Ġtree": 993,
      "let": 994,
      "Ġcal": 995,
      "Ġbat": 996,
      "ife": 997,
      "ution": 998,
      "Ġprodu": 999,
      "ĠAmerica": 1000,
      "19": 1001,
      "eness": 1002,
      "oup": 1003,
      "arth": 1004,
      "Ġbir": 1005,
      "Ġmin": 1006,
      "Ġmon": 1007,
      "Ġmet": 1008,
      "Ġdo": 1009,
      "oss": 1010,
      "uman": 1011,
      "ogra": 1012,
      "thern": 1013,
      "iation": 1014,
      "tra": 1015,
      "Ġso": 1016,
      "arch": 1017,
      "ital": 1018,
      "Ġmed": 1019,
      "tend": 1020,
      "Ġhigh": 1021,
      "Ġrep": 1022,
      "Ġresp": 1023,
      "ull": 1024,
      "ify": 1025,
      "ev": 1026,
      "rough": 1027,
      "tes": 1028,
      "arb": 1029,
      "Ġfol": 1030,
      "Ġcell": 1031,
      "rel": 1032,
      "ilit": 1033,
      "Ġchild": 1034,
      "Ġyou": 1035,
      "Ġjo": 1036,
      "Ġkn": 1037,
      "cul": 1038,
      "iter": 1039,
      "uch": 1040,
      "way": 1041,
      "Ġ`": 1042,
      "ening": 1043,
      "atory": 1044,
      "Ġcor": 1045,
      "Ġinst": 1046,
      "sem": 1047,
      "ses": 1048,
      "ously": 1049,
      "Ġyellow": 1050,
      "Ġpeople": 1051,
      "Ġconsist": 1052,
      "iqu": 1053,
      "po": 1054,
      "Ġoc": 1055,
      "Ġtime": 1056,
      "Ġcre": 1057,
      "Ġhave": 1058,
      "ĠAl": 1059,
      "Ġcover": 1060,
      "gy": 1061,
      "ov": 1062,
      "sia": 1063,
      "Ġespecially": 1064,
      "Ġnon": 1065,
      "Ġgu": 1066,
      "Ġred": 1067,
      "ift": 1068,
      "ublic": 1069,
      "Ġpoint": 1070,
      "18": 1071,
      "pla": 1072,
      "ton": 1073,
      "Ġpi": 1074,
      "Ġmod": 1075,
      "Ġdin": 1076,
      "Ġdif": 1077,
      "Ġloc": 1078,
      "Ġlight": 1079,
      "taining": 1080,
      "ween": 1081,
      "Ġbetween": 1082,
      "line": 1083,
      "min": 1084,
      "tr": 1085,
      "Ġuse": 1086,
      "aria": 1087,
      "anc": 1088,
      "omic": 1089,
      "roc": 1090,
      "osaur": 1091,
      "uring": 1092,
      "ection": 1093,
      "ai": 1094,
      "au": 1095,
      "gra": 1096,
      "oot": 1097,
      "uter": 1098,
      "ye": 1099,
      "Ġend": 1100,
      "Ġsim": 1101,
      "Ġcity": 1102,
      "Ġinte": 1103,
      "ics": 1104,
      "Ġwind": 1105,
      "Ġmore": 1106,
      "Ġgl": 1107,
      "oll": 1108,
      "Ġyour": 1109,
      "ĠHe": 1110,
      "Ġsurf": 1111,
      "Ġusually": 1112,
      "ograph": 1113,
      "iet": 1114,
      "Ġed": 1115,
      "Ġass": 1116,
      "Ġcr": 1117,
      "rest": 1118,
      "Ġright": 1119,
      "Ġconc": 1120,
      "aking": 1121,
      "Ġoffic": 1122,
      "com": 1123,
      "ease": 1124,
      "ged": 1125,
      "ience": 1126,
      "often": 1127,
      "Ġste": 1128,
      "Ġsound": 1129,
      "Ġcra": 1130,
      "ces": 1131,
      "Ġdoc": 1132,
      "aper": 1133,
      "Ġprog": 1134,
      "Ġshr": 1135,
      "aves": 1136,
      "agn": 1137,
      "Ġcolor": 1138,
      "Ġconsisting": 1139,
      "Ġocc": 1140,
      "..": 1141,
      "med": 1142,
      "ning": 1143,
      "ency": 1144,
      "Ġpur": 1145,
      "hetic": 1146,
      "Ġbel": 1147,
      "Ġwood": 1148,
      "Ġwrit": 1149,
      "Ġanim": 1150,
      "Ġlaw": 1151,
      "Ġlead": 1152,
      "aterial": 1153,
      "ĠTh": 1154,
      "Ġlanguage": 1155,
      "like": 1156,
      "me": 1157,
      "oo": 1158,
      "pose": 1159,
      "ense": 1160,
      "Ġsn": 1161,
      "Ġsw": 1162,
      "ery": 1163,
      "pet": 1164,
      "Ġcer": 1165,
      "Ġbec": 1166,
      "Ġbas": 1167,
      "Ġback": 1168,
      "itch": 1169,
      "Ġhair": 1170,
      "ational": 1171,
      "laim": 1172,
      "Ġthrough": 1173,
      "ormal": 1174,
      "ĠInd": 1175,
      "Ġsupp": 1176,
      "Ġtype": 1177,
      "gal": 1178,
      "sion": 1179,
      "vent": 1180,
      "wh": 1181,
      "Ġsoc": 1182,
      "Ġaf": 1183,
      "Ġair": 1184,
      "ict": 1185,
      "sel": 1186,
      "Ġmis": 1187,
      "Ġgood": 1188,
      "ental": 1189,
      "Ġunit": 1190,
      "Ġarch": 1191,
      "rug": 1192,
      "Ġgroup": 1193,
      "ferent": 1194,
      "ĠY": 1195,
      "ĠZ": 1196,
      "Ġec": 1197,
      "inter": 1198,
      "ork": 1199,
      "atch": 1200,
      "Ġfir": 1201,
      "Ġpartic": 1202,
      "Ġche": 1203,
      "ank": 1204,
      "Ġwill": 1205,
      "Ġdr": 1206,
      "Ġduring": 1207,
      "Ġho": 1208,
      "Ġhy": 1209,
      "Ġhand": 1210,
      "Ġele": 1211,
      "Ġever": 1212,
      "abl": 1213,
      "ump": 1214,
      "ived": 1215,
      "Ġtem": 1216,
      "ĠNew": 1217,
      "Ġcommon": 1218,
      "Ġeffect": 1219,
      "urope": 1220,
      "ield": 1221,
      "dition": 1222,
      "rib": 1223,
      "eck": 1224,
      "Ġbro": 1225,
      "Ġwild": 1226,
      "Ġday": 1227,
      "Ġhuman": 1228,
      "Ġlike": 1229,
      "Ġear": 1230,
      "unk": 1231,
      "imb": 1232,
      "Ġwithout": 1233,
      "ĠAf": 1234,
      "Ġwhen": 1235,
      "ages": 1236,
      "Ġarter": 1237,
      "oney": 1238,
      "Ġphys": 1239,
      "Ġ19": 1240,
      "Ġvein": 1241,
      "Ġcause": 1242,
      "go": 1243,
      "iate": 1244,
      "ms": 1245,
      "ta": 1246,
      "Ġoften": 1247,
      "Ġser": 1248,
      "Ġsal": 1249,
      "ister": 1250,
      "Ġfound": 1251,
      "Ġhim": 1252,
      "unt": 1253,
      "ĠAr": 1254,
      "Ġprov": 1255,
      "Ġye": 1256,
      "Ġdisc": 1257,
      "Ġclass": 1258,
      "Ġschool": 1259,
      "ute": 1260,
      "Ġer": 1261,
      "oral": 1262,
      "Ġple": 1263,
      "aring": 1264,
      "Ġfru": 1265,
      "cep": 1266,
      "Ġmust": 1267,
      "Ġmaterial": 1268,
      "Ġdel": 1269,
      "ush": 1270,
      "urs": 1271,
      "etic": 1272,
      "ude": 1273,
      "Ġwhose": 1274,
      "Ġplace": 1275,
      "Ġarea": 1276,
      "Ġquality": 1277,
      "Ġcoll": 1278,
      "bling": 1279,
      "board": 1280,
      "aid": 1281,
      "uns": 1282,
      "ving": 1283,
      "wood": 1284,
      "ination": 1285,
      "Ġsing": 1286,
      "Ġsun": 1287,
      "order": 1288,
      "Ġpop": 1289,
      "Ġtake": 1290,
      "ected": 1291,
      "ines": 1292,
      "Ġcirc": 1293,
      "ann": 1294,
      "omy": 1295,
      "olum": 1296,
      "urb": 1297,
      "ulation": 1298,
      "Ġonly": 1299,
      "ified": 1300,
      "Ġlet": 1301,
      "Ġleaves": 1302,
      "Ġsever": 1303,
      "Ġdisease": 1304,
      "Ġground": 1305,
      "ification": 1306,
      "Ġposition": 1307,
      "Ġbuild": 1308,
      "ales": 1309,
      "gre": 1310,
      "iod": 1311,
      "rum": 1312,
      "Ġsil": 1313,
      "Ġcount": 1314,
      "read": 1315,
      "Ġdra": 1316,
      "Ġhard": 1317,
      "Ġhouse": 1318,
      "ters": 1319,
      "olic": 1320,
      "vern": 1321,
      "ops": 1322,
      "stant": 1323,
      "Ġvi": 1324,
      "apt": 1325,
      "Ġproper": 1326,
      "Ġacid": 1327,
      "ĠEurope": 1328,
      "ried": 1329,
      "ship": 1330,
      "Ġgrass": 1331,
      "Ġaction": 1332,
      "Ġgreat": 1333,
      "Ġpolit": 1334,
      "ilitary": 1335,
      "Ġsurface": 1336,
      "Ġshrub": 1337,
      "aped": 1338,
      "dle": 1339,
      "rong": 1340,
      "Ġten": 1341,
      "Ġsign": 1342,
      "ores": 1343,
      "Ġpal": 1344,
      "Ġpress": 1345,
      "Ġtru": 1346,
      "Ġcle": 1347,
      "Ġbran": 1348,
      "omen": 1349,
      "Ġwar": 1350,
      "Ġann": 1351,
      "ability": 1352,
      "Ġhem": 1353,
      "akes": 1354,
      "Ġdev": 1355,
      "Ġbook": 1356,
      "Ġplants": 1357,
      "Ġcharacteristic": 1358,
      "Ġgovern": 1359,
      "Ġtrees": 1360,
      "Ġdesign": 1361,
      "Ġvarious": 1362,
      "Ġdifferent": 1363,
      "ges": 1364,
      "ox": 1365,
      "pit": 1366,
      "til": 1367,
      "uit": 1368,
      "Ġ-": 1369,
      "Ġfil": 1370,
      "ication": 1371,
      "Ġbal": 1372,
      "omb": 1373,
      "ceae": 1374,
      "Ġmark": 1375,
      "Ġhold": 1376,
      "Ġland": 1377,
      "Ġliving": 1378,
      "ider": 1379,
      "Ġresem": 1380,
      "Ġwhere": 1381,
      "ĠSouth": 1382,
      "Ġbeh": 1383,
      "ression": 1384,
      "Ġpower": 1385,
      "ological": 1386,
      "Ġsuper": 1387,
      "Ġmove": 1388,
      "Ġspecial": 1389,
      "Ġfollow": 1390,
      "cing": 1391,
      "ctive": 1392,
      "gar": 1393,
      "hy": 1394,
      "ius": 1395,
      "rip": 1396,
      "Ġsouth": 1397,
      "Ġpain": 1398,
      "ato": 1399,
      "erman": 1400,
      "heastern": 1401,
      "Ġmoney": 1402,
      "Ġano": 1403,
      "ask": 1404,
      "rate": 1405,
      "Ġlack": 1406,
      "Ġrest": 1407,
      "Ġadv": 1408,
      "loc": 1409,
      "Ġship": 1410,
      "Ġshort": 1411,
      "Ġdep": 1412,
      "Ġrock": 1413,
      "Ġcharacterized": 1414,
      "sych": 1415,
      "glish": 1416,
      "Ġgovernment": 1417,
      "00": 1418,
      "ho": 1419,
      "py": 1420,
      "rus": 1421,
      "rial": 1422,
      "ries": 1423,
      "ven": 1424,
      "Ġke": 1425,
      "ison": 1426,
      "Ġpost": 1427,
      "Ġpublic": 1428,
      "atural": 1429,
      "Ġfun": 1430,
      "Ġfact": 1431,
      "rew": 1432,
      "Ġbef": 1433,
      "Ġbra": 1434,
      "Ġbase": 1435,
      "Ġbrown": 1436,
      "Ġmat": 1437,
      "Ġmost": 1438,
      "asm": 1439,
      "ury": 1440,
      "Ġread": 1441,
      "amm": 1442,
      "Ġcontaining": 1443,
      "Ġoper": 1444,
      "Ġoil": 1445,
      "Ġless": 1446,
      "Ġsea": 1447,
      "resh": 1448,
      "Ġafter": 1449,
      "che": 1450,
      "cent": 1451,
      "fl": 1452,
      "mit": 1453,
      "ration": 1454,
      "tl": 1455,
      "Ġif": 1456,
      "orld": 1457,
      "ata": 1458,
      "Ġfire": 1459,
      "Ġcat": 1460,
      "ingly": 1461,
      "Ġwell": 1462,
      "Ġdir": 1463,
      "Ġdrug": 1464,
      "tent": 1465,
      "asure": 1466,
      "urch": 1467,
      "Ġstra": 1468,
      "ĠShe": 1469,
      "Ġexc": 1470,
      "Ġactiv": 1471,
      "Ġcomb": 1472,
      "airs": 1473,
      "rench": 1474,
      "Ġcentral": 1475,
      "ĠEnglish": 1476,
      "Ġanother": 1477,
      "gin": 1478,
      "gle": 1479,
      "ix": 1480,
      "sk": 1481,
      "sible": 1482,
      "water": 1483,
      "enter": 1484,
      "Ġside": 1485,
      "Ġswe": 1486,
      "ould": 1487,
      "Ġcy": 1488,
      "Ġcorn": 1489,
      "reet": 1490,
      "ities": 1491,
      "Ġdry": 1492,
      "Ġru": 1493,
      "stit": 1494,
      "otion": 1495,
      "antic": 1496,
      "Ġvo": 1497,
      "ĠWorld": 1498,
      "Ġherb": 1499,
      "Ġrecord": 1500,
      "ivers": 1501,
      "ophy": 1502,
      "Ġpiec": 1503,
      "aff": 1504,
      "des": 1505,
      "ief": 1506,
      "iant": 1507,
      "uck": 1508,
      "Ġest": 1509,
      "Ġold": 1510,
      "oft": 1511,
      "tered": 1512,
      "inary": 1513,
      "Ġsou": 1514,
      "Ġsel": 1515,
      "ony": 1516,
      "Ġpat": 1517,
      "erate": 1518,
      "Ġfood": 1519,
      "Ġnar": 1520,
      "Ġbi": 1521,
      "Ġbar": 1522,
      "Ġanti": 1523,
      "asc": 1524,
      "illa": 1525,
      "usually": 1526,
      "Ġearth": 1527,
      "Ġret": 1528,
      "ably": 1529,
      "Ġconf": 1530,
      "ively": 1531,
      "que": 1532,
      "Ġchange": 1533,
      "Ġsex": 1534,
      "ruct": 1535,
      "Ġrelig": 1536,
      "Ġteach": 1537,
      "Ġeng": 1538,
      "Ġprec": 1539,
      "ission": 1540,
      "Ġflat": 1541,
      "Ġnumber": 1542,
      "Ġmetal": 1543,
      "ball": 1544,
      "eth": 1545,
      "ler": 1546,
      "over": 1547,
      "por": 1548,
      "ris": 1549,
      "wn": 1550,
      "Ġour": 1551,
      "Ġsout": 1552,
      "Ġserv": 1553,
      "Ġaff": 1554,
      "Ġpot": 1555,
      "Ġtrop": 1556,
      "Ġfree": 1557,
      "lex": 1558,
      "itation": 1559,
      "aster": 1560,
      "Ġgrow": 1561,
      "oler": 1562,
      "Ġliqu": 1563,
      "Ġcondition": 1564,
      "Ġshow": 1565,
      "Ġleaf": 1566,
      "ives": 1567,
      "duct": 1568,
      "Ġperiod": 1569,
      "Ġclose": 1570,
      "velop": 1571,
      "Ġcertain": 1572,
      "ĠAfric": 1573,
      "Ġyear": 1574,
      "'t": 1575,
      "ier": 1576,
      "lor": 1577,
      "ling": 1578,
      "nam": 1579,
      "ping": 1580,
      "rec": 1581,
      "Ġz": 1582,
      "tero": 1583,
      "ened": 1584,
      "Ġaway": 1585,
      "Ġfer": 1586,
      "Ġface": 1587,
      "Ġthem": 1588,
      "Ġband": 1589,
      "Ġgold": 1590,
      "entral": 1591,
      "rable": 1592,
      "Ġep": 1593,
      "Ġremo": 1594,
      "Ġprote": 1595,
      "ibility": 1596,
      "Ġseed": 1597,
      "Ġarm": 1598,
      "resp": 1599,
      "Ġenc": 1600,
      "Ġprof": 1601,
      "Ġperform": 1602,
      "lands": 1603,
      "ucle": 1604,
      "Ġindust": 1605,
      "Ġblood": 1606,
      "Ġlocal": 1607,
      "Ġbefore": 1608,
      "ah": 1609,
      "get": 1610,
      "ha": 1611,
      "mon": 1612,
      "oh": 1613,
      "tor": 1614,
      "Ġsle": 1615,
      "Ġsour": 1616,
      "ishes": 1617,
      "orthern": 1618,
      "Ġpast": 1619,
      "ective": 1620,
      "Ġcro": 1621,
      "ices": 1622,
      "Ġbur": 1623,
      "cept": 1624,
      "Ġmagn": 1625,
      "Ġdiv": 1626,
      "Ġdark": 1627,
      "Ġgas": 1628,
      "Ġtoward": 1629,
      "olate": 1630,
      "action": 1631,
      "ately": 1632,
      "abor": 1633,
      "Ġstar": 1634,
      "iron": 1635,
      "ott": 1636,
      "ĠAn": 1637,
      "ĠAsia": 1638,
      "Ġthere": 1639,
      "Ġprop": 1640,
      "Ġprocess": 1641,
      "ĠBrit": 1642,
      "athing": 1643,
      "reek": 1644,
      "oked": 1645,
      "ressive": 1646,
      "Ġapp": 1647,
      "Ġmany": 1648,
      "Ġgreen": 1649,
      "Ġinfl": 1650,
      "Ġinform": 1651,
      "Ġvery": 1652,
      "Ġmember": 1653,
      "Ġelement": 1654,
      "Ġartery": 1655,
      "Ġfruit": 1656,
      "Ġseveral": 1657,
      "Ġsouthern": 1658,
      "ched": 1659,
      "tal": 1660,
      "uth": 1661,
      "western": 1662,
      "Ġuns": 1663,
      "ene": 1664,
      "ender": 1665,
      "inct": 1666,
      "Ġsuc": 1667,
      "ished": 1668,
      "orrow": 1669,
      "erve": 1670,
      "pear": 1671,
      "ley": 1672,
      "ountain": 1673,
      "icient": 1674,
      "oms": 1675,
      "Ġwestern": 1676,
      "Ġanal": 1677,
      "Ġget": 1678,
      "ently": 1679,
      "Ġlow": 1680,
      "tid": 1681,
      "ides": 1682,
      "une": 1683,
      "osis": 1684,
      "opod": 1685,
      "iment": 1686,
      "ula": 1687,
      "Ġrun": 1688,
      "ĠCon": 1689,
      "Ġjud": 1690,
      "ressed": 1691,
      "Ġplan": 1692,
      "Ġroom": 1693,
      "Ġblue": 1694,
      "shaped": 1695,
      "icket": 1696,
      "Ġfeel": 1697,
      "Ġcaused": 1698,
      "Ġmemb": 1699,
      "Ġwritten": 1700,
      "Ġsoutheastern": 1701,
      "ek": 1702,
      "mat": 1703,
      "ps": 1704,
      "rat": 1705,
      "rent": 1706,
      "sl": 1707,
      "sis": 1708,
      "ze": 1709,
      "off": 1710,
      "Ġaut": 1711,
      "ision": 1712,
      "Ġput": 1713,
      "Ġpract": 1714,
      "Ġpsych": 1715,
      "Ġfat": 1716,
      "pel": 1717,
      "Ġcoc": 1718,
      "Ġcall": 1719,
      "Ġnatural": 1720,
      "ream": 1721,
      "Ġway": 1722,
      "Ġwool": 1723,
      "Ġmaking": 1724,
      "Ġdam": 1725,
      "Ġang": 1726,
      "Ġhor": 1727,
      "ilk": 1728,
      "Ġtop": 1729,
      "Ġlife": 1730,
      "tig": 1731,
      "Ġeastern": 1732,
      "thod": 1733,
      "imp": 1734,
      "amb": 1735,
      "Ġstand": 1736,
      "ĠSe": 1737,
      "aker": 1738,
      "position": 1739,
      "Ġexper": 1740,
      "Ġsem": 1741,
      "ances": 1742,
      "rick": 1743,
      "Ġcoast": 1744,
      "ĠWe": 1745,
      "Ġagree": 1746,
      "Ġincre": 1747,
      "Ġinvol": 1748,
      "Ġsocial": 1749,
      "Ġbuilding": 1750,
      "Ġbranch": 1751,
      "Ġdevice": 1752,
      "Ġtropical": 1753,
      "aud": 1754,
      "cle": 1755,
      "col": 1756,
      "ding": 1757,
      "gth": 1758,
      "gest": 1759,
      "na": 1760,
      "oe": 1761,
      "och": 1762,
      "thes": 1763,
      "Ġent": 1764,
      "Ġident": 1765,
      "ented": 1766,
      "aret": 1767,
      "Ġturn": 1768,
      "ert": 1769,
      "eful": 1770,
      "Ġce": 1771,
      "Ġcomple": 1772,
      "Ġcab": 1773,
      "Ġcour": 1774,
      "ana": 1775,
      "Ġnight": 1776,
      "Ġname": 1777,
      "Ġnorthern": 1778,
      "Ġinh": 1779,
      "reme": 1780,
      "icate": 1781,
      "Ġwoman": 1782,
      "Ġmer": 1783,
      "Ġtown": 1784,
      "tif": 1785,
      "ties": 1786,
      "Ġey": 1787,
      "Ġeye": 1788,
      "Ġheart": 1789,
      "Ġdeter": 1790,
      "Ġdevelop": 1791,
      "Ġexpl": 1792,
      "Ġaround": 1793,
      "rane": 1794,
      "Ġenter": 1795,
      "ĠGerman": 1796,
      "Ġprim": 1797,
      "Ġworn": 1798,
      "oken": 1799,
      "osed": 1800,
      "icken": 1801,
      "ought": 1802,
      "fulness": 1803,
      "Ġskin": 1804,
      "ennial": 1805,
      "Ġfirst": 1806,
      "Ġevery": 1807,
      "Ġresembling": 1808,
      "Ġsuperior": 1809,
      "born": 1810,
      "car": 1811,
      "ft": 1812,
      "fect": 1813,
      "fish": 1814,
      "iated": 1815,
      "oid": 1816,
      "oke": 1817,
      "ror": 1818,
      "rance": 1819,
      "sian": 1820,
      "uous": 1821,
      "work": 1822,
      "ining": 1823,
      "inated": 1824,
      "ised": 1825,
      "atin": 1826,
      "Ġfarm": 1827,
      "Ġfron": 1828,
      "Ġfield": 1829,
      "het": 1830,
      "Ġformer": 1831,
      "Ġbit": 1832,
      "omm": 1833,
      "itting": 1834,
      "itude": 1835,
      "Ġmain": 1836,
      "Ġdia": 1837,
      "Ġdog": 1838,
      "tention": 1839,
      "rol": 1840,
      "Ġhome": 1841,
      "Ġgar": 1842,
      "Ġgive": 1843,
      "ray": 1844,
      "Ġlit": 1845,
      "ids": 1846,
      "iaceae": 1847,
      "Ġchoc": 1848,
      "Ġthin": 1849,
      "Ġdeal": 1850,
      "rich": 1851,
      "ĠPh": 1852,
      "Ġtest": 1853,
      "ysis": 1854,
      "Ġcompos": 1855,
      "coh": 1856,
      "Ġregion": 1857,
      "Ġcapable": 1858,
      "Ġtreat": 1859,
      "Ġiron": 1860,
      "ĠEng": 1861,
      "tended": 1862,
      "Ġprogram": 1863,
      "Ġactivity": 1864,
      "Ġestabl": 1865,
      "ĠBritish": 1866,
      "17": 1867,
      "aul": 1868,
      "bel": 1869,
      "ches": 1870,
      "iable": 1871,
      "jo": 1872,
      "mic": 1873,
      "most": 1874,
      "val": 1875,
      "yle": 1876,
      "zy": 1877,
      "Ġes": 1878,
      "inted": 1879,
      "Ġsame": 1880,
      "Ġsoft": 1881,
      "ont": 1882,
      "era": 1883,
      "ecu": 1884,
      "Ġfoot": 1885,
      "Ġcenter": 1886,
      "echan": 1887,
      "ally": 1888,
      "Ġnative": 1889,
      "Ġnormal": 1890,
      "Ġint": 1891,
      "rete": 1892,
      "Ġbab": 1893,
      "Ġball": 1894,
      "Ġdu": 1895,
      "Ġdig": 1896,
      "Ġdet": 1897,
      "Ġanest": 1898,
      "asp": 1899,
      "lying": 1900,
      "Ġgame": 1901,
      "Ġrem": 1902,
      "Ġadj": 1903,
      "ird": 1904,
      "umb": 1905,
      "ĠSh": 1906,
      "iforn": 1907,
      "lap": 1908,
      "Ġchief": 1909,
      "Ġthings": 1910,
      "Ġbeen": 1911,
      "app": 1912,
      "Ġopen": 1913,
      "ures": 1914,
      "Ġdeb": 1915,
      "Ġdeep": 1916,
      "Ġleg": 1917,
      "ĠMar": 1918,
      "iven": 1919,
      "Ġimm": 1920,
      "Ġenv": 1921,
      "ternal": 1922,
      "Ġperennial": 1923,
      "Ġmeasure": 1924,
      "Ġbox": 1925,
      "Ġagain": 1926,
      "Ġlower": 1927,
      "prof": 1928,
      "prec": 1929,
      "ensive": 1930,
      "Ġmusical": 1931,
      "Ġresult": 1932,
      "Ġwindow": 1933,
      "Ġphysical": 1934,
      "Ġsingle": 1935,
      "green": 1936,
      "Ġpolitical": 1937,
      "Ġlacking": 1938,
      "Ġnarrow": 1939,
      "ohn": 1940,
      "bur": 1941,
      "den": 1942,
      "dro": 1943,
      "gg": 1944,
      "gn": 1945,
      "gon": 1946,
      "hold": 1947,
      "ove": 1948,
      "put": 1949,
      "ria": 1950,
      "sm": 1951,
      "sub": 1952,
      "side": 1953,
      "tis": 1954,
      "Ġ;": 1955,
      "Ġsug": 1956,
      "Ġpen": 1957,
      "Ġprom": 1958,
      "Ġpaper": 1959,
      "Ġfac": 1960,
      "hel": 1961,
      "Ġcomplete": 1962,
      "Ġnorth": 1963,
      "Ġnucle": 1964,
      "Ġbus": 1965,
      "set": 1966,
      "Ġmilk": 1967,
      "Ġorig": 1968,
      "iddle": 1969,
      "acific": 1970,
      "Ġadd": 1971,
      "abit": 1972,
      "Ġstruct": 1973,
      "ither": 1974,
      "Ġconver": 1975,
      "ocy": 1976,
      "ists": 1977,
      "ipl": 1978,
      "Ġspoken": 1979,
      "Ġshape": 1980,
      "udent": 1981,
      "aint": 1982,
      "astic": 1983,
      "Ġgeneral": 1984,
      "Ġju": 1985,
      "Ġjust": 1986,
      "Ġprinc": 1987,
      "Ġmeet": 1988,
      "Ġoffice": 1989,
      "Ġcomputer": 1990,
      "Ġrece": 1991,
      "Ġconsider": 1992,
      "Ġsubject": 1993,
      "Ġfloor": 1994,
      "Ġcontin": 1995,
      "times": 1996,
      "uffer": 1997,
      "Ġcells": 1998,
      "Ġsupport": 1999,
      "Ġcountry": 2000,
      "Ġproperty": 2001,
      "Ġsource": 2002,
      "ĠEngland": 2003,
      "Ġprincip": 2004,
      "br": 2005,
      "comp": 2006,
      "gu": 2007,
      "rical": 2008,
      "tu": 2009,
      "well": 2010,
      "Ġill": 2011,
      "inate": 2012,
      "onic": 2013,
      "ones": 2014,
      "onent": 2015,
      "Ġpack": 2016,
      "Ġport": 2017,
      "atus": 2018,
      "Ġtalk": 2019,
      "erry": 2020,
      "Ġfresh": 2021,
      "ouble": 2022,
      "eft": 2023,
      "Ġcard": 2024,
      "Ġchem": 2025,
      "Ġspeak": 2026,
      "Ġnerve": 2027,
      "Ġincl": 2028,
      "Ġtheory": 2029,
      "Ġbring": 2030,
      "itive": 2031,
      "Ġwide": 2032,
      "Ġmilitary": 2033,
      "ason": 2034,
      "Ġge": 2035,
      "terior": 2036,
      "rag": 2037,
      "olf": 2038,
      "Ġline": 2039,
      "Ġlay": 2040,
      "tible": 2041,
      "Ġet": 2042,
      "thy": 2043,
      "urity": 2044,
      "Ġreal": 2045,
      "change": 2046,
      "adem": 2047,
      "loy": 2048,
      "Ġstone": 2049,
      "otic": 2050,
      "ĠAtl": 2051,
      "ĠSc": 2052,
      "lav": 2053,
      "ĠCal": 2054,
      "Ġunp": 2055,
      "avy": 2056,
      "ival": 2057,
      "ivil": 2058,
      "Ġart": 2059,
      "Ġsometimes": 2060,
      "Ġyoun": 2061,
      "ĠPacific": 2062,
      "ffic": 2063,
      "ressing": 2064,
      "ĠRiver": 2065,
      "atively": 2066,
      "Ġmeat": 2067,
      "Ġquant": 2068,
      "Ġappear": 2069,
      "berry": 2070,
      "Ġformed": 2071,
      "ĠJohn": 2072,
      "Ġsubst": 2073,
      "Ġspecies": 2074,
      "Ġstudents": 2075,
      "grass": 2076,
      "Ġbird": 2077,
      "Ġcovered": 2078,
      "Ġmodern": 2079,
      "Ġintell": 2080,
      "Ġoccur": 2081,
      "...": 2082,
      "Ġpurpose": 2083,
      "Ġparticular": 2084,
      "Ġtemper": 2085,
      "ĠEuropean": 2086,
      "Ġpressure": 2087,
      "Ġadvance": 2088,
      "Ġpiece": 2089,
      "Ġreligious": 2090,
      "ĠAfrica": 2091,
      "Ġsleep": 2092,
      "Ġinformation": 2093,
      "Ġincrease": 2094,
      "Ġchocolate": 2095,
      "bon": 2096,
      "bre": 2097,
      "cer": 2098,
      "dec": 2099,
      "day": 2100,
      "ey": 2101,
      "fort": 2102,
      "hip": 2103,
      "ny": 2104,
      "rig": 2105,
      "sup": 2106,
      "worm": 2107,
      "worth": 2108,
      "Ġ2": 2109,
      "Ġide": 2110,
      "test": 2111,
      "inite": 2112,
      "Ġaver": 2113,
      "Ġauth": 2114,
      "Ġpink": 2115,
      "arous": 2116,
      "ativ": 2117,
      "erable": 2118,
      "Ġfre": 2119,
      "Ġfly": 2120,
      "Ġfig": 2121,
      "artment": 2122,
      "Ġclaim": 2123,
      "any": 2124,
      "anic": 2125,
      "ounce": 2126,
      "inger": 2127,
      "Ġbacter": 2128,
      "Ġsym": 2129,
      "Ġmale": 2130,
      "Ġder": 2131,
      "roph": 2132,
      "Ġharm": 2133,
      "Ġsens": 2134,
      "Ġglo": 2135,
      "Ġgiven": 2136,
      "olution": 2137,
      "Ġegg": 2138,
      "Ġrequ": 2139,
      "elic": 2140,
      "char": 2141,
      "ama": 2142,
      "lower": 2143,
      "Ġstring": 2144,
      "Ġstrong": 2145,
      "odium": 2146,
      "jection": 2147,
      "iform": 2148,
      "Ġspir": 2149,
      "ects": 2150,
      "essional": 2151,
      "avior": 2152,
      "Ġexam": 2153,
      "ogn": 2154,
      "ĠMy": 2155,
      "ĠMex": 2156,
      "ĠBra": 2157,
      "Ġrelated": 2158,
      "Ġtele": 2159,
      "Ġworld": 2160,
      "ĠRoman": 2161,
      "Ġking": 2162,
      "Ġclimb": 2163,
      "ĠFrench": 2164,
      "black": 2165,
      "Ġmother": 2166,
      "ĠChina": 2167,
      "Ġgrey": 2168,
      "Ġnoise": 2169,
      "anese": 2170,
      "Ġnear": 2171,
      "Ġneed": 2172,
      "Ġcapital": 2173,
      "Ġobs": 2174,
      "Ġterm": 2175,
      "Ġblock": 2176,
      "Ġattack": 2177,
      "relation": 2178,
      "iety": 2179,
      "Ġofficial": 2180,
      "Ġdoctor": 2181,
      "Ġanimals": 2182,
      "ĠThis": 2183,
      "Ġecl": 2184,
      "Ġsalt": 2185,
      "olume": 2186,
      "Ġview": 2187,
      "Ġpalm": 2188,
      "Ġfilm": 2189,
      "Ġbehavior": 2190,
      "Ġsexual": 2191,
      "Ġengine": 2192,
      "Ġpotato": 2193,
      "Ġdevelopment": 2194,
      "ifornia": 2195,
      "Ġetc": 2196,
      "ĠMexic": 2197,
      ");": 2198,
      "aj": 2199,
      "aten": 2200,
      "cient": 2201,
      "eal": 2202,
      "greg": 2203,
      "ming": 2204,
      "part": 2205,
      "wan": 2206,
      "yp": 2207,
      "Ġsti": 2208,
      "Ġsqu": 2209,
      "ors": 2210,
      "orous": 2211,
      "Ġpay": 2212,
      "arn": 2213,
      "atal": 2214,
      "Ġtiss": 2215,
      "Ġfra": 2216,
      "Ġfab": 2217,
      "Ġfall": 2218,
      "Ġfem": 2219,
      "Ġfung": 2220,
      "Ġfull": 2221,
      "oud": 2222,
      "leg": 2223,
      "Ġcut": 2224,
      "alt": 2225,
      "icy": 2226,
      "Ġbug": 2227,
      "Ġbarb": 2228,
      "Ġbott": 2229,
      "oment": 2230,
      "itis": 2231,
      "Ġwil": 2232,
      "Ġmol": 2233,
      "Ġmass": 2234,
      "Ġmountain": 2235,
      "Ġancient": 2236,
      "Ġhal": 2237,
      "Ġhot": 2238,
      "Ġhour": 2239,
      "Ġhang": 2240,
      "Ġgod": 2241,
      "iling": 2242,
      "illed": 2243,
      "Ġlim": 2244,
      "Ġlog": 2245,
      "tial": 2246,
      "Ġeither": 2247,
      "ided": 2248,
      "osing": 2249,
      "ache": 2250,
      "acious": 2251,
      "ultiv": 2252,
      "lock": 2253,
      "Ġrat": 2254,
      "Ġrid": 2255,
      "Ġconstant": 2256,
      "Ġhell": 2257,
      "Ġunivers": 2258,
      "Ġther": 2259,
      "apor": 2260,
      "Ġlegal": 2261,
      "ĠMal": 2262,
      "iance": 2263,
      "estion": 2264,
      "Ġallow": 2265,
      "phal": 2266,
      "rict": 2267,
      "Ġrace": 2268,
      "Ġwords": 2269,
      "rier": 2270,
      "Ġkind": 2271,
      "ieve": 2272,
      "weed": 2273,
      "Ġagent": 2274,
      "clus": 2275,
      "Ġimport": 2276,
      "ĠOld": 2277,
      "Ġtrip": 2278,
      "Ġcommun": 2279,
      "inking": 2280,
      "Ġcontrol": 2281,
      "Ġskill": 2282,
      "Ġaccord": 2283,
      "exp": 2284,
      "Ġmusic": 2285,
      "Ġprepar": 2286,
      "Ġnewsp": 2287,
      "Ġvalu": 2288,
      "Ġextreme": 2289,
      "Ġcalcul": 2290,
      "Ġbattle": 2291,
      "Ġbirth": 2292,
      "Ġrespons": 2293,
      "Ġdinner": 2294,
      "Ġconcern": 2295,
      "Ġbecome": 2296,
      "Ġecon": 2297,
      "Ġdeliver": 2298,
      "Ġviol": 2299,
      "Ġfunction": 2300,
      "Ġindustrial": 2301,
      "Ġsuccess": 2302,
      "Ġsugar": 2303,
      "ĠAtlantic": 2304,
      "Ġyoung": 2305,
      "Ch": 2306,
      "ait": 2307,
      "cal": 2308,
      "disc": 2309,
      "ik": 2310,
      "kn": 2311,
      "rist": 2312,
      "sor": 2313,
      "vi": 2314,
      "ves": 2315,
      "ying": 2316,
      "Ġ3": 2317,
      "Ġtend": 2318,
      "tel": 2319,
      "Ġsuch": 2320,
      "Ġage": 2321,
      "onor": 2322,
      "Ġtub": 2323,
      "Ġtail": 2324,
      "erous": 2325,
      "ergy": 2326,
      "Ġfib": 2327,
      "Ġfish": 2328,
      "Ġfern": 2329,
      "oul": 2330,
      "Ġcry": 2331,
      "Ġcase": 2332,
      "Ġcord": 2333,
      "anal": 2334,
      "ald": 2335,
      "Ġforce": 2336,
      "Ġben": 2337,
      "Ġbest": 2338,
      "Ġsyn": 2339,
      "Ġmas": 2340,
      "Ġmut": 2341,
      "Ġdest": 2342,
      "ilar": 2343,
      "Ġtoge": 2344,
      "Ġtook": 2345,
      "Ġleft": 2346,
      "under": 2347,
      "Ġreaction": 2348,
      "ading": 2349,
      "amy": 2350,
      "Ġstage": 2351,
      "Ġstreet": 2352,
      "odies": 2353,
      "Ġround": 2354,
      "stic": 2355,
      "antly": 2356,
      "Ġheavy": 2357,
      "Ġvit": 2358,
      "Ġchang": 2359,
      "Ġtherm": 2360,
      "Ġspot": 2361,
      "Ġsho": 2362,
      "Ġdeath": 2363,
      "Ġox": 2364,
      "ĠMus": 2365,
      "Ġsepar": 2366,
      "Ġalcoh": 2367,
      "ustral": 2368,
      "Ġimper": 2369,
      "Ġroof": 2370,
      "ĠLe": 2371,
      "Ġmeans": 2372,
      "Ġappl": 2373,
      "Ġboard": 2374,
      "Ġclub": 2375,
      "plant": 2376,
      "box": 2377,
      "ulture": 2378,
      "Ġclothes": 2379,
      "Ġobject": 2380,
      "Ġbright": 2381,
      "Ġdoor": 2382,
      "Ġchildren": 2383,
      "Ġinstrum": 2384,
      "ova": 2385,
      "Ġdinosaur": 2386,
      "Ġedible": 2387,
      "Ġcrab": 2388,
      "Ġanimal": 2389,
      "Ġleader": 2390,
      "white": 2391,
      "icture": 2392,
      "self": 2393,
      "Ġgoods": 2394,
      "Ġshrubs": 2395,
      "Ġdesigned": 2396,
      "Ġsouthwestern": 2397,
      "Ġfactor": 2398,
      "Ġliquid": 2399,
      "ĠCalifornia": 2400,
      "Ġtogether": 2401,
      "bi": 2402,
      "by": 2403,
      "bor": 2404,
      "dis": 2405,
      "eter": 2406,
      "gative": 2407,
      "her": 2408,
      "hand": 2409,
      "iating": 2410,
      "ma": 2411,
      "my": 2412,
      "mus": 2413,
      "no": 2414,
      "oy": 2415,
      "oly": 2416,
      "oil": 2417,
      "pare": 2418,
      "rim": 2419,
      "sec": 2420,
      "top": 2421,
      "take": 2422,
      "zz": 2423,
      "ĠX": 2424,
      "Ġown": 2425,
      "ena": 2426,
      "inn": 2427,
      "Ġsuffer": 2428,
      "Ġach": 2429,
      "isten": 2430,
      "Ġpark": 2431,
      "Ġtax": 2432,
      "Ġfin": 2433,
      "Ġfast": 2434,
      "lease": 2435,
      "Ġcop": 2436,
      "Ġcred": 2437,
      "Ġcock": 2438,
      "Ġcultiv": 2439,
      "Ġnow": 2440,
      "Ġintended": 2441,
      "icial": 2442,
      "oma": 2443,
      "omat": 2444,
      "omer": 2445,
      "Ġwhat": 2446,
      "Ġwet": 2447,
      "Ġmill": 2448,
      "Ġmuch": 2449,
      "Ġdi": 2450,
      "using": 2451,
      "raft": 2452,
      "olia": 2453,
      "verse": 2454,
      "Ġlabor": 2455,
      "idi": 2456,
      "thers": 2457,
      "acy": 2458,
      "ached": 2459,
      "Ġrepro": 2460,
      "els": 2461,
      "ima": 2462,
      "cher": 2463,
      "ulate": 2464,
      "ets": 2465,
      "ady": 2466,
      "ames": 2467,
      "Ġstick": 2468,
      "Ġstock": 2469,
      "otional": 2470,
      "ĠSec": 2471,
      "istically": 2472,
      "ants": 2473,
      "quence": 2474,
      "Ġvic": 2475,
      "Ġvolume": 2476,
      "Ġthree": 2477,
      "Ġbearing": 2478,
      "Ġbegin": 2479,
      "Ġsharp": 2480,
      "romatic": 2481,
      "ments": 2482,
      "ogen": 2483,
      "astric": 2484,
      "rys": 2485,
      "Ġdiss": 2486,
      "range": 2487,
      "ransp": 2488,
      "ĠHel": 2489,
      "Ġimpos": 2490,
      "Ġroad": 2491,
      "Ġplaced": 2492,
      "ĠRus": 2493,
      "ĠWar": 2494,
      "Ġweather": 2495,
      "ĠJap": 2496,
      "Ġphen": 2497,
      "ĠChurch": 2498,
      "Ġflu": 2499,
      "neum": 2500,
      "Ġbreathing": 2501,
      "genus": 2502,
      "Ġtransfer": 2503,
      "Ġrespon": 2504,
      "Ġjoy": 2505,
      "Ġknow": 2506,
      "Ġsimilar": 2507,
      "Ġinterest": 2508,
      "Ġglass": 2509,
      "Ġassoc": 2510,
      "Ġcrack": 2511,
      "Ġwriting": 2512,
      "posed": 2513,
      "Ġbroad": 2514,
      "Ġearly": 2515,
      "Ġpoppy": 2516,
      "Ġsilver": 2517,
      "Ġmarked": 2518,
      "Ġfollowing": 2519,
      "ript": 2520,
      "Ġself": 2521,
      "Ġstandard": 2522,
      "Ġfront": 2523,
      "Ġauthor": 2524,
      "aver": 2525,
      "aug": 2526,
      "bu": 2527,
      "bat": 2528,
      "bit": 2529,
      "crib": 2530,
      "ele": 2531,
      "fe": 2532,
      "fly": 2533,
      "iatory": 2534,
      "lar": 2535,
      "mis": 2536,
      "not": 2537,
      "oth": 2538,
      "pre": 2539,
      "rup": 2540,
      "sin": 2541,
      "uence": 2542,
      "zer": 2543,
      "Ġsac": 2544,
      "Ġsand": 2545,
      "Ġslow": 2546,
      "Ġsorrow": 2547,
      "Ġsodium": 2548,
      "orad": 2549,
      "Ġpit": 2550,
      "Ġiss": 2551,
      "Ġisland": 2552,
      "Ġtim": 2553,
      "Ġtip": 2554,
      "Ġtall": 2555,
      "Ġfur": 2556,
      "Ġfile": 2557,
      "Ġfurn": 2558,
      "Ġfinal": 2559,
      "heast": 2560,
      "Ġcou": 2561,
      "Ġcot": 2562,
      "Ġcivil": 2563,
      "aning": 2564,
      "anus": 2565,
      "reen": 2566,
      "ounter": 2567,
      "icism": 2568,
      "ingu": 2569,
      "Ġbul": 2570,
      "Ġborder": 2571,
      "omet": 2572,
      "omach": 2573,
      "itu": 2574,
      "Ġwr": 2575,
      "Ġwon": 2576,
      "Ġmay": 2577,
      "Ġmind": 2578,
      "Ġmiss": 2579,
      "Ġmax": 2580,
      "Ġmotion": 2581,
      "Ġdrop": 2582,
      "Ġdanc": 2583,
      "Ġdense": 2584,
      "rog": 2585,
      "rot": 2586,
      "rote": 2587,
      "eding": 2588,
      "Ġhall": 2589,
      "Ġgro": 2590,
      "Ġgran": 2591,
      "raw": 2592,
      "Ġlate": 2593,
      "Ġlive": 2594,
      "Ġlose": 2595,
      "Ġlamp": 2596,
      "Ġlines": 2597,
      "idence": 2598,
      "thology": 2599,
      "osm": 2600,
      "Ġstill": 2601,
      "Ġstyle": 2602,
      "irt": 2603,
      "stone": 2604,
      "Ġconduct": 2605,
      "ĠAustral": 2606,
      "Ġhel": 2607,
      "ĠCar": 2608,
      "Ġvag": 2609,
      "Ġthor": 2610,
      "Ġthick": 2611,
      "aken": 2612,
      "Ġproble": 2613,
      "owder": 2614,
      "Ġothers": 2615,
      "ibri": 2616,
      "Ġalph": 2617,
      "ĠII": 2618,
      "ĠHer": 2619,
      "Ġrelation": 2620,
      "Ġenergy": 2621,
      "Ġroot": 2622,
      "ĠGu": 2623,
      "ledged": 2624,
      "Ġword": 2625,
      "ĠWest": 2626,
      "Ġscience": 2627,
      "Ġqual": 2628,
      "igned": 2629,
      "ĠFrance": 2630,
      "Ġcomposed": 2631,
      "Ġpea": 2632,
      "Ġpeace": 2633,
      "fully": 2634,
      "Ġconsc": 2635,
      "efficient": 2636,
      "Ġtraffic": 2637,
      "Ġspecified": 2638,
      "ĠOr": 2639,
      "Ġveins": 2640,
      "time": 2641,
      "Ġaccount": 2642,
      "Ġdisturb": 2643,
      "Ġstudent": 2644,
      "Ġradiation": 2645,
      "Ġpresident": 2646,
      "Ġmarine": 2647,
      "gery": 2648,
      "Ġequal": 2649,
      "Ġequil": 2650,
      "Ġlanguages": 2651,
      "Ġproduce": 2652,
      "Ġjoint": 2653,
      "plaud": 2654,
      "Ġsimple": 2655,
      "ography": 2656,
      "Ġparticles": 2657,
      "ception": 2658,
      "Ġletter": 2659,
      "stitut": 2660,
      "Ġvoice": 2661,
      "Ġhorse": 2662,
      "Ġagreement": 2663,
      "Ġestablish": 2664,
      "Ġbaby": 2665,
      "Ġclimbing": 2666,
      "Ġtissue": 2667,
      "Ġnewspaper": 2668,
      "Ġcultivated": 2669,
      "Ġreprodu": 2670,
      "Ġresponse": 2671,
      "ained": 2672,
      "bed": 2673,
      "band": 2674,
      "call": 2675,
      "def": 2676,
      "dom": 2677,
      "gence": 2678,
      "light": 2679,
      "nith": 2680,
      "oon": 2681,
      "rid": 2682,
      "son": 2683,
      "uted": 2684,
      "Ġion": 2685,
      "Ġil": 2686,
      "Ġess": 2687,
      "Ġiv": 2688,
      "teb": 2689,
      "ength": 2690,
      "Ġstem": 2691,
      "Ġsaf": 2692,
      "Ġsuit": 2693,
      "Ġsitu": 2694,
      "Ġaw": 2695,
      "Ġpric": 2696,
      "Ġpneum": 2697,
      "atter": 2698,
      "atomic": 2699,
      "Ġtas": 2700,
      "Ġtie": 2701,
      "Ġtransp": 2702,
      "Ġfash": 2703,
      "Ġfix": 2704,
      "efinite": 2705,
      "Ġcere": 2706,
      "Ġcost": 2707,
      "Ġnut": 2708,
      "Ġnort": 2709,
      "Ġnail": 2710,
      "Ġinj": 2711,
      "Ġinit": 2712,
      "icity": 2713,
      "Ġbed": 2714,
      "Ġbill": 2715,
      "Ġbone": 2716,
      "Ġbound": 2717,
      "Ġbomb": 2718,
      "Ġbodies": 2719,
      "omes": 2720,
      "celer": 2721,
      "cephal": 2722,
      "Ġwine": 2723,
      "Ġwrong": 2724,
      "Ġwould": 2725,
      "Ġmaid": 2726,
      "Ġmechan": 2727,
      "Ġdro": 2728,
      "Ġdance": 2729,
      "Ġdoll": 2730,
      "Ġdouble": 2731,
      "asy": 2732,
      "rosp": 2733,
      "Ġord": 2734,
      "Ġorch": 2735,
      "Ġsent": 2736,
      "Ġgram": 2737,
      "Ġgave": 2738,
      "ilos": 2739,
      "rack": 2740,
      "tile": 2741,
      "tian": 2742,
      "osph": 2743,
      "ospel": 2744,
      "acent": 2745,
      "Ġredu": 2746,
      "elt": 2747,
      "adj": 2748,
      "ador": 2749,
      "Ġstop": 2750,
      "Ġstomach": 2751,
      "Ġrig": 2752,
      "Ġrare": 2753,
      "Ġrather": 2754,
      "Ġconn": 2755,
      "ocer": 2756,
      "Ġwhile": 2757,
      "istration": 2758,
      "ando": 2759,
      "antage": 2760,
      "law": 2761,
      "Ġproc": 2762,
      "owns": 2763,
      "izing": 2764,
      "Ġleather": 2765,
      "Ġseat": 2766,
      "Ġseem": 2767,
      "Ġalg": 2768,
      "Ġalong": 2769,
      "ortion": 2770,
      "Ġjew": 2771,
      "Ġrain": 2772,
      "Ġrail": 2773,
      "resent": 2774,
      "Ġrelativ": 2775,
      "ĠLow": 2776,
      "Ġoutward": 2777,
      "Ġpoor": 2778,
      "Ġpoison": 2779,
      "indly": 2780,
      "Ġscale": 2781,
      "Ġmethod": 2782,
      "Ġboat": 2783,
      "Ġboth": 2784,
      "lessly": 2785,
      "Ġweight": 2786,
      "Ġcare": 2787,
      "Ġlook": 2788,
      "Ġexpense": 2789,
      "Ġlargest": 2790,
      "Ġfeet": 2791,
      "Ġcontract": 2792,
      "Ġcausing": 2793,
      "Ġaccomp": 2794,
      "Ġpossible": 2795,
      "Ġeffective": 2796,
      "Ġlonger": 2797,
      "Ġbread": 2798,
      "Ġemotional": 2799,
      "Ġplaying": 2800,
      "ĠKore": 2801,
      "Ġradical": 2802,
      "Ġelectric": 2803,
      "Ġbutter": 2804,
      "Ġrefer": 2805,
      "Ġorganization": 2806,
      "azz": 2807,
      "Ġvalue": 2808,
      "ministration": 2809,
      "ĠIndian": 2810,
      "Ġchest": 2811,
      "Ġhydro": 2812,
      "Ġevergreen": 2813,
      "olumb": 2814,
      "Ġclear": 2815,
      "Ġannual": 2816,
      "Ġkeep": 2817,
      "Ġmathem": 2818,
      "mitted": 2819,
      "Ġstraight": 2820,
      "sky": 2821,
      "Ġsweet": 2822,
      "Ġherbs": 2823,
      "ophyta": 2824,
      "Ġreturn": 2825,
      "Ġteacher": 2826,
      "Ġcross": 2827,
      "ironment": 2828,
      "Ġpractice": 2829,
      "Ġcourse": 2830,
      "Ġlittle": 2831,
      "Ġbusiness": 2832,
      "Ġmeeting": 2833,
      "Ġintellig": 2834,
      "worthy": 2835,
      "Ġaverage": 2836,
      "ĠMexico": 2837,
      "Ġwillow": 2838,
      "ometric": 2839,
      "ibrium": 2840,
      "bird": 2841,
      "cor": 2842,
      "cil": 2843,
      "cop": 2844,
      "cast": 2845,
      "claim": 2846,
      "del": 2847,
      "drop": 2848,
      "for": 2849,
      "foot": 2850,
      "flower": 2851,
      "iest": 2852,
      "ired": 2853,
      "ks": 2854,
      "lin": 2855,
      "lim": 2856,
      "live": 2857,
      "nut": 2858,
      "ners": 2859,
      "oz": 2860,
      "pen": 2861,
      "rin": 2862,
      "sid": 2863,
      "some": 2864,
      "tical": 2865,
      "trans": 2866,
      "uf": 2867,
      "vation": 2868,
      "wide": 2869,
      "Ġur": 2870,
      "Ġod": 2871,
      "ince": 2872,
      "inus": 2873,
      "Ġson": 2874,
      "Ġsight": 2875,
      "Ġsell": 2876,
      "Ġsales": 2877,
      "Ġav": 2878,
      "ored": 2879,
      "orph": 2880,
      "Ġpun": 2881,
      "arian": 2882,
      "Ġtit": 2883,
      "Ġticket": 2884,
      "eric": 2885,
      "Ġfa": 2886,
      "Ġfive": 2887,
      "Ġfight": 2888,
      "Ġfail": 2889,
      "heat": 2890,
      "Ġparts": 2891,
      "Ġcand": 2892,
      "Ġcust": 2893,
      "Ġcamp": 2894,
      "reland": 2895,
      "icular": 2896,
      "Ġbig": 2897,
      "Ġbass": 2898,
      "Ġbell": 2899,
      "omato": 2900,
      "cel": 2901,
      "itic": 2902,
      "itim": 2903,
      "Ġwall": 2904,
      "Ġmic": 2905,
      "Ġmel": 2906,
      "Ġmess": 2907,
      "Ġmental": 2908,
      "Ġmoment": 2909,
      "Ġdish": 2910,
      "tens": 2911,
      "edy": 2912,
      "ederal": 2913,
      "Ġhos": 2914,
      "Ġhum": 2915,
      "Ġhorn": 2916,
      "Ġgland": 2917,
      "Ġgrown": 2918,
      "ilt": 2919,
      "uss": 2920,
      "Ġtoo": 2921,
      "rad": 2922,
      "Ġemer": 2923,
      "urr": 2924,
      "Ġadm": 2925,
      "etary": 2926,
      "adder": 2927,
      "lot": 2928,
      "Ġstri": 2929,
      "oderm": 2930,
      "Ġris": 2931,
      "Ġring": 2932,
      "stract": 2933,
      "ocial": 2934,
      "ĠSw": 2935,
      "istle": 2936,
      "ander": 2937,
      "Ġheat": 2938,
      "ĠCan": 2939,
      "ĠCol": 2940,
      "Ġuntil": 2941,
      "Ġvac": 2942,
      "Ġviv": 2943,
      "Ġcho": 2944,
      "Ġchain": 2945,
      "Ġcheck": 2946,
      "Ġbeat": 2947,
      "apon": 2948,
      "Ġopening": 2949,
      "Ġshot": 2950,
      "ured": 2951,
      "uda": 2952,
      "Ġdeg": 2953,
      "Ġlevel": 2954,
      "ĠMon": 2955,
      "Ġseal": 2956,
      "Ġarr": 2957,
      "Ġacadem": 2958,
      "phas": 2959,
      "ĠPl": 2960,
      "ĠIs": 2961,
      "ĠEast": 2962,
      "angel": 2963,
      "Ġrelative": 2964,
      "Ġteeth": 2965,
      "Ġcoefficient": 2966,
      "ĠGreek": 2967,
      "cket": 2968,
      "Ġprint": 2969,
      "Ġsmoke": 2970,
      "spring": 2971,
      "Ġoutc": 2972,
      "Ġoutside": 2973,
      "Ġpoly": 2974,
      "shore": 2975,
      "iously": 2976,
      "aching": 2977,
      "Ġappar": 2978,
      "Ġcolon": 2979,
      "Ġformal": 2980,
      "Ġpear": 2981,
      "Ġspecific": 2982,
      "ifications": 2983,
      "cover": 2984,
      "Ġsurgery": 2985,
      "Ġregions": 2986,
      "Ġwaters": 2987,
      "Ġmuscle": 2988,
      "Ġworked": 2989,
      "Ġbreak": 2990,
      "Ġverteb": 2991,
      "retary": 2992,
      "Ġmythology": 2993,
      "Ġradio": 2994,
      "Ġelectron": 2995,
      "ields": 2996,
      "ungent": 2997,
      "Ġminor": 2998,
      "Ġmonetary": 2999,
      "Ġmedic": 3000,
      "ĠAlask": 3001,
      "Ġpipe": 3002,
      "Ġbelong": 3003,
      "Ġsnake": 3004,
      "ĠIndia": 3005,
      "Ġprovide": 3006,
      "Ġcollec": 3007,
      "Ġcircle": 3008,
      "Ġtrue": 3009,
      "tilized": 3010,
      "Ġmovement": 3011,
      "Ġdirect": 3012,
      "Ġdirection": 3013,
      "Ġgolden": 3014,
      "Ġremove": 3015,
      "Ġmagnetic": 3016,
      "ĠConstant": 3017,
      "Ġmembrane": 3018,
      "Ġinvolving": 3019,
      "Ġidentification": 3020,
      "Ġenvironment": 3021,
      "Ġresulting": 3022,
      "Ġstructure": 3023,
      "Ġinclud": 3024,
      "Ġfrequ": 3025,
      "Ġbottom": 3026,
      "Ġinstrument": 3027,
      "Ġcotton": 3028,
      "aut": 3029,
      "ba": 3030,
      "back": 3031,
      "clo": 3032,
      "care": 3033,
      "do": 3034,
      "eign": 3035,
      "fin": 3036,
      "house": 3037,
      "human": 3038,
      "ios": 3039,
      "jun": 3040,
      "mod": 3041,
      "pend": 3042,
      "pat": 3043,
      "pid": 3044,
      "sim": 3045,
      "vic": 3046,
      "wing": 3047,
      "Ġ4": 3048,
      "Ġ7": 3049,
      "Ġhat": 3050,
      "Ġol": 3051,
      "Ġid": 3052,
      "Ġice": 3053,
      "Ġsum": 3054,
      "Ġsud": 3055,
      "Ġairc": 3056,
      "istered": 3057,
      "organ": 3058,
      "Ġpin": 3059,
      "Ġpul": 3060,
      "Ġpig": 3061,
      "Ġpred": 3062,
      "Ġpitch": 3063,
      "Ġpowder": 3064,
      "arsh": 3065,
      "arily": 3066,
      "Ġtape": 3067,
      "erative": 3068,
      "Ġfine": 3069,
      "Ġfal": 3070,
      "Ġfram": 3071,
      "Ġfishes": 3072,
      "Ġcup": 3073,
      "anch": 3074,
      "ania": 3075,
      "alis": 3076,
      "Ġnet": 3077,
      "Ġnational": 3078,
      "retion": 3079,
      "ica": 3080,
      "ician": 3081,
      "Ġbow": 3082,
      "cet": 3083,
      "itor": 3084,
      "iture": 3085,
      "Ġwent": 3086,
      "Ġwant": 3087,
      "Ġwinter": 3088,
      "Ġmen": 3089,
      "Ġmag": 3090,
      "Ġmening": 3091,
      "Ġmamm": 3092,
      "estig": 3093,
      "eder": 3094,
      "Ġhur": 3095,
      "Ġhist": 3096,
      "Ġgain": 3097,
      "rab": 3098,
      "olar": 3099,
      "Ġlib": 3100,
      "idal": 3101,
      "oping": 3102,
      "imon": 3103,
      "Ġstorm": 3104,
      "Ġstates": 3105,
      "jects": 3106,
      "Ġri": 3107,
      "stra": 3108,
      "stand": 3109,
      "Ġcontain": 3110,
      "ĠAc": 3111,
      "ĠAd": 3112,
      "lax": 3113,
      "quil": 3114,
      "Ġunin": 3115,
      "Ġvine": 3116,
      "Ġves": 3117,
      "uture": 3118,
      "ipse": 3119,
      "Ġspread": 3120,
      "urely": 3121,
      "romy": 3122,
      "ometer": 3123,
      "Ġdepos": 3124,
      "Ġexha": 3125,
      "ĠMan": 3126,
      "agger": 3127,
      "phone": 3128,
      "ĠPer": 3129,
      "ĠIreland": 3130,
      "Ġtext": 3131,
      "Ġteam": 3132,
      "idea": 3133,
      "ĠTur": 3134,
      "Ġcook": 3135,
      "Ġrot": 3136,
      "Ġprison": 3137,
      "ĠNe": 3138,
      "ĠLatin": 3139,
      "Ġperfect": 3140,
      "Ġable": 3141,
      "Ġupper": 3142,
      "Ġscrew": 3143,
      "ignity": 3144,
      "weight": 3145,
      "Ġweak": 3146,
      "Ġweek": 3147,
      "ocket": 3148,
      "Ġphilos": 3149,
      "ophor": 3150,
      "Ġdecentral": 3151,
      "Ġnote": 3152,
      "Ġloose": 3153,
      "Ġtrib": 3154,
      "ĠVir": 3155,
      "Ġgoing": 3156,
      "tival": 3157,
      "timate": 3158,
      "Ġcloth": 3159,
      "Ġeffort": 3160,
      "ney": 3161,
      "Ġevent": 3162,
      "Ġcurrent": 3163,
      "Ġstudy": 3164,
      "Ġstudies": 3165,
      "Ġpresent": 3166,
      "Ġelectrical": 3167,
      "Ġrefl": 3168,
      "Ġinvestig": 3169,
      "Ġequival": 3170,
      "Ġextra": 3171,
      "undred": 3172,
      "Ġsolution": 3173,
      "Ġpassing": 3174,
      "Ġpassage": 3175,
      "Ġproduct": 3176,
      "Ġproducing": 3177,
      "Ġdoes": 3178,
      "Ġrespect": 3179,
      "ways": 3180,
      "ique": 3181,
      "grave": 3182,
      "Ġedge": 3183,
      "comfort": 3184,
      "Ġsteel": 3185,
      "Ġdoctr": 3186,
      "Ġarchae": 3187,
      "Ġhope": 3188,
      "ableness": 3189,
      "Ġclassifications": 3190,
      "Ġerect": 3191,
      "annel": 3192,
      "oresis": 3193,
      "Ġhemp": 3194,
      "Ġbased": 3195,
      "Ġcorner": 3196,
      "Ġpattern": 3197,
      "lexible": 3198,
      "Ġgrowth": 3199,
      "offensive": 3200,
      "Ġcoastal": 3201,
      "Ġcomplex": 3202,
      "Ġdiagn": 3203,
      "Ġanesthetic": 3204,
      "Ġnuclear": 3205,
      "Ġconsidered": 3206,
      "Ġquantity": 3207,
      "Ġappearance": 3208,
      "Ġtemperature": 3209,
      "Ġadvanced": 3210,
      "nych": 3211,
      "Ġderived": 3212,
      "Ġfabric": 3213,
      "Ġmolecu": 3214,
      "Ġseparate": 3215,
      "Ġimpossible": 3216,
      "ĠRussia": 3217,
      "Ġphenomen": 3218,
      "Ġequilibrium": 3219,
      "stitutional": 3220,
      "Ġessent": 3221,
      "Ġivy": 3222,
      "Ġfashion": 3223,
      "Ġintelligence": 3224,
      "Ġaircraft": 3225,
      "blo": 3226,
      "cr": 3227,
      "cu": 3228,
      "cial": 3229,
      "case": 3230,
      "carp": 3231,
      "dled": 3232,
      "dep": 3233,
      "ez": 3234,
      "iar": 3235,
      "iat": 3236,
      "iam": 3237,
      "irable": 3238,
      "ka": 3239,
      "mand": 3240,
      "oa": 3241,
      "ole": 3242,
      "pal": 3243,
      "rant": 3244,
      "rect": 3245,
      "rish": 3246,
      "rify": 3247,
      "ratch": 3248,
      "tac": 3249,
      "thetic": 3250,
      "ues": 3251,
      "ued": 3252,
      "vol": 3253,
      "war": 3254,
      "west": 3255,
      "walk": 3256,
      "yal": 3257,
      "yond": 3258,
      "ynam": 3259,
      "Ġ5": 3260,
      "tect": 3261,
      "ino": 3262,
      "inder": 3263,
      "inness": 3264,
      "Ġsau": 3265,
      "Ġsaid": 3266,
      "Ġaward": 3267,
      "ories": 3268,
      "oni": 3269,
      "Ġpor": 3270,
      "Ġpine": 3271,
      "Ġpra": 3272,
      "Ġpace": 3273,
      "Ġpanc": 3274,
      "Ġpicture": 3275,
      "Ġton": 3276,
      "Ġtou": 3277,
      "Ġtart": 3278,
      "Ġtro": 3279,
      "Ġtakes": 3280,
      "ecess": 3281,
      "Ġfour": 3282,
      "hears": 3283,
      "ouis": 3284,
      "inese": 3285,
      "Ġcit": 3286,
      "Ġcrit": 3287,
      "Ġcame": 3288,
      "aned": 3289,
      "anti": 3290,
      "anim": 3291,
      "aling": 3292,
      "Ġnerv": 3293,
      "Ġinfer": 3294,
      "reat": 3295,
      "Ġforces": 3296,
      "Ġbad": 3297,
      "Ġbank": 3298,
      "Ġbush": 3299,
      "search": 3300,
      "cetes": 3301,
      "yment": 3302,
      "ymph": 3303,
      "Ġwal": 3304,
      "Ġwarm": 3305,
      "Ġwire": 3306,
      "Ġwax": 3307,
      "Ġwomen": 3308,
      "Ġmi": 3309,
      "Ġmid": 3310,
      "Ġmist": 3311,
      "Ġmach": 3312,
      "Ġden": 3313,
      "Ġdom": 3314,
      "Ġdid": 3315,
      "Ġdiver": 3316,
      "Ġdwell": 3317,
      "ester": 3318,
      "asian": 3319,
      "rob": 3320,
      "road": 3321,
      "Ġhom": 3322,
      "Ġhit": 3323,
      "Ġhip": 3324,
      "Ġhere": 3325,
      "Ġhundred": 3326,
      "Ġgiving": 3327,
      "ilo": 3328,
      "usted": 3329,
      "Ġlion": 3330,
      "Ġlast": 3331,
      "Ġlug": 3332,
      "Ġlaz": 3333,
      "Ġeth": 3334,
      "iduous": 3335,
      "ulated": 3336,
      "igastric": 3337,
      "adian": 3338,
      "Ġstuff": 3339,
      "iral": 3340,
      "odder": 3341,
      "Ġriver": 3342,
      "Ġrank": 3343,
      "ocation": 3344,
      "ocarp": 3345,
      "ĠAg": 3346,
      "ĠAs": 3347,
      "ĠAnd": 3348,
      "ĠCath": 3349,
      "Ġund": 3350,
      "Ġunf": 3351,
      "Ġcham": 3352,
      "Ġchurch": 3353,
      "Ġcherry": 3354,
      "Ġbeet": 3355,
      "upiter": 3356,
      "Ġopin": 3357,
      "iphy": 3358,
      "Ġspl": 3359,
      "Ġshade": 3360,
      "ables": 3361,
      "Ġexcess": 3362,
      "ĠMa": 3363,
      "agon": 3364,
      "iangle": 3365,
      "Ġarche": 3366,
      "Ġaccess": 3367,
      "Ġacceler": 3368,
      "Ġdisk": 3369,
      "lestial": 3370,
      "ĠHy": 3371,
      "Ġjob": 3372,
      "Ġrate": 3373,
      "Ġcoat": 3374,
      "Ġplane": 3375,
      "Ġrope": 3376,
      "Ġrose": 3377,
      "Ġsmut": 3378,
      "ledge": 3379,
      "Ġcommer": 3380,
      "epublic": 3381,
      "Ġpoet": 3382,
      "ĠRepublic": 3383,
      "Ġabstract": 3384,
      "Ġgrand": 3385,
      "Ġscreen": 3386,
      "Ġappro": 3387,
      "Ġapplaud": 3388,
      "ĠThey": 3389,
      "ĠDon": 3390,
      "ieved": 3391,
      "Ġcarry": 3392,
      "Ġcareful": 3393,
      "ference": 3394,
      "Ġdecor": 3395,
      "Ġdeciduous": 3396,
      "ramp": 3397,
      "ĠChrys": 3398,
      "ropae": 3399,
      "class": 3400,
      "book": 3401,
      "Ġtract": 3402,
      "Ġlove": 3403,
      "Ġindefinite": 3404,
      "Ġsurg": 3405,
      "Ġpolice": 3406,
      "Ġamount": 3407,
      "Ġclock": 3408,
      "Ġworking": 3409,
      "Ġprepare": 3410,
      "Ġemb": 3411,
      "Ġemp": 3412,
      "Ġplayer": 3413,
      "Ġterms": 3414,
      "ĠKing": 3415,
      "Ġcentury": 3416,
      "Ġorganism": 3417,
      "regular": 3418,
      "Ġattached": 3419,
      "Ġproduced": 3420,
      "Ġmineral": 3421,
      "even": 3422,
      "Ġcreated": 3423,
      "Ġcovering": 3424,
      "place": 3425,
      "trust": 3426,
      "auge": 3427,
      "Ġdocum": 3428,
      "Ġbelow": 3429,
      "Ġswitch": 3430,
      "ĠYork": 3431,
      "Ġhole": 3432,
      "Ġdays": 3433,
      "ceptive": 3434,
      "Ġtruck": 3435,
      "Ġannounce": 3436,
      "oxic": 3437,
      "Ġfollowed": 3438,
      "Ġships": 3439,
      "Ġbrain": 3440,
      "Ġrule": 3441,
      "Ġpieces": 3442,
      "Ġgrowing": 3443,
      "Ġarmy": 3444,
      "Ġperformance": 3445,
      "Ġinfluence": 3446,
      "Ġfeelings": 3447,
      "Ġexperience": 3448,
      "Ġinhabit": 3449,
      "Ġeyes": 3450,
      "Ġdurable": 3451,
      "Ġdetail": 3452,
      "asphem": 3453,
      "professional": 3454,
      "Ġcompletely": 3455,
      "Ġreceiver": 3456,
      "Ġfreshwater": 3457,
      "Ġlayer": 3458,
      "Ġsensory": 3459,
      "Ġglobe": 3460,
      "Ġspirit": 3461,
      "Ġfemale": 3462,
      "Ġfungi": 3463,
      "Ġimportant": 3464,
      "Ġconcerned": 3465,
      "Ġeconomic": 3466,
      "knock": 3467,
      "view": 3468,
      "Ġalcohol": 3469,
      "build": 3470,
      "Ġalphab": 3471,
      "Ġdegree": 3472,
      "ĠAlaska": 3473,
      "Ġbelonging": 3474,
      "Ġsudden": 3475,
      "Ġfalse": 3476,
      "Ġriot": 3477,
      "Ġphilosoph": 3478,
      "')": 3479,
      "bag": 3480,
      "bage": 3481,
      "bles": 3482,
      "cur": 3483,
      "cock": 3484,
      "circ": 3485,
      "coll": 3486,
      "dia": 3487,
      "dist": 3488,
      "eper": 3489,
      "fare": 3490,
      "gue": 3491,
      "hal": 3492,
      "iers": 3493,
      "iled": 3494,
      "iative": 3495,
      "iatic": 3496,
      "jug": 3497,
      "kin": 3498,
      "mp": 3499,
      "mouth": 3500,
      "pa": 3501,
      "pin": 3502,
      "pres": 3503,
      "press": 3504,
      "pital": 3505,
      "run": 3506,
      "rif": 3507,
      "right": 3508,
      "tin": 3509,
      "toc": 3510,
      "ux": 3511,
      "word": 3512,
      "xic": 3513,
      "yc": 3514,
      "Ġut": 3515,
      "Ġuter": 3516,
      "tee": 3517,
      "enose": 3518,
      "enium": 3519,
      "enatal": 3520,
      "Ġsus": 3521,
      "Ġsad": 3522,
      "Ġsold": 3523,
      "Ġsaw": 3524,
      "Ġast": 3525,
      "Ġahead": 3526,
      "Ġaromatic": 3527,
      "oric": 3528,
      "oria": 3529,
      "onym": 3530,
      "Ġpa": 3531,
      "Ġpy": 3532,
      "Ġpan": 3533,
      "Ġpet": 3534,
      "Ġpuff": 3535,
      "Ġpungent": 3536,
      "Ġpocket": 3537,
      "arc": 3538,
      "ari": 3539,
      "Ġtur": 3540,
      "Ġtang": 3541,
      "Ġtomato": 3542,
      "Ġfar": 3543,
      "Ġflow": 3544,
      "Ġfoul": 3545,
      "Ġfuture": 3546,
      "peak": 3547,
      "Ġparty": 3548,
      "Ġcas": 3549,
      "Ġcrow": 3550,
      "Ġspeed": 3551,
      "allow": 3552,
      "Ġnom": 3553,
      "Ġnit": 3554,
      "Ġnation": 3555,
      "Ġnature": 3556,
      "Ġintention": 3557,
      "Ġinternal": 3558,
      "Ġthese": 3559,
      "ouncing": 3560,
      "icacious": 3561,
      "Ġber": 3562,
      "Ġbud": 3563,
      "seed": 3564,
      "ceed": 3565,
      "celand": 3566,
      "cell": 3567,
      "Ġworm": 3568,
      "Ġwalk": 3569,
      "Ġwife": 3570,
      "Ġmor": 3571,
      "Ġmur": 3572,
      "Ġmap": 3573,
      "Ġmug": 3574,
      "Ġmouth": 3575,
      "Ġmoss": 3576,
      "Ġmoral": 3577,
      "Ġda": 3578,
      "Ġdone": 3579,
      "Ġdang": 3580,
      "Ġdried": 3581,
      "Ġante": 3582,
      "Ġanterior": 3583,
      "tension": 3584,
      "asses": 3585,
      "rod": 3586,
      "roof": 3587,
      "Ġham": 3588,
      "ilot": 3589,
      "ilia": 3590,
      "ilag": 3591,
      "usc": 3592,
      "raint": 3593,
      "Ġloss": 3594,
      "Ġliter": 3595,
      "thly": 3596,
      "osive": 3597,
      "Ġrear": 3598,
      "Ġreason": 3599,
      "Ġrelease": 3600,
      "Ġresearch": 3601,
      "Ġadult": 3602,
      "elinated": 3603,
      "impro": 3604,
      "chn": 3605,
      "ety": 3606,
      "adv": 3607,
      "Ġstart": 3608,
      "Ġstation": 3609,
      "Ġstren": 3610,
      "ode": 3611,
      "Ġrect": 3612,
      "Ġrib": 3613,
      "ume": 3614,
      "ithic": 3615,
      "state": 3616,
      "stood": 3617,
      "istry": 3618,
      "Ġheld": 3619,
      "quer": 3620,
      "ĠCy": 3621,
      "ĠCentral": 3622,
      "Ġunw": 3623,
      "Ġuncon": 3624,
      "Ġvisc": 3625,
      "Ġchron": 3626,
      "Ġthose": 3627,
      "Ġthread": 3628,
      "aph": 3629,
      "Ġproced": 3630,
      "Ġopp": 3631,
      "Ġspect": 3632,
      "Ġshop": 3633,
      "Ġshock": 3634,
      "ecting": 3635,
      "post": 3636,
      "arden": 3637,
      "avened": 3638,
      "Ġdead": 3639,
      "Ġdepr": 3640,
      "Ġleap": 3641,
      "ibly": 3642,
      "ubl": 3643,
      "ĠMed": 3644,
      "aging": 3645,
      "Ġsequence": 3646,
      "Ġasp": 3647,
      "ightly": 3648,
      "ĠBer": 3649,
      "Ġwaste": 3650,
      "ounds": 3651,
      "emy": 3652,
      "emon": 3653,
      "ember": 3654,
      "ruction": 3655,
      "ructive": 3656,
      "acea": 3657,
      "ĠGod": 3658,
      "Ġsmoo": 3659,
      "Ġworth": 3660,
      "Ġworthy": 3661,
      "ĠLu": 3662,
      "ĠLouis": 3663,
      "Ġoutput": 3664,
      "Ġplays": 3665,
      "ĠRev": 3666,
      "Ġkid": 3667,
      "Ġkill": 3668,
      "Ġabove": 3669,
      "ĠWh": 3670,
      "ĠWill": 3671,
      "achment": 3672,
      "Ġmeter": 3673,
      "Ġquar": 3674,
      "Ġclus": 3675,
      "Ġclosing": 3676,
      "ĠFlor": 3677,
      "Ġcompany": 3678,
      "Ġforms": 3679,
      "plies": 3680,
      "Ġrecogn": 3681,
      "ringly": 3682,
      "Ġpersonal": 3683,
      "Ġsupern": 3684,
      "Ġsupplies": 3685,
      "Ġagency": 3686,
      "Ġphot": 3687,
      "Ġdeclar": 3688,
      "ĠChrist": 3689,
      "ĠChinese": 3690,
      "obb": 3691,
      "Ġnoted": 3692,
      "ultural": 3693,
      "Ġtravel": 3694,
      "armac": 3695,
      "Ġtriangle": 3696,
      "Ġnegative": 3697,
      "Ġexplo": 3698,
      "cope": 3699,
      "Ġcontr": 3700,
      "Ġsurr": 3701,
      "Ġpolicy": 3702,
      "raction": 3703,
      "uffle": 3704,
      "Ġparents": 3705,
      "ylv": 3706,
      "Ġeven": 3707,
      "Ġcurtain": 3708,
      "ashing": 3709,
      "Ġdistrib": 3710,
      "Ġgrad": 3711,
      "Ġgrape": 3712,
      "Ġstatement": 3713,
      "Ġirregular": 3714,
      "Ġtransl": 3715,
      "Ġslender": 3716,
      "Ġbrush": 3717,
      "Ġextinct": 3718,
      "Ġsolid": 3719,
      "Ġsecret": 3720,
      "Ġschiz": 3721,
      "190": 3722,
      "Ġbirds": 3723,
      "archic": 3724,
      "Ġmedium": 3725,
      "Ġknock": 3726,
      "Ġguide": 3727,
      "Ġpoints": 3728,
      "Ġlocated": 3729,
      "mination": 3730,
      "Ġuses": 3731,
      "osaurus": 3732,
      "Ġsimpl": 3733,
      "ographic": 3734,
      "Ġofficer": 3735,
      "Ġprogressive": 3736,
      "Ġbasic": 3737,
      "ĠYou": 3738,
      "Ġfirm": 3739,
      "Ġeffects": 3740,
      "tained": 3741,
      "Ġserved": 3742,
      "Ġyears": 3743,
      "Ġpleasure": 3744,
      "Ġfruits": 3745,
      "Ġmaterials": 3746,
      "urban": 3747,
      "Ġsevere": 3748,
      "Ġproperties": 3749,
      "Ġbald": 3750,
      "Ġadvantage": 3751,
      "hoped": 3752,
      "venile": 3753,
      "Ġkept": 3754,
      "Ġmostly": 3755,
      "Ġreading": 3756,
      "Ġcombination": 3757,
      "Ġcycl": 3758,
      "Ġreligion": 3759,
      "ceptance": 3760,
      "Ġelements": 3761,
      "tidae": 3762,
      "ĠSea": 3763,
      "Ġcourt": 3764,
      "Ġformerly": 3765,
      "Ġintoler": 3766,
      "Ġadjacent": 3767,
      "Ġchiefly": 3768,
      "Ġorigin": 3769,
      "Ġjuice": 3770,
      "Ġprinciple": 3771,
      "Ġwidely": 3772,
      "Ġsubstance": 3773,
      "Ġoccurring": 3774,
      "Ġfigure": 3775,
      "Ġbacteria": 3776,
      "gregate": 3777,
      "Ġuniversal": 3778,
      "Ġcryst": 3779,
      "Ġshower": 3780,
      "Ġachieve": 3781,
      "Ġbeginning": 3782,
      "Ġknowledge": 3783,
      "Ġassociated": 3784,
      "cribed": 3785,
      "Ġconscious": 3786,
      "Ġprice": 3787,
      "Ġcereb": 3788,
      "Ġorchid": 3789,
      "ownst": 3790,
      "Ġalgae": 3791,
      "Ġjewel": 3792,
      "Ġrelativity": 3793,
      "Ġtitle": 3794,
      "ancholy": 3795,
      "Ġequivalent": 3796,
      "comfortable": 3797,
      "Ġdoctrine": 3798,
      "Ġmachine": 3799,
      "Ġuterus": 3800,
      "Ġstrength": 3801,
      "Ġsmooth": 3802,
      "ĠRevolution": 3803,
      "Lu": 3804,
      "Roman": 3805,
      "aine": 3806,
      "aign": 3807,
      "bal": 3808,
      "but": 3809,
      "bers": 3810,
      "bound": 3811,
      "blow": 3812,
      "corn": 3813,
      "dge": 3814,
      "dish": 3815,
      "dward": 3816,
      "ging": 3817,
      "gos": 3818,
      "hon": 3819,
      "hro": 3820,
      "hair": 3821,
      "ioc": 3822,
      "iary": 3823,
      "jud": 3824,
      "ket": 3825,
      "met": 3826,
      "mill": 3827,
      "mark": 3828,
      "mission": 3829,
      "nes": 3830,
      "normal": 3831,
      "pi": 3832,
      "pur": 3833,
      "pect": 3834,
      "pens": 3835,
      "rust": 3836,
      "sal": 3837,
      "sing": 3838,
      "swer": 3839,
      "sur": 3840,
      "tune": 3841,
      "uct": 3842,
      "uish": 3843,
      "yg": 3844,
      "zil": 3845,
      "Ġ8": 3846,
      "enry": 3847,
      "ending": 3848,
      "inf": 3849,
      "inaceae": 3850,
      "infl": 3851,
      "Ġsite": 3852,
      "Ġsale": 3853,
      "Ġax": 3854,
      "Ġaer": 3855,
      "Ġaud": 3856,
      "isch": 3857,
      "orously": 3858,
      "Ġps": 3859,
      "Ġpad": 3860,
      "ara": 3861,
      "aris": 3862,
      "atod": 3863,
      "attle": 3864,
      "Ġtaken": 3865,
      "Ġfist": 3866,
      "Ġfles": 3867,
      "hest": 3868,
      "hedu": 3869,
      "outer": 3870,
      "Ġcart": 3871,
      "Ġcold": 3872,
      "Ġcounter": 3873,
      "anted": 3874,
      "anium": 3875,
      "anied": 3876,
      "alth": 3877,
      "alloy": 3878,
      "Ġindu": 3879,
      "Ġtheater": 3880,
      "reak": 3881,
      "Ġfore": 3882,
      "ouncil": 3883,
      "icle": 3884,
      "icol": 3885,
      "Ġbri": 3886,
      "Ġburn": 3887,
      "oming": 3888,
      "omas": 3889,
      "sea": 3890,
      "Ġwid": 3891,
      "Ġwri": 3892,
      "Ġmang": 3893,
      "Ġmail": 3894,
      "Ġmakes": 3895,
      "Ġmaj": 3896,
      "Ġdon": 3897,
      "Ġdue": 3898,
      "Ġdamp": 3899,
      "Ġanem": 3900,
      "Ġanswer": 3901,
      "asten": 3902,
      "asant": 3903,
      "asive": 3904,
      "astid": 3905,
      "ross": 3906,
      "rogen": 3907,
      "rosis": 3908,
      "Ġornam": 3909,
      "Ġgot": 3910,
      "Ġgauge": 3911,
      "ille": 3912,
      "usion": 3913,
      "usible": 3914,
      "vert": 3915,
      "Ġlin": 3916,
      "Ġlance": 3917,
      "Ġlater": 3918,
      "Ġlost": 3919,
      "Ġlimb": 3920,
      "Ġlisten": 3921,
      "Ġ____,": 3922,
      "thra": 3923,
      "oster": 3924,
      "aca": 3925,
      "aches": 3926,
      "imin": 3927,
      "imize": 3928,
      "ulf": 3929,
      "ulous": 3930,
      "ulsion": 3931,
      "ulgar": 3932,
      "adow": 3933,
      "amin": 3934,
      "ament": 3935,
      "amam": 3936,
      "about": 3937,
      "Ġstret": 3938,
      "Ġrange": 3939,
      "str": 3940,
      "stick": 3941,
      "gee": 3942,
      "geon": 3943,
      "ocidae": 3944,
      "ousness": 3945,
      "Ġwithin": 3946,
      "ĠAsian": 3947,
      "iff": 3948,
      "anta": 3949,
      "Ġheated": 3950,
      "quet": 3951,
      "ĠCas": 3952,
      "ĠColumb": 3953,
      "ĠCouncil": 3954,
      "Ġunac": 3955,
      "Ġvir": 3956,
      "Ġvapor": 3957,
      "Ġchord": 3958,
      "Ġchairs": 3959,
      "Ġthen": 3960,
      "Ġthing": 3961,
      "Ġthought": 3962,
      "Ġbeyond": 3963,
      "apter": 3964,
      "aked": 3965,
      "Ġprove": 3966,
      "Ġprojection": 3967,
      "iparous": 3968,
      "iphon": 3969,
      "Ġspat": 3970,
      "Ġspace": 3971,
      "Ġspark": 3972,
      "Ġspring": 3973,
      "izen": 3974,
      "ession": 3975,
      "avor": 3976,
      "avity": 3977,
      "Ġdeprec": 3978,
      "uber": 3979,
      "aged": 3980,
      "agree": 3981,
      "ivable": 3982,
      "ians": 3983,
      "Ġsee": 3984,
      "asting": 3985,
      "astro": 3986,
      "Ġarrange": 3987,
      "estic": 3988,
      "Ġattention": 3989,
      "Ġalways": 3990,
      "agey": 3991,
      "ageable": 3992,
      "phys": 3993,
      "Ġdisap": 3994,
      "Ġdischar": 3995,
      "Ġdiscover": 3996,
      "riculture": 3997,
      "ĠPres": 3998,
      "ĠItal": 3999,
      "ĠHis": 4000,
      "rule": 4001,
      "ĠEdward": 4002,
      "eree": 4003,
      "ĠTropae": 4004,
      "Ġrod": 4005,
      "Ġprinter": 4006,
      "Ġpriest": 4007,
      "ĠNational": 4008,
      "Ġblunt": 4009,
      "Ġcomment": 4010,
      "rix": 4011,
      "Ġpole": 4012,
      "ĠRich": 4013,
      "ostic": 4014,
      "indust": 4015,
      "Ġquart": 4016,
      "Ġoffensive": 4017,
      "inty": 4018,
      "Ġcollo": 4019,
      "Ġweapon": 4020,
      "ritch": 4021,
      "ĠJupiter": 4022,
      "hesia": 4023,
      "Ġrecur": 4024,
      "blance": 4025,
      "Ġpersons": 4026,
      "Ġcannot": 4027,
      "ophag": 4028,
      "ropri": 4029,
      "Ġcharge": 4030,
      "Ġ10": 4031,
      "Ġ100": 4032,
      "Ġimpro": 4033,
      "Ġnovel": 4034,
      "Ġtrack": 4035,
      "ĠOnych": 4036,
      "Ġtrout": 4037,
      "Ġcommission": 4038,
      "Ġfeed": 4039,
      "Ġsheep": 4040,
      "tivity": 4041,
      "Ġclothing": 4042,
      "Ġsystems": 4043,
      "Ġcapt": 4044,
      "Ġincident": 4045,
      "Ġmushro": 4046,
      "Ġprev": 4047,
      "Ġprevent": 4048,
      "identified": 4049,
      "Ġobjects": 4050,
      "Ġterrest": 4051,
      "Ġterror": 4052,
      "formed": 4053,
      "Ġnews": 4054,
      "Ġmarsh": 4055,
      "grat": 4056,
      "Ġiris": 4057,
      "ermost": 4058,
      "Ġorgans": 4059,
      "Ġvalley": 4060,
      "Ġsecond": 4061,
      "Ġsecurity": 4062,
      "Ġtyp": 4063,
      "Ġcalc": 4064,
      "191": 4065,
      "arthermost": 4066,
      "trade": 4067,
      "Ġhighly": 4068,
      "Ġrepresent": 4069,
      "eves": 4070,
      "arbital": 4071,
      "ilities": 4072,
      "Ġknown": 4073,
      "iterrane": 4074,
      "Ġcorrelation": 4075,
      "Ġguar": 4076,
      "Ġdiff": 4077,
      "Ġeduc": 4078,
      "Ġcris": 4079,
      "Ġcrim": 4080,
      "comb": 4081,
      "medial": 4082,
      "Ġpurple": 4083,
      "Ġsnow": 4084,
      "petbag": 4085,
      "Ġdrive": 4086,
      "Ġhyp": 4087,
      "Ġhands": 4088,
      "unker": 4089,
      "Ġcauses": 4090,
      "Ġplease": 4091,
      "Ġpopular": 4092,
      "Ġcircum": 4093,
      "Ġcircuit": 4094,
      "omycetes": 4095,
      "Ġcountries": 4096,
      "Ġtruth": 4097,
      "Ġclean": 4098,
      "gesic": 4099,
      "pitate": 4100,
      "Ġpainting": 4101,
      "Ġdrugs": 4102,
      "Ġpatient": 4103,
      "Ġconfused": 4104,
      "porous": 4105,
      "Ġservices": 4106,
      "ĠAfrican": 4107,
      "Ġzomb": 4108,
      "Ġbanded": 4109,
      "Ġenclo": 4110,
      "Ġindustry": 4111,
      "Ġinflamm": 4112,
      "Ġanalysis": 4113,
      "Ġrunning": 4114,
      "Ġwoolly": 4115,
      "Ġcelestial": 4116,
      "Ġcabbage": 4117,
      "Ġdeterm": 4118,
      "Ġgarlic": 4119,
      "ocyt": 4120,
      "Ġjustice": 4121,
      "tuce": 4122,
      "Ġideas": 4123,
      "Ġclaims": 4124,
      "Ġsympt": 4125,
      "Ġobserv": 4126,
      "Ġeclipse": 4127,
      "Ġstiff": 4128,
      "clusively": 4129,
      "Ġaccording": 4130,
      "Ġpreparation": 4131,
      "Ġextremely": 4132,
      "Ġtending": 4133,
      "analysis": 4134,
      "aldane": 4135,
      "Ġoxy": 4136,
      "Ġimperial": 4137,
      "Ġsuffering": 4138,
      "Ġcopper": 4139,
      "Ġfluid": 4140,
      "avers": 4141,
      "zerb": 4142,
      "Ġissue": 4143,
      "Ġtimes": 4144,
      "Ġcouple": 4145,
      "Ġproblem": 4146,
      "Ġdisturbance": 4147,
      "Ġsafe": 4148,
      "Ġsituation": 4149,
      "Ġtaste": 4150,
      "Ġfixed": 4151,
      "Ġmaiden": 4152,
      "adjusted": 4153,
      "ĠKorea": 4154,
      "Ġmathematic": 4155,
      "Ġacademic": 4156,
      "ĠPlat": 4157,
      "Ġpearl": 4158,
      "Ġmedicine": 4159,
      "Ġtroops": 4160,
      "ĠCatholic": 4161,
      "Ġbeetle": 4162,
      "Ġinhabitant": 4163,
      "asphemous": 4164,
      "ĠMediterrane": 4165,
      "ownstairs": 4166,
      "Ġmajor": 4167,
      "astidious": 4168,
      "amamie": 4169,
      "ĠPresident": 4170,
      "Ġterrestrial": 4171,
      "ĠMediterranean": 4172,
      "Al": 4173,
      "aque": 4174,
      "bar": 4175,
      "bas": 4176,
      "bul": 4177,
      "bow": 4178,
      "bolic": 4179,
      "cin": 4180,
      "cat": 4181,
      "cted": 4182,
      "cles": 4183,
      "cost": 4184,
      "dig": 4185,
      "draw": 4186,
      "ee": 4187,
      "ehold": 4188,
      "free": 4189,
      "field": 4190,
      "gment": 4191,
      "ggle": 4192,
      "han": 4193,
      "ham": 4194,
      "here": 4195,
      "hana": 4196,
      "ien": 4197,
      "iped": 4198,
      "jan": 4199,
      "kal": 4200,
      "kov": 4201,
      "lle": 4202,
      "lia": 4203,
      "liz": 4204,
      "lore": 4205,
      "lie": 4206,
      "life": 4207,
      "mas": 4208,
      "miss": 4209,
      "nic": 4210,
      "nip": 4211,
      "oti": 4212,
      "oanalysis": 4213,
      "rof": 4214,
      "ref": 4215,
      "ste": 4216,
      "sen": 4217,
      "she": 4218,
      "swe": 4219,
      "such": 4220,
      "tch": 4221,
      "turn": 4222,
      "uv": 4223,
      "uine": 4224,
      "uel": 4225,
      "uity": 4226,
      "visc": 4227,
      "wagon": 4228,
      "Ġom": 4229,
      "enia": 4230,
      "iny": 4231,
      "inative": 4232,
      "inidae": 4233,
      "inium": 4234,
      "Ġsor": 4235,
      "Ġsick": 4236,
      "Ġsave": 4237,
      "Ġstim": 4238,
      "Ġsax": 4239,
      "Ġsoup": 4240,
      "iser": 4241,
      "isation": 4242,
      "isions": 4243,
      "orial": 4244,
      "orability": 4245,
      "onom": 4246,
      "Ġpap": 4247,
      "Ġpars": 4248,
      "Ġpull": 4249,
      "arious": 4250,
      "ario": 4251,
      "att": 4252,
      "atine": 4253,
      "atize": 4254,
      "Ġtar": 4255,
      "Ġtab": 4256,
      "Ġfet": 4257,
      "Ġfiddle": 4258,
      "Ġflav": 4259,
      "Ġfavor": 4260,
      "efor": 4261,
      "efic": 4262,
      "Ġpartially": 4263,
      "lete": 4264,
      "legal": 4265,
      "leeves": 4266,
      "Ġced": 4267,
      "Ġcel": 4268,
      "Ġcough": 4269,
      "Ġcrown": 4270,
      "Ġcash": 4271,
      "Ġculture": 4272,
      "Ġcavity": 4273,
      "ancy": 4274,
      "anova": 4275,
      "alog": 4276,
      "Ġnap": 4277,
      "Ġnecess": 4278,
      "Ġintern": 4279,
      "Ġinner": 4280,
      "Ġincon": 4281,
      "Ġintent": 4282,
      "rep": 4283,
      "reous": 4284,
      "iction": 4285,
      "Ġble": 4286,
      "Ġbot": 4287,
      "Ġbay": 4288,
      "Ġblow": 4289,
      "Ġbath": 4290,
      "Ġborn": 4291,
      "Ġbapt": 4292,
      "omus": 4293,
      "yme": 4294,
      "itable": 4295,
      "itary": 4296,
      "itness": 4297,
      "ittac": 4298,
      "noniaceae": 4299,
      "Ġwolf": 4300,
      "Ġmal": 4301,
      "Ġmir": 4302,
      "Ġmile": 4303,
      "Ġdial": 4304,
      "Ġdress": 4305,
      "Ġdram": 4306,
      "Ġdental": 4307,
      "Ġdream": 4308,
      "Ġdressing": 4309,
      "Ġdazz": 4310,
      "Ġdignity": 4311,
      "Ġant": 4312,
      "Ġanat": 4313,
      "Ġantic": 4314,
      "estimate": 4315,
      "asing": 4316,
      "asion": 4317,
      "rox": 4318,
      "roll": 4319,
      "ede": 4320,
      "Ġorbit": 4321,
      "Ġhus": 4322,
      "Ġhun": 4323,
      "Ġglow": 4324,
      "Ġgarden": 4325,
      "olk": 4326,
      "olian": 4327,
      "olism": 4328,
      "version": 4329,
      "Ġeat": 4330,
      "Ġeach": 4331,
      "idate": 4332,
      "idual": 4333,
      "thal": 4334,
      "osy": 4335,
      "active": 4336,
      "acity": 4337,
      "urient": 4338,
      "Ġreact": 4339,
      "Ġreality": 4340,
      "Ġrehears": 4341,
      "opy": 4342,
      "Ġadministration": 4343,
      "elect": 4344,
      "imming": 4345,
      "chool": 4346,
      "chai": 4347,
      "ulse": 4348,
      "ulled": 4349,
      "adilla": 4350,
      "amilitary": 4351,
      "abama": 4352,
      "log": 4353,
      "Ġstr": 4354,
      "irie": 4355,
      "irts": 4356,
      "Ġrice": 4357,
      "Ġrye": 4358,
      "Ġrasp": 4359,
      "Ġconst": 4360,
      "Ġconjun": 4361,
      "ĠAp": 4362,
      "ĠArab": 4363,
      "ĠAzerb": 4364,
      "ĠSer": 4365,
      "lag": 4366,
      "lay": 4367,
      "ĠCo": 4368,
      "ĠCard": 4369,
      "ĠCour": 4370,
      "ĠCore": 4371,
      "ĠCroc": 4372,
      "Ġunper": 4373,
      "Ġven": 4374,
      "Ġvis": 4375,
      "Ġvent": 4376,
      "ctu": 4377,
      "cton": 4378,
      "Ġbeau": 4379,
      "aps": 4380,
      "apy": 4381,
      "apit": 4382,
      "uts": 4383,
      "uprof": 4384,
      "Ġpropit": 4385,
      "Ġopposed": 4386,
      "ipline": 4387,
      "Ġspur": 4388,
      "Ġspru": 4389,
      "Ġspike": 4390,
      "Ġshift": 4391,
      "ighte": 4392,
      "romb": 4393,
      "alls": 4394,
      "izes": 4395,
      "avage": 4396,
      "Ġexecu": 4397,
      "ogam": 4398,
      "ogram": 4399,
      "Ġov": 4400,
      "Ġobl": 4401,
      "Ġleis": 4402,
      "ibuprof": 4403,
      "ĠMic": 4404,
      "assador": 4405,
      "iva": 4406,
      "ividual": 4407,
      "ishing": 4408,
      "Ġartif": 4409,
      "illary": 4410,
      "Ġatom": 4411,
      "Ġaltern": 4412,
      "ĠBC": 4413,
      "ĠBalk": 4414,
      "ĠBapt": 4415,
      "perate": 4416,
      "Ġyield": 4417,
      "Ġdiscon": 4418,
      "Ġdisorder": 4419,
      "ĠPen": 4420,
      "ĠIn": 4421,
      "ĠIsl": 4422,
      "ĠHouse": 4423,
      "ĠHenry": 4424,
      "ĠHaldane": 4425,
      "Ġjun": 4426,
      "Ġjack": 4427,
      "ustion": 4428,
      "Ġrapid": 4429,
      "ĠEp": 4430,
      "ĠEur": 4431,
      "Ġrelations": 4432,
      "Ġtechn": 4433,
      "Ġimag": 4434,
      "Ġcoach": 4435,
      "Ġenough": 4436,
      "Ġplastic": 4437,
      "Ġroll": 4438,
      "Ġpromp": 4439,
      "Ġpriv": 4440,
      "ongue": 4441,
      "rowing": 4442,
      "Ġsmile": 4443,
      "Ġbluish": 4444,
      "eping": 4445,
      "ripet": 4446,
      "Ġplain": 4447,
      "shot": 4448,
      "Ġquick": 4449,
      "Ġquestion": 4450,
      "ornis": 4451,
      "Ġboy": 4452,
      "Ġclin": 4453,
      "Ġacts": 4454,
      "ocks": 4455,
      "Ġforming": 4456,
      "Ġformation": 4457,
      "Ġcarbon": 4458,
      "awi": 4459,
      "ĠJac": 4460,
      "ringe": 4461,
      "ologist": 4462,
      "ivery": 4463,
      "Ġelse": 4464,
      "Ġdecre": 4465,
      "Ġmov": 4466,
      "Ġmoon": 4467,
      "ĠChris": 4468,
      "Ġgreater": 4469,
      "manageable": 4470,
      "cyon": 4471,
      "ĠOst": 4472,
      "Ġtrust": 4473,
      "Ġindic": 4474,
      "Ġindividual": 4475,
      "Ġexpressing": 4476,
      "print": 4477,
      "prise": 4478,
      "Ġveget": 4479,
      "Ġshel": 4480,
      "Ġpoll": 4481,
      "Ġamb": 4482,
      "racture": 4483,
      "ufficient": 4484,
      "after": 4485,
      "ators": 4486,
      "Ġusing": 4487,
      "Ġusual": 4488,
      "istics": 4489,
      "Ġparas": 4490,
      "Ġbreed": 4491,
      "axed": 4492,
      "Ġintermed": 4493,
      "ylon": 4494,
      "Ġevil": 4495,
      "Ġevidence": 4496,
      "gency": 4497,
      "Ġvertical": 4498,
      "Ġdistance": 4499,
      "Ġdistinct": 4500,
      "Ġdistrict": 4501,
      "Ġvariable": 4502,
      "urocarp": 4503,
      "Ġinsects": 4504,
      "Ġreform": 4505,
      "ground": 4506,
      "ermuda": 4507,
      "Ġbuilt": 4508,
      "headed": 4509,
      "Ġnumerous": 4510,
      "Ġdefe": 4511,
      "undy": 4512,
      "197": 4513,
      "Ġbirch": 4514,
      "track": 4515,
      "Ġmedical": 4516,
      "culate": 4517,
      "Ġinstall": 4518,
      "point": 4519,
      "Ġcreation": 4520,
      "Ġdinar": 4521,
      "Ġcrime": 4522,
      "Ġstep": 4523,
      "Ġcrazy": 4524,
      "Ġcolors": 4525,
      "Ġcolored": 4526,
      "Ġoccup": 4527,
      "Ġoccurs": 4528,
      "Ġlaws": 4529,
      "Ġbecoming": 4530,
      "Ġbasket": 4531,
      "galosaur": 4532,
      "Ġdrink": 4533,
      "Ġdrinking": 4534,
      "Ġ194": 4535,
      "isterous": 4536,
      "Ġdiscipline": 4537,
      "ectedly": 4538,
      "Ġlettuce": 4539,
      "Ġbranches": 4540,
      "Ġholding": 4541,
      "Ġbaseball": 4542,
      "Ġbrownish": 4543,
      "Ġexcuse": 4544,
      "Ġfoods": 4545,
      "Ġbiometric": 4546,
      "Ġconditions": 4547,
      "Ġremoved": 4548,
      "respond": 4549,
      "Ġprofessional": 4550,
      "Ġproport": 4551,
      "Ġelementary": 4552,
      "Ġfeeling": 4553,
      "Ġmembers": 4554,
      "Ġcocoa": 4555,
      "Ġnaturalized": 4556,
      "thodox": 4557,
      "Ġprimitive": 4558,
      "Ġintro": 4559,
      "Ġremain": 4560,
      "Ġagainst": 4561,
      "Ġnorthwestern": 4562,
      "iplinary": 4563,
      "Ġchemical": 4564,
      "super": 4565,
      "ĠBrazil": 4566,
      "Ġtelephone": 4567,
      "atenate": 4568,
      "Ġhalf": 4569,
      "Ġresponsible": 4570,
      "disciplinary": 4571,
      "Ġthermometer": 4572,
      "Ġdinosaurs": 4573,
      "ĠSecretary": 4574,
      "ĠJapan": 4575,
      "ĠJapanese": 4576,
      "Ġfurniture": 4577,
      "osmetic": 4578,
      "ĠAustralia": 4579,
      "Ġroots": 4580,
      "Ġnortheastern": 4581,
      "Ġmechanical": 4582,
      "Ġgrammat": 4583,
      "Ġprocure": 4584,
      "nership": 4585,
      "itimately": 4586,
      "Ġhospital": 4587,
      "Ġstrike": 4588,
      "Ġrisk": 4589,
      "angelistic": 4590,
      "Ġcollectiv": 4591,
      "Ġgoldenrod": 4592,
      "ĠConstantine": 4593,
      "Ġidol": 4594,
      "Ġnetwork": 4595,
      "Ġhurt": 4596,
      "ĠTurk": 4597,
      "Ġreflection": 4598,
      "Ġarchaeological": 4599,
      "volent": 4600,
      "Ġsauce": 4601,
      "Ġinferior": 4602,
      "Ġdwelling": 4603,
      "robatic": 4604,
      "oddering": 4605,
      "ĠAgriculture": 4606,
      "Ġopinion": 4607,
      "Ġsurgical": 4608,
      "Ġannouncement": 4609,
      "building": 4610,
      "Ġsuddenly": 4611,
      "celandic": 4612,
      "Ġmurder": 4613,
      "improved": 4614,
      "Ġopponent": 4615,
      "ĠWhite": 4616,
      "ĠWilliam": 4617,
      "Ġclusters": 4618,
      "Ġjewelry": 4619,
      "uctant": 4620,
      "alloyed": 4621,
      "Ġwriter": 4622,
      "Ġanemone": 4623,
      "ĠRichard": 4624,
      "ropriate": 4625,
      "Ġmushrooms": 4626,
      "Ġinflammation": 4627,
      "kovsky": 4628,
      "Ġcedar": 4629,
      "Ġhusband": 4630,
      "chaikovsky": 4631,
      "irtsleeves": 4632,
      "Ġraspberry": 4633,
      "ĠCourt": 4634,
      "Ġspruce": 4635,
      "ibuprofen": 4636,
      "ĠIslam": 4637,
      "ripetal": 4638,
      ".,": 4639,
      "60": 4640,
      "85": 4641,
      "NA": 4642,
      "ause": 4643,
      "bb": 4644,
      "bes": 4645,
      "bra": 4646,
      "bir": 4647,
      "bred": 4648,
      "bber": 4649,
      "ca": 4650,
      "can": 4651,
      "cra": 4652,
      "cated": 4653,
      "cong": 4654,
      "ded": 4655,
      "div": 4656,
      "eor": 4657,
      "ese": 4658,
      "eten": 4659,
      "equ": 4660,
      "fig": 4661,
      "gor": 4662,
      "gage": 4663,
      "hod": 4664,
      "harm": 4665,
      "hicle": 4666,
      "iac": 4667,
      "iably": 4668,
      "ko": 4669,
      "ken": 4670,
      "lv": 4671,
      "lect": 4672,
      "lined": 4673,
      "livable": 4674,
      "mes": 4675,
      "mel": 4676,
      "mith": 4677,
      "mut": 4678,
      "mature": 4679,
      "master": 4680,
      "nom": 4681,
      "ned": 4682,
      "nch": 4683,
      "num": 4684,
      "nage": 4685,
      "ope": 4686,
      "oard": 4687,
      "pol": 4688,
      "pass": 4689,
      "port": 4690,
      "poral": 4691,
      "psych": 4692,
      "rhe": 4693,
      "ser": 4694,
      "toral": 4695,
      "uum": 4696,
      "vit": 4697,
      "ware": 4698,
      "xim": 4699,
      "xual": 4700,
      "yer": 4701,
      "zech": 4702,
      "zed": 4703,
      "Ġine": 4704,
      "Ġos": 4705,
      "Ġite": 4706,
      "Ġlying": 4707,
      "Ġurban": 4708,
      "Ġouter": 4709,
      "tead": 4710,
      "endent": 4711,
      "ini": 4712,
      "inous": 4713,
      "inner": 4714,
      "xture": 4715,
      "Ġsin": 4716,
      "Ġsed": 4717,
      "Ġsig": 4718,
      "Ġsize": 4719,
      "isel": 4720,
      "isted": 4721,
      "oren": 4722,
      "oring": 4723,
      "orical": 4724,
      "onia": 4725,
      "Ġpubl": 4726,
      "aric": 4727,
      "ared": 4728,
      "arter": 4729,
      "arless": 4730,
      "Ġisol": 4731,
      "Ġislands": 4732,
      "atidae": 4733,
      "atives": 4734,
      "atiably": 4735,
      "Ġtan": 4736,
      "Ġtough": 4737,
      "Ġtaking": 4738,
      "Ġtongue": 4739,
      "erved": 4740,
      "eranium": 4741,
      "ecular": 4742,
      "Ġfit": 4743,
      "Ġful": 4744,
      "Ġfant": 4745,
      "Ġfather": 4746,
      "Ġfont": 4747,
      "ouds": 4748,
      "oustic": 4749,
      "hatcher": 4750,
      "lets": 4751,
      "Ġcig": 4752,
      "Ġcast": 4753,
      "Ġcould": 4754,
      "ani": 4755,
      "anz": 4756,
      "anse": 4757,
      "anth": 4758,
      "Ġnip": 4759,
      "Ġinshore": 4760,
      "Ġinoffensive": 4761,
      "reed": 4762,
      "icit": 4763,
      "icum": 4764,
      "icult": 4765,
      "iccated": 4766,
      "Ġbog": 4767,
      "segregate": 4768,
      "Ġsyll": 4769,
      "ymp": 4770,
      "itar": 4771,
      "itively": 4772,
      "Ġwhe": 4773,
      "Ġwise": 4774,
      "Ġmine": 4775,
      "Ġmes": 4776,
      "Ġmud": 4777,
      "Ġmuc": 4778,
      "Ġmix": 4779,
      "Ġdent": 4780,
      "Ġdesp": 4781,
      "Ġdownstairs": 4782,
      "Ġank": 4783,
      "Ġanthra": 4784,
      "esper": 4785,
      "estival": 4786,
      "velo": 4787,
      "asily": 4788,
      "ashed": 4789,
      "roz": 4790,
      "Ġorange": 4791,
      "Ġhide": 4792,
      "Ġhapp": 4793,
      "Ġharsh": 4794,
      "Ġsenna": 4795,
      "Ġgate": 4796,
      "Ġgiant": 4797,
      "Ġgospel": 4798,
      "Ġgeranium": 4799,
      "iliation": 4800,
      "ushed": 4801,
      "Ġtoggle": 4802,
      "rael": 4803,
      "raut": 4804,
      "rated": 4805,
      "raise": 4806,
      "Ġlac": 4807,
      "Ġlap": 4808,
      "Ġligh": 4809,
      "Ġlie": 4810,
      "Ġlift": 4811,
      "Ġlives": 4812,
      "Ġloud": 4813,
      "Ġlength": 4814,
      "tious": 4815,
      "Ġeup": 4816,
      "Ġears": 4817,
      "Ġeasily": 4818,
      "ida": 4819,
      "iding": 4820,
      "idium": 4821,
      "unch": 4822,
      "osh": 4823,
      "osmic": 4824,
      "acc": 4825,
      "aco": 4826,
      "acill": 4827,
      "acular": 4828,
      "urer": 4829,
      "opic": 4830,
      "opter": 4831,
      "Ġadhes": 4832,
      "Ġadher": 4833,
      "check": 4834,
      "uls": 4835,
      "ulidae": 4836,
      "ulously": 4837,
      "etically": 4838,
      "ado": 4839,
      "ads": 4840,
      "abeth": 4841,
      "loon": 4842,
      "Ġstat": 4843,
      "Ġsting": 4844,
      "Ġstable": 4845,
      "Ġstars": 4846,
      "Ġstalk": 4847,
      "Ġstagn": 4848,
      "Ġstream": 4849,
      "Ġstones": 4850,
      "Ġstrict": 4851,
      "Ġrand": 4852,
      "Ġrub": 4853,
      "Ġrust": 4854,
      "Ġrough": 4855,
      "Ġrender": 4856,
      "umed": 4857,
      "street": 4858,
      "stained": 4859,
      "Ġconv": 4860,
      "Ġconform": 4861,
      "Ġconvent": 4862,
      "ocal": 4863,
      "oty": 4864,
      "ĠAb": 4865,
      "Ġonto": 4866,
      "ĠSal": 4867,
      "ifferent": 4868,
      "ifolia": 4869,
      "istan": 4870,
      "anda": 4871,
      "andine": 4872,
      "lace": 4873,
      "quatic": 4874,
      "querable": 4875,
      "ĠComm": 4876,
      "ĠClive": 4877,
      "Ġunple": 4878,
      "Ġundes": 4879,
      "Ġuneven": 4880,
      "Ġuntrust": 4881,
      "Ġunhoped": 4882,
      "Ġuncomfortable": 4883,
      "Ġvol": 4884,
      "Ġvict": 4885,
      "Ġvision": 4886,
      "Ġchaul": 4887,
      "Ġchisel": 4888,
      "Ġbeach": 4889,
      "Ġproject": 4890,
      "Ġspill": 4891,
      "Ġspores": 4892,
      "Ġshor": 4893,
      "Ġshri": 4894,
      "Ġshark": 4895,
      "Ġshould": 4896,
      "owding": 4897,
      "udgeon": 4898,
      "Ġexist": 4899,
      "Ġextend": 4900,
      "Ġled": 4901,
      "Ġlean": 4902,
      "Ġlearn": 4903,
      "ĠMo": 4904,
      "ĠMes": 4905,
      "ager": 4906,
      "ishable": 4907,
      "derness": 4908,
      "Ġseason": 4909,
      "ests": 4910,
      "estment": 4911,
      "estament": 4912,
      "Ġaccep": 4913,
      "Ġacceptance": 4914,
      "Ġatomic": 4915,
      "ancel": 4916,
      "Ġalarm": 4917,
      "phy": 4918,
      "Ġyew": 4919,
      "Ġdisposition": 4920,
      "key": 4921,
      "ĠPro": 4922,
      "ĠPenn": 4923,
      "ĠIgu": 4924,
      "ĠIrish": 4925,
      "therlands": 4926,
      "ĠHin": 4927,
      "Ġjour": 4928,
      "Ġjaw": 4929,
      "Ġjump": 4930,
      "Ġraw": 4931,
      "Ġraise": 4932,
      "Ġraised": 4933,
      "Ġtetra": 4934,
      "ĠTchaikovsky": 4935,
      "ĠTestament": 4936,
      "Ġenemy": 4937,
      "ĠGold": 4938,
      "ĠGeor": 4939,
      "Ġprenatal": 4940,
      "atha": 4941,
      "ĠLyc": 4942,
      "Ġblend": 4943,
      "Ġbladder": 4944,
      "Ġcomedy": 4945,
      "epigastric": 4946,
      "shop": 4947,
      "Ġabs": 4948,
      "Ġability": 4949,
      "Ġscratch": 4950,
      "Ġschedu": 4951,
      "Ġmeal": 4952,
      "Ġapart": 4953,
      "Ġoffer": 4954,
      "Ġoffspring": 4955,
      "ĠDe": 4956,
      "ĠFish": 4957,
      "iesel": 4958,
      "oughten": 4959,
      "Ġcompass": 4960,
      "Ġcompris": 4961,
      "Ġactions": 4962,
      "ilely": 4963,
      "Ġrecip": 4964,
      "fertilized": 4965,
      "ophren": 4966,
      "Ġdecomp": 4967,
      "Ġmoth": 4968,
      "conc": 4969,
      "conf": 4970,
      "Ġ18": 4971,
      "Ġimpressive": 4972,
      "Ġimpudent": 4973,
      "Ġfamil": 4974,
      "Ġspecify": 4975,
      "Ġinfection": 4976,
      "odylia": 4977,
      "Ġcommit": 4978,
      "Ġcommand": 4979,
      "Ġindep": 4980,
      "Ġneuro": 4981,
      "Ġexpressed": 4982,
      "Ġlarv": 4983,
      "Ġfeature": 4984,
      "Ġvehicle": 4985,
      "Ġcharacters": 4986,
      "Ġsky": 4987,
      "Ġamong": 4988,
      "Ġampl": 4989,
      "ensis": 4990,
      "ensable": 4991,
      "Ġregular": 4992,
      "Ġregional": 4993,
      "Ġregulation": 4994,
      "Ġacclaim": 4995,
      "Ġinches": 4996,
      "Ġmuscles": 4997,
      "Ġuseful": 4998,
      "Ġposs": 4999,
      "Ġefficacious": 5000,
      "Ġparal": 5001,
      "Ġparamilitary": 5002,
      "Ġalliance": 5003,
      "script": 5004,
      "Ġemotion": 5005,
      "ylene": 5006,
      "inally": 5007,
      "Ġevening": 5008,
      "Ġplayed": 5009,
      "Ġterrier": 5010,
      "bek": 5011,
      "Ġvariety": 5012,
      "moogra": 5013,
      "Ġpresence": 5014,
      "Ġinstead": 5015,
      "Ġmarch": 5016,
      "Ġgrades": 5017,
      "ennel": 5018,
      "Ġsettle": 5019,
      "grant": 5020,
      "arpal": 5021,
      "Ġequip": 5022,
      "Ġnumbers": 5023,
      "Ġslack": 5024,
      "Ġdefense": 5025,
      "Ġsolar": 5026,
      "Ġminute": 5027,
      "Ġmetab": 5028,
      "arbor": 5029,
      "relig": 5030,
      "Ġcorrect": 5031,
      "Ġconsists": 5032,
      "pointed": 5033,
      "ĠAlabama": 5034,
      "Ġguess": 5035,
      "183": 5036,
      "185": 5037,
      "189": 5038,
      "play": 5039,
      "omicidal": 5040,
      "aired": 5041,
      "aijan": 5042,
      "grad": 5043,
      "Ġends": 5044,
      "Ġended": 5045,
      "ographical": 5046,
      "Ġconcrete": 5047,
      "Ġsteam": 5048,
      "Ġoccasion": 5049,
      "Ġswift": 5050,
      "Ġbasis": 5051,
      "Ġbasil": 5052,
      "sels": 5053,
      "Ġmisery": 5054,
      "Ġcheese": 5055,
      "Ġhypo": 5056,
      "Ġtemporal": 5057,
      "Ġearless": 5058,
      "Ġphysic": 5059,
      "Ġserum": 5060,
      "Ġsalam": 5061,
      "Ġprovides": 5062,
      "Ġdiscretion": 5063,
      "Ġpopulation": 5064,
      "Ġsilly": 5065,
      "Ġpolitics": 5066,
      "Ġhemlock": 5067,
      "Ġcharacteristics": 5068,
      "uitary": 5069,
      "Ġfilled": 5070,
      "Ġbalance": 5071,
      "Ġresembles": 5072,
      "Ġrestraint": 5073,
      "locate": 5074,
      "Ġdepartment": 5075,
      "Ġrocks": 5076,
      "Ġopera": 5077,
      "Ġoperating": 5078,
      "Ġsealed": 5079,
      "tentous": 5080,
      "Ġexcer": 5081,
      "Ġexcit": 5082,
      "Ġcombat": 5083,
      "Ġsweat": 5084,
      "Ġrules": 5085,
      "stitution": 5086,
      "Ġvote": 5087,
      "iantly": 5088,
      "Ġnarc": 5089,
      "Ġantiknock": 5090,
      "illage": 5091,
      "Ġserving": 5092,
      "Ġservice": 5093,
      "asteromycetes": 5094,
      "oleric": 5095,
      "Ġliquor": 5096,
      "Ġshowed": 5097,
      "Ġeponym": 5098,
      "Ġprotein": 5099,
      "Ġseeds": 5100,
      "respect": 5101,
      "respons": 5102,
      "Ġperformed": 5103,
      "Ġcrooked": 5104,
      "Ġburner": 5105,
      "imentary": 5106,
      "Ġjudicial": 5107,
      "Ġautom": 5108,
      "Ġpractical": 5109,
      "Ġexperiment": 5110,
      "ricket": 5111,
      "Ġcement": 5112,
      "Ġcomplement": 5113,
      "Ġcabaret": 5114,
      "Ġdetermination": 5115,
      "ickener": 5116,
      "Ġbitter": 5117,
      "Ġdogs": 5118,
      "Ġcomposure": 5119,
      "Ġestablished": 5120,
      "belly": 5121,
      "Ġlegs": 5122,
      "burst": 5123,
      "riage": 5124,
      "smith": 5125,
      "raggy": 5126,
      "Ġsubstances": 5127,
      "Ġbacterial": 5128,
      "Ġharmon": 5129,
      "Ġeggs": 5130,
      "Ġexamination": 5131,
      "Ġeclect": 5132,
      "Ġsquare": 5133,
      "Ġfragrant": 5134,
      "Ġbarbarous": 5135,
      "Ġhours": 5136,
      "ilingual": 5137,
      "Ġcommunity": 5138,
      "Ġskills": 5139,
      "Ġeconom": 5140,
      "onorably": 5141,
      "Ġcordgrass": 5142,
      "Ġsynthetic": 5143,
      "Ġvitamin": 5144,
      "Ġchanging": 5145,
      "Ġshoes": 5146,
      "Ġoxide": 5147,
      "Ġcockle": 5148,
      "omaton": 5149,
      "versely": 5150,
      "Ġjoyful": 5151,
      "Ġauthority": 5152,
      "Ġsorrowful": 5153,
      "orado": 5154,
      "Ġfurther": 5155,
      "Ġwreck": 5156,
      "Ġdancers": 5157,
      "Ġgranadilla": 5158,
      "ĠAustralian": 5159,
      "Ġvagina": 5160,
      "ĠGuard": 5161,
      "Ġqualities": 5162,
      "Ġreproductive": 5163,
      "nithisch": 5164,
      "Ġinjury": 5165,
      "Ġdollar": 5166,
      "ozo": 5167,
      "Ġfault": 5168,
      "Ġfailure": 5169,
      "Ġcampaign": 5170,
      "Ġchoice": 5171,
      "phasis": 5172,
      "Ġoutcome": 5173,
      "Ġincluding": 5174,
      "Ġsummer": 5175,
      "Ġframe": 5176,
      "Ġmeningeal": 5177,
      "Ġmammal": 5178,
      "Ġliberal": 5179,
      "Ġcontains": 5180,
      "stitutionally": 5181,
      "Ġessential": 5182,
      "Ġpancre": 5183,
      "Ġcitizen": 5184,
      "Ġwalnut": 5185,
      "Ġarcheology": 5186,
      "Ġcommercial": 5187,
      "Ġtractable": 5188,
      "ĠKingdom": 5189,
      "Ġdetails": 5190,
      "guey": 5191,
      "rifug": 5192,
      "Ġsuspend": 5193,
      "Ġpanel": 5194,
      "Ġbudget": 5195,
      "Ġschizophren": 5196,
      "blown": 5197,
      "Ġornamental": 5198,
      "Ġlimbs": 5199,
      "ĠCasanova": 5200,
      "Ġdischarge": 5201,
      "Ġdifficult": 5202,
      "Ġsymptoms": 5203,
      "lizabeth": 5204,
      "Ġsorrel": 5205,
      "Ġstimul": 5206,
      "Ġcelandine": 5207,
      "ogamous": 5208,
      "ĠBaptist": 5209,
      "ĠChristian": 5210,
      "ufficiently": 5211,
      "Ġproportional": 5212,
      "Ġrandom": 5213,
      "Ġunpleasant": 5214,
      "Ġschizophrenia": 5215,
      "'ll": 5216,
      "-____": 5217,
      ".)": 5218,
      "13": 5219,
      "14": 5220,
      "40": 5221,
      "80": 5222,
      "Greek": 5223,
      "II": 5224,
      "aen": 5225,
      "bin": 5226,
      "brown": 5227,
      "barb": 5228,
      "brew": 5229,
      "bury": 5230,
      "card": 5231,
      "chem": 5232,
      "cLu": 5233,
      "dh": 5234,
      "dess": 5235,
      "dated": 5236,
      "down": 5237,
      "ebel": 5238,
      "far": 5239,
      "fellow": 5240,
      "gas": 5241,
      "gent": 5242,
      "gers": 5243,
      "gold": 5244,
      "gma": 5245,
      "iopod": 5246,
      "ja": 5247,
      "kward": 5248,
      "late": 5249,
      "lift": 5250,
      "lasm": 5251,
      "mar": 5252,
      "mug": 5253,
      "matic": 5254,
      "moss": 5255,
      "mosph": 5256,
      "nis": 5257,
      "nel": 5258,
      "nable": 5259,
      "native": 5260,
      "natural": 5261,
      "oise": 5262,
      "pack": 5263,
      "psy": 5264,
      "picture": 5265,
      "rh": 5266,
      "ras": 5267,
      "rudent": 5268,
      "sn": 5269,
      "so": 5270,
      "social": 5271,
      "uis": 5272,
      "uzz": 5273,
      "vous": 5274,
      "vated": 5275,
      "with": 5276,
      "wind": 5277,
      "wild": 5278,
      "wise": 5279,
      "wife": 5280,
      "xide": 5281,
      "xchange": 5282,
      "yr": 5283,
      "yrus": 5284,
      "zbek": 5285,
      "Ġ6": 5286,
      "Ġ9": 5287,
      "Ġx": 5288,
      "Ġly": 5289,
      "Ġomen": 5290,
      "Ġumb": 5291,
      "Ġibuprofen": 5292,
      "tet": 5293,
      "teline": 5294,
      "terest": 5295,
      "intest": 5296,
      "Ġsap": 5297,
      "Ġsack": 5298,
      "Ġske": 5299,
      "Ġslap": 5300,
      "Ġsiphon": 5301,
      "Ġath": 5302,
      "Ġaque": 5303,
      "Ġailing": 5304,
      "isition": 5305,
      "istent": 5306,
      "isiform": 5307,
      "ona": 5308,
      "onge": 5309,
      "onds": 5310,
      "Ġped": 5311,
      "Ġpac": 5312,
      "Ġpel": 5313,
      "Ġpity": 5314,
      "Ġpers": 5315,
      "Ġpick": 5316,
      "Ġpale": 5317,
      "Ġpaid": 5318,
      "Ġpilot": 5319,
      "aron": 5320,
      "aries": 5321,
      "atical": 5322,
      "atable": 5323,
      "atform": 5324,
      "Ġtun": 5325,
      "Ġtum": 5326,
      "Ġtrom": 5327,
      "Ġtry": 5328,
      "Ġtort": 5329,
      "Ġtune": 5330,
      "erine": 5331,
      "erent": 5332,
      "eration": 5333,
      "ecution": 5334,
      "Ġfr": 5335,
      "Ġfric": 5336,
      "Ġfind": 5337,
      "Ġfund": 5338,
      "Ġfoss": 5339,
      "Ġfries": 5340,
      "Ġfelt": 5341,
      "Ġfederal": 5342,
      "Ġfields": 5343,
      "Ġfarthermost": 5344,
      "Ġfracture": 5345,
      "heid": 5346,
      "oute": 5347,
      "oura": 5348,
      "peaker": 5349,
      "inea": 5350,
      "ineless": 5351,
      "lev": 5352,
      "Ġcant": 5353,
      "Ġcome": 5354,
      "Ġcake": 5355,
      "Ġcrop": 5356,
      "Ġcatch": 5357,
      "Ġcode": 5358,
      "Ġcagey": 5359,
      "anx": 5360,
      "ante": 5361,
      "anation": 5362,
      "anut": 5363,
      "anidae": 5364,
      "alization": 5365,
      "Ġnic": 5366,
      "Ġnurs": 5367,
      "Ġnames": 5368,
      "Ġnuis": 5369,
      "Ġinqu": 5370,
      "Ġintra": 5371,
      "Ġinaug": 5372,
      "Ġingrat": 5373,
      "Ġtheories": 5374,
      "reation": 5375,
      "Ġforc": 5376,
      "ounts": 5377,
      "Ġbam": 5378,
      "Ġbred": 5379,
      "Ġbull": 5380,
      "Ġburs": 5381,
      "Ġberry": 5382,
      "Ġbouncing": 5383,
      "omile": 5384,
      "sess": 5385,
      "sequence": 5386,
      "Ġsyringe": 5387,
      "ceived": 5388,
      "ymn": 5389,
      "ymen": 5390,
      "itz": 5391,
      "itra": 5392,
      "itiv": 5393,
      "itated": 5394,
      "itating": 5395,
      "itory": 5396,
      "itrify": 5397,
      "Ġwish": 5398,
      "Ġwings": 5399,
      "Ġwaves": 5400,
      "Ġwitch": 5401,
      "Ġwrench": 5402,
      "Ġwheat": 5403,
      "Ġwitness": 5404,
      "Ġmac": 5405,
      "Ġmot": 5406,
      "Ġmort": 5407,
      "Ġmating": 5408,
      "Ġmars": 5409,
      "Ġmellow": 5410,
      "Ġmature": 5411,
      "Ġmaster": 5412,
      "Ġded": 5413,
      "Ġdip": 5414,
      "Ġdata": 5415,
      "Ġdoddering": 5416,
      "Ġanten": 5417,
      "Ġanch": 5418,
      "Ġanag": 5419,
      "Ġangle": 5420,
      "Ġantis": 5421,
      "estive": 5422,
      "ested": 5423,
      "esocidae": 5424,
      "ionist": 5425,
      "tense": 5426,
      "tented": 5427,
      "asted": 5428,
      "ros": 5429,
      "roy": 5430,
      "roebel": 5431,
      "edo": 5432,
      "Ġhol": 5433,
      "Ġhig": 5434,
      "Ġhoc": 5435,
      "Ġhow": 5436,
      "Ġhill": 5437,
      "Ġhone": 5438,
      "Ġhaz": 5439,
      "Ġhabit": 5440,
      "Ġsenses": 5441,
      "Ġgal": 5442,
      "Ġgall": 5443,
      "Ġgather": 5444,
      "tery": 5445,
      "terman": 5446,
      "enta": 5447,
      "ompat": 5448,
      "ilip": 5449,
      "iltra": 5450,
      "ilously": 5451,
      "ilocks": 5452,
      "uster": 5453,
      "usable": 5454,
      "ustible": 5455,
      "Ġtob": 5456,
      "Ġtool": 5457,
      "Ġtoxic": 5458,
      "rase": 5459,
      "rait": 5460,
      "raid": 5461,
      "rauc": 5462,
      "olo": 5463,
      "oling": 5464,
      "olaceae": 5465,
      "vereign": 5466,
      "Ġlake": 5467,
      "Ġlily": 5468,
      "Ġlined": 5469,
      "Ġlady": 5470,
      "Ġlingu": 5471,
      "tip": 5472,
      "tiff": 5473,
      "Ġeating": 5474,
      "Ġeld": 5475,
      "idian": 5476,
      "thus": 5477,
      "osure": 5478,
      "acing": 5479,
      "uron": 5480,
      "urse": 5481,
      "Ġreti": 5482,
      "open": 5483,
      "opard": 5484,
      "Ġadvent": 5485,
      "Ġaddition": 5486,
      "imar": 5487,
      "imal": 5488,
      "cho": 5489,
      "chil": 5490,
      "chus": 5491,
      "chlor": 5492,
      "igate": 5493,
      "ada": 5494,
      "adic": 5495,
      "amorous": 5496,
      "Ġstro": 5497,
      "Ġstability": 5498,
      "Ġstaff": 5499,
      "Ġstressed": 5500,
      "Ġstove": 5501,
      "Ġstreak": 5502,
      "irl": 5503,
      "iring": 5504,
      "oda": 5505,
      "odar": 5506,
      "odic": 5507,
      "odia": 5508,
      "jected": 5509,
      "Ġrom": 5510,
      "Ġrip": 5511,
      "Ġrue": 5512,
      "Ġrise": 5513,
      "Ġricket": 5514,
      "stage": 5515,
      "stances": 5516,
      "Ġcone": 5517,
      "Ġconven": 5518,
      "otyp": 5519,
      "ousing": 5520,
      "ousman": 5521,
      "Ġwithdraw": 5522,
      "ĠAff": 5523,
      "ĠAlex": 5524,
      "iazy": 5525,
      "Ġonce": 5526,
      "ĠSp": 5527,
      "ĠSir": 5528,
      "ĠServ": 5529,
      "ĠSaint": 5530,
      "ĠSimon": 5531,
      "ĠSzech": 5532,
      "ifies": 5533,
      "ifier": 5534,
      "istoc": 5535,
      "Ġhearing": 5536,
      "Ġhetero": 5537,
      "Ġhedge": 5538,
      "Ġhealth": 5539,
      "lase": 5540,
      "quent": 5541,
      "question": 5542,
      "Ġunprofessional": 5543,
      "Ġunidentified": 5544,
      "Ġunadjusted": 5545,
      "Ġvary": 5546,
      "Ġvulgar": 5547,
      "Ġvillage": 5548,
      "cture": 5549,
      "Ġchair": 5550,
      "Ġthorn": 5551,
      "Ġthink": 5552,
      "Ġthyme": 5553,
      "utch": 5554,
      "utable": 5555,
      "Ġsport": 5556,
      "Ġshore": 5557,
      "Ġshare": 5558,
      "owd": 5559,
      "ectual": 5560,
      "posure": 5561,
      "romol": 5562,
      "ersion": 5563,
      "allic": 5564,
      "allop": 5565,
      "izz": 5566,
      "Ġdemand": 5567,
      "Ġdetect": 5568,
      "Ġexternal": 5569,
      "ibet": 5570,
      "ĠMel": 5571,
      "ĠMong": 5572,
      "ĠMark": 5573,
      "ĠMountain": 5574,
      "assu": 5575,
      "asserman": 5576,
      "ivorous": 5577,
      "Ġseen": 5578,
      "Ġgenital": 5579,
      "ayana": 5580,
      "Ġardu": 5581,
      "Ġartic": 5582,
      "Ġarmed": 5583,
      "illin": 5584,
      "Ġactive": 5585,
      "Ġacross": 5586,
      "Ġalread": 5587,
      "ĠBl": 5588,
      "ĠBo": 5589,
      "ĠBur": 5590,
      "ĠBermuda": 5591,
      "perbolic": 5592,
      "Ġwhole": 5593,
      "keley": 5594,
      "rank": 5595,
      "ranian": 5596,
      "emer": 5597,
      "ĠPinaceae": 5598,
      "ĠParis": 5599,
      "ruze": 5600,
      "ustrum": 5601,
      "Ġrais": 5602,
      "Ġramp": 5603,
      "ĠExchange": 5604,
      "Ġrelatively": 5605,
      "Ġtel": 5606,
      "Ġtell": 5607,
      "ĠTai": 5608,
      "ĠThatcher": 5609,
      "Ġimage": 5610,
      "Ġcoin": 5611,
      "Ġcoex": 5612,
      "Ġcooked": 5613,
      "Ġencl": 5614,
      "Ġency": 5615,
      "Ġenjo": 5616,
      "Ġrole": 5617,
      "Ġroyal": 5618,
      "ĠGen": 5619,
      "ĠGhana": 5620,
      "ĠGasteromycetes": 5621,
      "Ġprinted": 5622,
      "ledon": 5623,
      "ĠLoren": 5624,
      "ducent": 5625,
      "Ġitself": 5626,
      "Ġpertaining": 5627,
      "Ġperpet": 5628,
      "Ġperception": 5629,
      "Ġbling": 5630,
      "Ġblight": 5631,
      "Ġbloss": 5632,
      "Ġblister": 5633,
      "Ġblasphemous": 5634,
      "akey": 5635,
      "Ġoutboard": 5636,
      "Ġcompet": 5637,
      "iousness": 5638,
      "ĠRod": 5639,
      "orean": 5640,
      "Ġabnormal": 5641,
      "ismal": 5642,
      "ugs": 5643,
      "Ġupon": 5644,
      "elling": 5645,
      "ĠWestern": 5646,
      "Ġgrant": 5647,
      "acher": 5648,
      "Ġscallop": 5649,
      "Ġareas": 5650,
      "Ġmean": 5651,
      "Ġmeaning": 5652,
      "ysuck": 5653,
      "Ġquail": 5654,
      "itional": 5655,
      "ordance": 5656,
      "ordinary": 5657,
      "lander": 5658,
      "Ġapat": 5659,
      "Ġappe": 5660,
      "Ġclam": 5661,
      "Ġcloud": 5662,
      "ĠDNA": 5663,
      "ĠDowding": 5664,
      "beresocidae": 5665,
      "ieving": 5666,
      "weaned": 5667,
      "pedition": 5668,
      "Ġcomplic": 5669,
      "Ġcolony": 5670,
      "lessness": 5671,
      "Ġweeping": 5672,
      "ockcr": 5673,
      "Ġcarries": 5674,
      "Ġcarpetbag": 5675,
      "awai": 5676,
      "ĠJew": 5677,
      "ĠJude": 5678,
      "ĠStock": 5679,
      "ucin": 5680,
      "Ġsuperv": 5681,
      "Ġconserv": 5682,
      "Ġsuborder": 5683,
      "Ġsubatomic": 5684,
      "acterial": 5685,
      "Ġelm": 5686,
      "Ġelim": 5687,
      "Ġelastic": 5688,
      "ophoresis": 5689,
      "Ġdecline": 5690,
      "Ġdecisions": 5691,
      "Ġmoved": 5692,
      "Ġmoving": 5693,
      "ĠChar": 5694,
      "aved": 5695,
      "obarbital": 5696,
      "consc": 5697,
      "Ġ11": 5698,
      "Ġ12": 5699,
      "Ġimprec": 5700,
      "Ġimpulse": 5701,
      "Ġimprudent": 5702,
      "Ġovercast": 5703,
      "Ġtrain": 5704,
      "Ġtrained": 5705,
      "Ġtradition": 5706,
      "ĠOce": 5707,
      "armot": 5708,
      "Ġloiter": 5709,
      "Ġloading": 5710,
      "Ġnext": 5711,
      "Ġexpress": 5712,
      "Ġexpiate": 5713,
      "ĠVeter": 5714,
      "Ġfee": 5715,
      "Ġfeather": 5716,
      "Ġfeeding": 5717,
      "Ġvetch": 5718,
      "Ġflinty": 5719,
      "timal": 5720,
      "Ġregistered": 5721,
      "Ġsystematize": 5722,
      "exas": 5723,
      "pargan": 5724,
      "prove": 5725,
      "Ġincor": 5726,
      "Ġincite": 5727,
      "Ġworkshop": 5728,
      "ronomy": 5729,
      "Ġpossess": 5730,
      "Ġparrot": 5731,
      "negative": 5732,
      "Ġdescribed": 5733,
      "Ġinterrelation": 5734,
      "Ġevapor": 5735,
      "deb": 5736,
      "Ġcurve": 5737,
      "ĠKh": 5738,
      "Ġdistingu": 5739,
      "Ġheadache": 5740,
      "Ġradi": 5741,
      "ondon": 5742,
      "Ġinsect": 5743,
      "Ġunderstand": 5744,
      "Ġelectrom": 5745,
      "Ġcentrifug": 5746,
      "Ġmarg": 5747,
      "Ġthanks": 5748,
      "enninger": 5749,
      "Ġreferee": 5750,
      "Ġirrespons": 5751,
      "arpus": 5752,
      "Ġorganized": 5753,
      "regn": 5754,
      "Ġbloom": 5755,
      "Ġbloody": 5756,
      "Ġvalid": 5757,
      "Ġattachment": 5758,
      "Ġslip": 5759,
      "Ġbrill": 5760,
      "undane": 5761,
      "incent": 5762,
      "iscreet": 5763,
      "Ġsecrete": 5764,
      "Ġbathetic": 5765,
      "Ġsoon": 5766,
      "Ġsovereign": 5767,
      "Ġrepair": 5768,
      "Ġrespir": 5769,
      "rought": 5770,
      "Ġfolia": 5771,
      "Ġcoral": 5772,
      "Ġcorrespond": 5773,
      "Ġinstruct": 5774,
      "Ġcreamy": 5775,
      "ĠAlcyon": 5776,
      "oviet": 5777,
      "Ġguard": 5778,
      "186": 5779,
      "Ġmodel": 5780,
      "Ġlightness": 5781,
      "ariah": 5782,
      "rochet": 5783,
      "Ġintegr": 5784,
      "ĠHebrew": 5785,
      "ietrich": 5786,
      "Ġofficio": 5787,
      "comberesocidae": 5788,
      "ooge": 5789,
      "Ġsnap": 5790,
      "Ġbecause": 5791,
      "where": 5792,
      "Ġsocially": 5793,
      "Ġafraid": 5794,
      "Ġairless": 5795,
      "Ġmisapp": 5796,
      "atchcock": 5797,
      "Ġtempor": 5798,
      "Ġbroke": 5799,
      "Ġbrother": 5800,
      "ĠAfter": 5801,
      "Ġarterial": 5802,
      "Ġ193": 5803,
      "tah": 5804,
      "Ġfoundation": 5805,
      "Ġpleurocarp": 5806,
      "Ġsunflower": 5807,
      "Ġpositions": 5808,
      "Ġdrab": 5809,
      "Ġdrag": 5810,
      "Ġdraft": 5811,
      "opsis": 5812,
      "ships": 5813,
      "dley": 5814,
      "Ġsignal": 5815,
      "Ġsignific": 5816,
      "Ġsignals": 5817,
      "Ġcleavers": 5818,
      "Ġhemiazy": 5819,
      "Ġdifferentiated": 5820,
      "oxide": 5821,
      "Ġballoon": 5822,
      "Ġholds": 5823,
      "Ġbehold": 5824,
      "ription": 5825,
      "Ġsouthwest": 5826,
      "Ġdepth": 5827,
      "Ġmatrix": 5828,
      "asma": 5829,
      "Ġready": 5830,
      "Ġoperation": 5831,
      "chestra": 5832,
      "flies": 5833,
      "Ġactivities": 5834,
      "Ġsweeten": 5835,
      "Ġcypress": 5836,
      "Ġdryer": 5837,
      "Ġbarren": 5838,
      "Ġteaching": 5839,
      "Ġaffair": 5840,
      "Ġshowing": 5841,
      "Ġzone": 5842,
      "Ġfertilized": 5843,
      "respass": 5844,
      "monary": 5845,
      "ceptable": 5846,
      "Ġdivision": 5847,
      "Ġstarted": 5848,
      "Ġappropriate": 5849,
      "Ġanalgesic": 5850,
      "Ġjudgment": 5851,
      "Ġplanet": 5852,
      "Ġplanted": 5853,
      "rentable": 5854,
      "Ġpsychic": 5855,
      "Ġangular": 5856,
      "Ġangelic": 5857,
      "Ġsemblance": 5858,
      "ĠWebber": 5859,
      "audi": 5860,
      "Ġentrance": 5861,
      "ertz": 5862,
      "Ġexplanation": 5863,
      "Ġentertain": 5864,
      "Ġentertaining": 5865,
      "Ġdiagon": 5866,
      "ĠPhal": 5867,
      "ĠPhys": 5868,
      "Ġcomposer": 5869,
      "Ġcomposition": 5870,
      "Ġtreaty": 5871,
      "Ġtreatment": 5872,
      "ontane": 5873,
      "Ġduct": 5874,
      "Ġdigestive": 5875,
      "ĠShakes": 5876,
      "Ġdebilit": 5877,
      "Ġdeeply": 5878,
      "profitable": 5879,
      "Ġresults": 5880,
      "Ġfacto": 5881,
      "helium": 5882,
      "setter": 5883,
      "Ġaddled": 5884,
      "Ġgenerally": 5885,
      "Ġjuvenile": 5886,
      "companied": 5887,
      "Ġbringing": 5888,
      "Ġgeographical": 5889,
      "loyd": 5890,
      "Ġmodernity": 5891,
      "Ġintellectual": 5892,
      "break": 5893,
      "breathing": 5894,
      "Ġrequire": 5895,
      "Ġtelev": 5896,
      "Ġneeded": 5897,
      "Ġengineer": 5898,
      "Ġpotatoes": 5899,
      "Ġstir": 5900,
      "Ġsquash": 5901,
      "Ġfungus": 5902,
      "Ġuniversity": 5903,
      "Ġallows": 5904,
      "Ġracemes": 5905,
      "Ġvalues": 5906,
      "Ġvaluable": 5907,
      "Ġcalculable": 5908,
      "Ġviolin": 5909,
      "Ġsuccessful": 5910,
      "calcul": 5911,
      "Ġtube": 5912,
      "Ġfibrosis": 5913,
      "oulder": 5914,
      "ĠMuslim": 5915,
      "Ġalcoholic": 5916,
      "rimal": 5917,
      "Ġfinanc": 5918,
      "Ġcredit": 5919,
      "Ġcockamamie": 5920,
      "Ġsticky": 5921,
      "ĠSecurity": 5922,
      "otho": 5923,
      "oradic": 5924,
      "Ġborderline": 5925,
      "Ġmaxi": 5926,
      "Ġgrotes": 5927,
      "Ġthorough": 5928,
      "Ġproblems": 5929,
      "Ġestablishment": 5930,
      "Ġtransport": 5931,
      "Ġcostly": 5932,
      "Ġnortheast": 5933,
      "Ġinitiation": 5934,
      "Ġdrooping": 5935,
      "Ġdollars": 5936,
      "Ġgrama": 5937,
      "Ġrailroad": 5938,
      "Ġoutwardness": 5939,
      "Ġhydrogen": 5940,
      "somely": 5941,
      "Ġfaith": 5942,
      "cella": 5943,
      "tensive": 5944,
      "Ġhorned": 5945,
      "urrilously": 5946,
      "Ġadmiral": 5947,
      "odermic": 5948,
      "ĠColorado": 5949,
      "ĠIsrael": 5950,
      "Ġpolyp": 5951,
      "Ġapparently": 5952,
      "Ġdirectly": 5953,
      "Ġfrequency": 5954,
      "organically": 5955,
      "Ġhistorical": 5956,
      "ĠAdministration": 5957,
      "quila": 5958,
      "Ġdeposits": 5959,
      "Ġexhaustion": 5960,
      "Ġprisoners": 5961,
      "ĠNetherlands": 5962,
      "Ġhopeful": 5963,
      "Ġhempweed": 5964,
      "Ġmolecule": 5965,
      "Ġmolecules": 5966,
      "Ġphenomenon": 5967,
      "Ġfashioned": 5968,
      "cuador": 5969,
      "palach": 5970,
      "warf": 5971,
      "Ġprairie": 5972,
      "Ġtouch": 5973,
      "iloquent": 5974,
      "ĠAsiatic": 5975,
      "Ġchamomile": 5976,
      "Ġaccessory": 5977,
      "Ġapplaudable": 5978,
      "Ġcarefully": 5979,
      "Ġorganisms": 5980,
      "Ġdocument": 5981,
      "Ġphilosopher": 5982,
      "tinent": 5983,
      "Ġutter": 5984,
      "Ġsadness": 5985,
      "Ġdanger": 5986,
      "Ġhamper": 5987,
      "Ġrectus": 5988,
      "Ġribbon": 5989,
      "Ġprocedure": 5990,
      "Ġdeprived": 5991,
      "ĠFlorida": 5992,
      "Ġdeclaration": 5993,
      "Ġgradually": 5994,
      "Ġsimplicity": 5995,
      "Ġadvantageous": 5996,
      "Ġpsittac": 5997,
      "Ġflesh": 5998,
      "Ġbrief": 5999
    },
    "merges": [
      [
        "o",
        "f"
      ],
      [
        "t",
        "e"
      ],
      [
        "e",
        "n"
      ],
      [
        "en",
        "d"
      ],
      [
        "i",
        "n"
      ],
      [
        "x",
        "t"
      ],
      [
        "of",
        "te"
      ],
      [
        "<",
        "|"
      ],
      [
        "|",
        ">"
      ],
      [
        "end",
        "ofte"
      ],
      [
        "endofte",
        "xt"
      ],
      [
        "Ġ",
        "s"
      ],
      [
        "Ġ",
        "a"
      ],
      [
        "i",
        "s"
      ],
      [
        "o",
        "r"
      ],
      [
        "o",
        "n"
      ],
      [
        "Ġ",
        "p"
      ],
      [
        "a",
        "r"
      ],
      [
        "Ġ",
        "is"
      ],
      [
        "a",
        "t"
      ],
      [
        "Ġ",
        "of"
      ],
      [
        "Ġ",
        "t"
      ],
      [
        "e",
        "r"
      ],
      [
        "e",
        "c"
      ],
      [
        "Ġ",
        "f"
      ],
      [
        "Ġ",
        "\""
      ],
      [
        "h",
        "e"
      ],
      [
        "o",
        "u"
      ],
      [
        "p",
        "e"
      ],
      [
        "in",
        "e"
      ],
      [
        "h",
        "at"
      ],
      [
        "e",
        "f"
      ],
      [
        "ar",
        "t"
      ],
      [
        "Ġp",
        "art"
      ],
      [
        "l",
        "e"
      ],
      [
        "Ġ",
        "c"
      ],
      [
        "ec",
        "h"
      ],
      [
        "Ġs",
        "pe"
      ],
      [
        "Ġspe",
        "ech"
      ],
      [
        "ef",
        "ine"
      ],
      [
        "W",
        "hat"
      ],
      [
        "\"",
        "?"
      ],
      [
        "D",
        "efine"
      ],
      [
        "a",
        "n"
      ],
      [
        "a",
        "l"
      ],
      [
        "Ġ",
        "n"
      ],
      [
        "Ġ",
        "in"
      ],
      [
        "Ġt",
        "he"
      ],
      [
        "r",
        "e"
      ],
      [
        "_",
        "_"
      ],
      [
        "Ġf",
        "or"
      ],
      [
        "ou",
        "n"
      ],
      [
        "i",
        "c"
      ],
      [
        "in",
        "g"
      ],
      [
        "Ġ",
        "b"
      ],
      [
        "o",
        "m"
      ],
      [
        "s",
        "e"
      ],
      [
        "Ġs",
        "y"
      ],
      [
        "c",
        "e"
      ],
      [
        "y",
        "m"
      ],
      [
        "i",
        "t"
      ],
      [
        "Ġn",
        "oun"
      ],
      [
        "n",
        "on"
      ],
      [
        "Ġsy",
        "non"
      ],
      [
        "Ġsynon",
        "ym"
      ],
      [
        "Ġ",
        "w"
      ],
      [
        "Ġ",
        "m"
      ],
      [
        "Ġ",
        "d"
      ],
      [
        "Ġa",
        "n"
      ],
      [
        "e",
        "s"
      ],
      [
        "i",
        "on"
      ],
      [
        "te",
        "n"
      ],
      [
        "v",
        "e"
      ],
      [
        "a",
        "s"
      ],
      [
        "r",
        "o"
      ],
      [
        "e",
        "d"
      ],
      [
        "Ġ",
        "or"
      ],
      [
        "l",
        "y"
      ],
      [
        "Ġ",
        "h"
      ],
      [
        "Ġs",
        "en"
      ],
      [
        "ten",
        "ce"
      ],
      [
        "Ġsen",
        "tence"
      ],
      [
        "U",
        "se"
      ],
      [
        "Ġ",
        "g"
      ],
      [
        "te",
        "r"
      ],
      [
        "en",
        "t"
      ],
      [
        "om",
        "p"
      ],
      [
        "i",
        "l"
      ],
      [
        "u",
        "s"
      ],
      [
        "Ġt",
        "o"
      ],
      [
        "r",
        "a"
      ],
      [
        "w",
        "er"
      ],
      [
        "o",
        "l"
      ],
      [
        "v",
        "er"
      ],
      [
        "Ġ",
        "l"
      ],
      [
        "n",
        "s"
      ],
      [
        "t",
        "i"
      ],
      [
        "omp",
        "le"
      ],
      [
        "omple",
        "te"
      ],
      [
        "Ġ",
        "e"
      ],
      [
        "A",
        "ns"
      ],
      [
        "C",
        "omplete"
      ],
      [
        "__",
        "__"
      ],
      [
        "Ans",
        "wer"
      ],
      [
        "Ġ",
        "____"
      ],
      [
        "Ġan",
        "d"
      ],
      [
        "i",
        "d"
      ],
      [
        "t",
        "h"
      ],
      [
        "u",
        "n"
      ],
      [
        "o",
        "s"
      ],
      [
        "a",
        "c"
      ],
      [
        "u",
        "r"
      ],
      [
        "Ġ",
        "re"
      ],
      [
        "o",
        "p"
      ],
      [
        "a",
        "te"
      ],
      [
        "Ġa",
        "d"
      ],
      [
        "at",
        "ion"
      ],
      [
        "e",
        "l"
      ],
      [
        "i",
        "m"
      ],
      [
        "c",
        "h"
      ],
      [
        "u",
        "l"
      ],
      [
        "i",
        "g"
      ],
      [
        "e",
        "t"
      ],
      [
        "a",
        "d"
      ],
      [
        "a",
        "m"
      ],
      [
        "a",
        "b"
      ],
      [
        "l",
        "o"
      ],
      [
        "Ġs",
        "t"
      ],
      [
        "i",
        "r"
      ],
      [
        "ti",
        "ve"
      ],
      [
        "o",
        "d"
      ],
      [
        "j",
        "ec"
      ],
      [
        "Ġ",
        "r"
      ],
      [
        "u",
        "m"
      ],
      [
        "it",
        "h"
      ],
      [
        "s",
        "t"
      ],
      [
        "g",
        "e"
      ],
      [
        "i",
        "te"
      ],
      [
        "ver",
        "b"
      ],
      [
        "Ġc",
        "on"
      ],
      [
        "o",
        "c"
      ],
      [
        "o",
        "t"
      ],
      [
        "jec",
        "tive"
      ],
      [
        "Ġad",
        "jective"
      ],
      [
        "Ġ",
        "("
      ],
      [
        "s",
        "s"
      ],
      [
        "ou",
        "s"
      ],
      [
        "Ġw",
        "ith"
      ],
      [
        "Ġ",
        "A"
      ],
      [
        "Ġw",
        "h"
      ],
      [
        "i",
        "a"
      ],
      [
        "Ġt",
        "hat"
      ],
      [
        "i",
        "al"
      ],
      [
        "Ġ",
        "on"
      ],
      [
        "Ġ",
        "S"
      ],
      [
        "i",
        "f"
      ],
      [
        "is",
        "t"
      ],
      [
        "an",
        "d"
      ],
      [
        "an",
        "t"
      ],
      [
        "i",
        "ve"
      ],
      [
        "Ġ",
        "he"
      ],
      [
        "l",
        "a"
      ],
      [
        "q",
        "u"
      ],
      [
        "Ġ",
        "verb"
      ],
      [
        "Ġ",
        "C"
      ],
      [
        "Ġ",
        "un"
      ],
      [
        "it",
        "y"
      ],
      [
        "Ġ",
        "v"
      ],
      [
        "c",
        "t"
      ],
      [
        "Ġc",
        "h"
      ],
      [
        "ic",
        "al"
      ],
      [
        "Ġt",
        "h"
      ],
      [
        "Ġb",
        "e"
      ],
      [
        "Ġb",
        "y"
      ],
      [
        "a",
        "p"
      ],
      [
        "u",
        "t"
      ],
      [
        "a",
        "k"
      ],
      [
        "u",
        "p"
      ],
      [
        "T",
        "he"
      ],
      [
        "Ġp",
        "ro"
      ],
      [
        "Ġ",
        "op"
      ],
      [
        "i",
        "p"
      ],
      [
        "Ġs",
        "p"
      ],
      [
        "Ġs",
        "h"
      ],
      [
        "u",
        "re"
      ],
      [
        "o",
        "w"
      ],
      [
        "ec",
        "t"
      ],
      [
        "ou",
        "t"
      ],
      [
        "ig",
        "h"
      ],
      [
        "p",
        "os"
      ],
      [
        "r",
        "om"
      ],
      [
        "er",
        "s"
      ],
      [
        "m",
        "ent"
      ],
      [
        "al",
        "l"
      ],
      [
        "om",
        "e"
      ],
      [
        "ar",
        "d"
      ],
      [
        "ab",
        "le"
      ],
      [
        "i",
        "z"
      ],
      [
        "es",
        "s"
      ],
      [
        "a",
        "v"
      ],
      [
        "u",
        "d"
      ],
      [
        "Ġd",
        "e"
      ],
      [
        "Ġe",
        "x"
      ],
      [
        "u",
        "se"
      ],
      [
        "o",
        "g"
      ],
      [
        "Ġ",
        "o"
      ],
      [
        "Ġ",
        "le"
      ],
      [
        "a",
        "e"
      ],
      [
        "te",
        "d"
      ],
      [
        "i",
        "b"
      ],
      [
        "u",
        "b"
      ],
      [
        "Ġ",
        "M"
      ],
      [
        "as",
        "s"
      ],
      [
        "a",
        "g"
      ],
      [
        "a",
        "in"
      ],
      [
        "i",
        "v"
      ],
      [
        "is",
        "h"
      ],
      [
        "d",
        "er"
      ],
      [
        "i",
        "an"
      ],
      [
        "Ġs",
        "e"
      ],
      [
        "Ġa",
        "s"
      ],
      [
        "as",
        "t"
      ],
      [
        "igh",
        "t"
      ],
      [
        "pos",
        "ite"
      ],
      [
        "Ġg",
        "en"
      ],
      [
        "a",
        "y"
      ],
      [
        "Ġop",
        "posite"
      ],
      [
        "Ġa",
        "r"
      ],
      [
        "es",
        "t"
      ],
      [
        "il",
        "l"
      ],
      [
        "r",
        "y"
      ],
      [
        "on",
        "e"
      ],
      [
        "Ġa",
        "c"
      ],
      [
        "Ġf",
        "rom"
      ],
      [
        "Ġa",
        "t"
      ],
      [
        "an",
        "ce"
      ],
      [
        "ac",
        "k"
      ],
      [
        "Ġa",
        "l"
      ],
      [
        "Ġs",
        "ome"
      ],
      [
        "Ġ",
        "B"
      ],
      [
        "p",
        "er"
      ],
      [
        "ar",
        "y"
      ],
      [
        "ate",
        "d"
      ],
      [
        "a",
        "ge"
      ],
      [
        "p",
        "h"
      ],
      [
        "Ġw",
        "as"
      ],
      [
        "Ġ",
        "y"
      ],
      [
        "oun",
        "d"
      ],
      [
        "Ġwh",
        "o"
      ],
      [
        "i",
        "es"
      ],
      [
        "Ġd",
        "is"
      ],
      [
        "k",
        "e"
      ],
      [
        "r",
        "an"
      ],
      [
        "r",
        "ic"
      ],
      [
        "or",
        "m"
      ],
      [
        "e",
        "m"
      ],
      [
        "Ġ",
        "P"
      ],
      [
        "Ġ",
        "I"
      ],
      [
        "or",
        "t"
      ],
      [
        "th",
        "er"
      ],
      [
        "le",
        "s"
      ],
      [
        "Ġ",
        "H"
      ],
      [
        "Ġgen",
        "us"
      ],
      [
        "r",
        "u"
      ],
      [
        "Ġ",
        "j"
      ],
      [
        "us",
        "t"
      ],
      [
        "Ġ",
        "ra"
      ],
      [
        "re",
        "s"
      ],
      [
        "lo",
        "w"
      ],
      [
        "Ġ",
        "E"
      ],
      [
        "ou",
        "r"
      ],
      [
        "a",
        "ce"
      ],
      [
        "a",
        "ter"
      ],
      [
        "er",
        "e"
      ],
      [
        "m",
        "er"
      ],
      [
        "an",
        "g"
      ],
      [
        "use",
        "d"
      ],
      [
        "Ġre",
        "l"
      ],
      [
        "Ġ",
        "te"
      ],
      [
        "id",
        "e"
      ],
      [
        "Ġ",
        "T"
      ],
      [
        "Ġ",
        "im"
      ],
      [
        "e",
        "w"
      ],
      [
        "u",
        "al"
      ],
      [
        "Ġc",
        "o"
      ],
      [
        "Ġ",
        "en"
      ],
      [
        "a",
        "se"
      ],
      [
        "Ġp",
        "l"
      ],
      [
        "Ġ",
        "ro"
      ],
      [
        "Ġ",
        "G"
      ],
      [
        "c",
        "k"
      ],
      [
        "ic",
        "e"
      ],
      [
        "f",
        "f"
      ],
      [
        "Ġp",
        "r"
      ],
      [
        "on",
        "g"
      ],
      [
        "ro",
        "w"
      ],
      [
        "n",
        "ess"
      ],
      [
        "Ġ",
        "N"
      ],
      [
        "en",
        "ce"
      ],
      [
        "Ġs",
        "m"
      ],
      [
        "le",
        "d"
      ],
      [
        "o",
        "od"
      ],
      [
        "at",
        "h"
      ],
      [
        "at",
        "ing"
      ],
      [
        "ter",
        "n"
      ],
      [
        "re",
        "e"
      ],
      [
        "Ġw",
        "or"
      ],
      [
        "s",
        "p"
      ],
      [
        "Ġ",
        "L"
      ],
      [
        "d",
        "u"
      ],
      [
        "Ġ",
        "it"
      ],
      [
        "Ġp",
        "er"
      ],
      [
        "Ġb",
        "l"
      ],
      [
        "o",
        "k"
      ],
      [
        "re",
        "ss"
      ],
      [
        "av",
        "ing"
      ],
      [
        "ak",
        "e"
      ],
      [
        "Ġ",
        "out"
      ],
      [
        "Ġc",
        "om"
      ],
      [
        "Ġh",
        "is"
      ],
      [
        "e",
        "p"
      ],
      [
        "r",
        "i"
      ],
      [
        "t",
        "o"
      ],
      [
        "Ġp",
        "o"
      ],
      [
        "Ġp",
        "la"
      ],
      [
        "s",
        "h"
      ],
      [
        "Ġh",
        "aving"
      ],
      [
        "i",
        "ous"
      ],
      [
        "Ġ",
        "R"
      ],
      [
        "ol",
        "d"
      ],
      [
        "os",
        "t"
      ],
      [
        "at",
        "ive"
      ],
      [
        "or",
        "e"
      ],
      [
        "Ġ",
        "k"
      ],
      [
        "in",
        "d"
      ],
      [
        "Ġa",
        "b"
      ],
      [
        "is",
        "m"
      ],
      [
        "il",
        "d"
      ],
      [
        "u",
        "g"
      ],
      [
        "Ġ",
        "up"
      ],
      [
        "el",
        "l"
      ],
      [
        "Ġ",
        "W"
      ],
      [
        "Ġg",
        "r"
      ],
      [
        "ac",
        "h"
      ],
      [
        "re",
        "d"
      ],
      [
        "Ġ",
        "used"
      ],
      [
        "Ġs",
        "c"
      ],
      [
        "'",
        "s"
      ],
      [
        "Ġa",
        "re"
      ],
      [
        "or",
        "y"
      ],
      [
        "Ġm",
        "e"
      ],
      [
        "i",
        "ly"
      ],
      [
        "y",
        "s"
      ],
      [
        "Ġ",
        "qu"
      ],
      [
        "or",
        "n"
      ],
      [
        "it",
        "ion"
      ],
      [
        "o",
        "se"
      ],
      [
        "t",
        "ain"
      ],
      [
        "or",
        "d"
      ],
      [
        "l",
        "and"
      ],
      [
        "Ġa",
        "p"
      ],
      [
        "Ġm",
        "an"
      ],
      [
        "Ġb",
        "o"
      ],
      [
        "ial",
        "ly"
      ],
      [
        "Ġ",
        "The"
      ],
      [
        "Ġof",
        "f"
      ],
      [
        "Ġc",
        "l"
      ],
      [
        "Ġn",
        "ot"
      ],
      [
        "id",
        "ae"
      ],
      [
        "ig",
        "n"
      ],
      [
        "Ġ",
        "D"
      ],
      [
        "Ġ",
        "F"
      ],
      [
        "ate",
        "s"
      ],
      [
        "b",
        "er"
      ],
      [
        "i",
        "e"
      ],
      [
        "u",
        "e"
      ],
      [
        "ic",
        "k"
      ],
      [
        "g",
        "h"
      ],
      [
        "i",
        "um"
      ],
      [
        "w",
        "e"
      ],
      [
        "Ġ",
        "U"
      ],
      [
        "Ġad",
        "verb"
      ],
      [
        "t",
        "ion"
      ],
      [
        "ou",
        "gh"
      ],
      [
        "pe",
        "d"
      ],
      [
        "Ġc",
        "omp"
      ],
      [
        "ic",
        "h"
      ],
      [
        "in",
        "t"
      ],
      [
        "ar",
        "k"
      ],
      [
        "Ġc",
        "ol"
      ],
      [
        "Ġh",
        "er"
      ],
      [
        "mer",
        "ic"
      ],
      [
        "le",
        "ss"
      ],
      [
        "n",
        "er"
      ],
      [
        "Ġw",
        "e"
      ],
      [
        "r",
        "it"
      ],
      [
        "Ġa",
        "ct"
      ],
      [
        "oc",
        "k"
      ],
      [
        "a",
        "ir"
      ],
      [
        "l",
        "d"
      ],
      [
        "Ġfor",
        "m"
      ],
      [
        "is",
        "e"
      ],
      [
        "a",
        "il"
      ],
      [
        "i",
        "le"
      ],
      [
        "te",
        "m"
      ],
      [
        "ĠA",
        "meric"
      ],
      [
        "ers",
        "on"
      ],
      [
        "Ġc",
        "ar"
      ],
      [
        "ul",
        "ar"
      ],
      [
        "p",
        "l"
      ],
      [
        "th",
        "ing"
      ],
      [
        "a",
        "w"
      ],
      [
        "l",
        "l"
      ],
      [
        "Ġp",
        "e"
      ],
      [
        "Ġsm",
        "all"
      ],
      [
        "Ġon",
        "e"
      ],
      [
        "Ġ",
        "J"
      ],
      [
        "he",
        "s"
      ],
      [
        "Ġr",
        "ec"
      ],
      [
        "ĠS",
        "t"
      ],
      [
        "iz",
        "ed"
      ],
      [
        "r",
        "ing"
      ],
      [
        "ol",
        "og"
      ],
      [
        "b",
        "l"
      ],
      [
        "Ġin",
        "to"
      ],
      [
        "i",
        "ver"
      ],
      [
        "u",
        "c"
      ],
      [
        "Ġp",
        "erson"
      ],
      [
        "f",
        "ul"
      ],
      [
        "is",
        "s"
      ],
      [
        "Ġs",
        "up"
      ],
      [
        "Ġcon",
        "s"
      ],
      [
        "Ġs",
        "ub"
      ],
      [
        "Ġa",
        "g"
      ],
      [
        "Ġp",
        "h"
      ],
      [
        "Ġc",
        "an"
      ],
      [
        "Ġan",
        "y"
      ],
      [
        "es",
        "p"
      ],
      [
        "ac",
        "ter"
      ],
      [
        "f",
        "er"
      ],
      [
        "or",
        "th"
      ],
      [
        "Ġe",
        "l"
      ],
      [
        "op",
        "h"
      ],
      [
        "Ġd",
        "ec"
      ],
      [
        "ad",
        "e"
      ],
      [
        "Ġm",
        "o"
      ],
      [
        "ra",
        "m"
      ],
      [
        "ĠC",
        "h"
      ],
      [
        "ro",
        "p"
      ],
      [
        "Ġch",
        "ar"
      ],
      [
        "ow",
        "n"
      ],
      [
        "ite",
        "d"
      ],
      [
        "he",
        "d"
      ],
      [
        "ical",
        "ly"
      ],
      [
        "i",
        "ke"
      ],
      [
        "c",
        "l"
      ],
      [
        "ar",
        "e"
      ],
      [
        "b",
        "le"
      ],
      [
        "b",
        "o"
      ],
      [
        "Ġf",
        "lo"
      ],
      [
        "Ġg",
        "re"
      ],
      [
        "a",
        "ve"
      ],
      [
        "o",
        "b"
      ],
      [
        "ar",
        "s"
      ],
      [
        "a",
        "le"
      ],
      [
        "c",
        "on"
      ],
      [
        "Ġ",
        "1"
      ],
      [
        "ec",
        "ially"
      ],
      [
        "ib",
        "le"
      ],
      [
        "Ġim",
        "p"
      ],
      [
        "Ġf",
        "am"
      ],
      [
        "Ġn",
        "o"
      ],
      [
        "Ġo",
        "ver"
      ],
      [
        "Ġsome",
        "thing"
      ],
      [
        "esp",
        "ecially"
      ],
      [
        "m",
        "an"
      ],
      [
        "r",
        "al"
      ],
      [
        "ul",
        "t"
      ],
      [
        "ef",
        "f"
      ],
      [
        "Ġt",
        "ra"
      ],
      [
        "Ġsp",
        "ec"
      ],
      [
        "ual",
        "ly"
      ],
      [
        "c",
        "y"
      ],
      [
        "Ġ",
        "O"
      ],
      [
        "ar",
        "m"
      ],
      [
        "Ġin",
        "f"
      ],
      [
        "Ġl",
        "o"
      ],
      [
        "od",
        "y"
      ],
      [
        "iz",
        "e"
      ],
      [
        "Ġt",
        "r"
      ],
      [
        "l",
        "ic"
      ],
      [
        "am",
        "e"
      ],
      [
        "Ġbe",
        "ing"
      ],
      [
        "at",
        "ic"
      ],
      [
        "ou",
        "th"
      ],
      [
        "an",
        "e"
      ],
      [
        "Ġcom",
        "m"
      ],
      [
        "if",
        "ic"
      ],
      [
        "Ġin",
        "d"
      ],
      [
        "Ġwh",
        "ich"
      ],
      [
        "ĠU",
        "n"
      ],
      [
        "Ġfam",
        "ily"
      ],
      [
        "Ġn",
        "e"
      ],
      [
        "Ġex",
        "p"
      ],
      [
        "Ġ",
        "V"
      ],
      [
        "in",
        "k"
      ],
      [
        "er",
        "v"
      ],
      [
        "i",
        "ent"
      ],
      [
        "p",
        "r"
      ],
      [
        "Ġl",
        "ar"
      ],
      [
        "Ġpl",
        "ant"
      ],
      [
        "ĠUn",
        "ited"
      ],
      [
        "t",
        "s"
      ],
      [
        "t",
        "ic"
      ],
      [
        "Ġf",
        "e"
      ],
      [
        "c",
        "o"
      ],
      [
        "i",
        "or"
      ],
      [
        "w",
        "ard"
      ],
      [
        "Ġ",
        "ve"
      ],
      [
        "Ġf",
        "l"
      ],
      [
        "Ġcon",
        "t"
      ],
      [
        "i",
        "re"
      ],
      [
        "s",
        "tem"
      ],
      [
        "Ġs",
        "ur"
      ],
      [
        "Ġt",
        "w"
      ],
      [
        "Ġchar",
        "acter"
      ],
      [
        "Ġs",
        "he"
      ],
      [
        "Ġg",
        "o"
      ],
      [
        "ti",
        "v"
      ],
      [
        "g",
        "an"
      ],
      [
        "Ġc",
        "a"
      ],
      [
        "r",
        "en"
      ],
      [
        "Ġs",
        "k"
      ],
      [
        "Ġp",
        "ol"
      ],
      [
        "ti",
        "m"
      ],
      [
        "ĠSt",
        "ates"
      ],
      [
        "t",
        "ing"
      ],
      [
        "Ġa",
        "m"
      ],
      [
        "ra",
        "ct"
      ],
      [
        "i",
        "ed"
      ],
      [
        "er",
        "n"
      ],
      [
        "Ġc",
        "lo"
      ],
      [
        "Ġrel",
        "ating"
      ],
      [
        "en",
        "s"
      ],
      [
        "Ġre",
        "g"
      ],
      [
        "o",
        "ol"
      ],
      [
        "u",
        "ff"
      ],
      [
        "Ġsy",
        "stem"
      ],
      [
        "Ġw",
        "ater"
      ],
      [
        "Ġac",
        "c"
      ],
      [
        "a",
        "f"
      ],
      [
        "e",
        "x"
      ],
      [
        "p",
        "ar"
      ],
      [
        "p",
        "ro"
      ],
      [
        "Ġc",
        "ap"
      ],
      [
        "Ġin",
        "c"
      ],
      [
        "Ġm",
        "us"
      ],
      [
        "at",
        "or"
      ],
      [
        "il",
        "ity"
      ],
      [
        "ur",
        "n"
      ],
      [
        "Ġwor",
        "k"
      ],
      [
        "r",
        "on"
      ],
      [
        "Ġ",
        "us"
      ],
      [
        "Ġp",
        "re"
      ],
      [
        "Ġp",
        "os"
      ],
      [
        "el",
        "low"
      ],
      [
        "Ġ",
        "eff"
      ],
      [
        "oun",
        "t"
      ],
      [
        "ist",
        "ic"
      ],
      [
        "ran",
        "s"
      ],
      [
        "p",
        "t"
      ],
      [
        "p",
        "le"
      ],
      [
        "Ġp",
        "ar"
      ],
      [
        "Ġt",
        "re"
      ],
      [
        "ac",
        "t"
      ],
      [
        "Ġal",
        "l"
      ],
      [
        "n",
        "e"
      ],
      [
        "al",
        "k"
      ],
      [
        "Ġl",
        "ong"
      ],
      [
        "id",
        "ent"
      ],
      [
        "Ġflo",
        "wer"
      ],
      [
        "he",
        "m"
      ],
      [
        "ine",
        "d"
      ],
      [
        "Ġb",
        "re"
      ],
      [
        "Ġd",
        "es"
      ],
      [
        "ion",
        "al"
      ],
      [
        "Ġtw",
        "o"
      ],
      [
        "a",
        "x"
      ],
      [
        "d",
        "s"
      ],
      [
        "s",
        "c"
      ],
      [
        "ou",
        "se"
      ],
      [
        "Ġin",
        "ter"
      ],
      [
        "ion",
        "s"
      ],
      [
        "ve",
        "l"
      ],
      [
        "Ġe",
        "m"
      ],
      [
        "Ġwh",
        "ite"
      ],
      [
        "y",
        "l"
      ],
      [
        "in",
        "al"
      ],
      [
        "Ġw",
        "ere"
      ],
      [
        "Ġe",
        "v"
      ],
      [
        "ath",
        "er"
      ],
      [
        "Ġpla",
        "y"
      ],
      [
        "ĠAmeric",
        "an"
      ],
      [
        "g",
        "en"
      ],
      [
        "i",
        "o"
      ],
      [
        "in",
        "s"
      ],
      [
        "Ġh",
        "as"
      ],
      [
        "Ġo",
        "b"
      ],
      [
        "row",
        "n"
      ],
      [
        "d",
        "e"
      ],
      [
        "Ġ",
        "ter"
      ],
      [
        "Ġ",
        "ver"
      ],
      [
        "at",
        "ure"
      ],
      [
        "er",
        "al"
      ],
      [
        "Ġc",
        "ur"
      ],
      [
        "ce",
        "ss"
      ],
      [
        "Ġd",
        "own"
      ],
      [
        "as",
        "h"
      ],
      [
        "ur",
        "al"
      ],
      [
        "Ġre",
        "s"
      ],
      [
        "b",
        "e"
      ],
      [
        "Ġ",
        "K"
      ],
      [
        "Ġthe",
        "y"
      ],
      [
        "Ġb",
        "ody"
      ],
      [
        "Ġd",
        "ist"
      ],
      [
        "ve",
        "d"
      ],
      [
        "Ġst",
        "ud"
      ],
      [
        "an",
        "ge"
      ],
      [
        "al",
        "s"
      ],
      [
        "re",
        "t"
      ],
      [
        "Ġm",
        "y"
      ],
      [
        "ent",
        "s"
      ],
      [
        "im",
        "e"
      ],
      [
        "Ġhe",
        "ad"
      ],
      [
        "Ġv",
        "ar"
      ],
      [
        "Ġra",
        "d"
      ],
      [
        "m",
        "o"
      ],
      [
        "t",
        "le"
      ],
      [
        "on",
        "d"
      ],
      [
        "ĠN",
        "orth"
      ],
      [
        "f",
        "orm"
      ],
      [
        "u",
        "ro"
      ],
      [
        "on",
        "s"
      ],
      [
        "Ġp",
        "res"
      ],
      [
        "Ġin",
        "s"
      ],
      [
        "se",
        "d"
      ],
      [
        "Ġm",
        "em"
      ],
      [
        "as",
        "tern"
      ],
      [
        "Ġh",
        "ad"
      ],
      [
        "ation",
        "s"
      ],
      [
        "Ġun",
        "der"
      ],
      [
        "Ġman",
        "ner"
      ],
      [
        "Ġel",
        "ect"
      ],
      [
        "Ġn",
        "ew"
      ],
      [
        "ing",
        "s"
      ],
      [
        "Ġlar",
        "ge"
      ],
      [
        "i",
        "el"
      ],
      [
        "Ġc",
        "ent"
      ],
      [
        "al",
        "ity"
      ],
      [
        "Ġb",
        "ut"
      ],
      [
        "ce",
        "d"
      ],
      [
        "Ġm",
        "ar"
      ],
      [
        "am",
        "p"
      ],
      [
        "Ġth",
        "an"
      ],
      [
        "Ġg",
        "ra"
      ],
      [
        "ir",
        "c"
      ],
      [
        "Ġsome",
        "one"
      ],
      [
        "en",
        "n"
      ],
      [
        "Ġs",
        "et"
      ],
      [
        "ine",
        "ss"
      ],
      [
        "om",
        "an"
      ],
      [
        "Ġm",
        "ake"
      ],
      [
        "Ġst",
        "ate"
      ],
      [
        "Ġr",
        "ef"
      ],
      [
        "ace",
        "ae"
      ],
      [
        "Ġbl",
        "ack"
      ],
      [
        "g",
        "r"
      ],
      [
        "g",
        "er"
      ],
      [
        "s",
        "y"
      ],
      [
        "Ġ",
        "ir"
      ],
      [
        "in",
        "a"
      ],
      [
        "ar",
        "p"
      ],
      [
        "Ġt",
        "rans"
      ],
      [
        "er",
        "m"
      ],
      [
        "Ġin",
        "v"
      ],
      [
        "Ġb",
        "u"
      ],
      [
        "Ġb",
        "et"
      ],
      [
        "Ġor",
        "gan"
      ],
      [
        "Ġe",
        "qu"
      ],
      [
        "jec",
        "t"
      ],
      [
        "a",
        "z"
      ],
      [
        "a",
        "pe"
      ],
      [
        "g",
        "l"
      ],
      [
        "t",
        "y"
      ],
      [
        "he",
        "ad"
      ],
      [
        "re",
        "g"
      ],
      [
        "Ġb",
        "lo"
      ],
      [
        "Ġm",
        "ade"
      ],
      [
        "Ġor",
        "der"
      ],
      [
        "Ġl",
        "ang"
      ],
      [
        "Ġv",
        "al"
      ],
      [
        "Ġit",
        "s"
      ],
      [
        "Ġn",
        "um"
      ],
      [
        "Ġat",
        "t"
      ],
      [
        "Ġlang",
        "u"
      ],
      [
        "Ġs",
        "l"
      ],
      [
        "an",
        "s"
      ],
      [
        "Ġthe",
        "ir"
      ],
      [
        "Ġb",
        "r"
      ],
      [
        "it",
        "s"
      ],
      [
        "Ġd",
        "ef"
      ],
      [
        "es",
        "tern"
      ],
      [
        "Ġe",
        "xt"
      ],
      [
        "un",
        "d"
      ],
      [
        "op",
        "le"
      ],
      [
        "ct",
        "ion"
      ],
      [
        "olog",
        "y"
      ],
      [
        "a",
        "ur"
      ],
      [
        "in",
        "c"
      ],
      [
        "Ġs",
        "ol"
      ],
      [
        "is",
        "c"
      ],
      [
        "Ġp",
        "ass"
      ],
      [
        "un",
        "g"
      ],
      [
        "Ġth",
        "is"
      ],
      [
        "iz",
        "ation"
      ],
      [
        "Ġo",
        "ther"
      ],
      [
        "iv",
        "ing"
      ],
      [
        "ĠE",
        "n"
      ],
      [
        "Ġab",
        "out"
      ],
      [
        "Ġflower",
        "s"
      ],
      [
        "n",
        "d"
      ],
      [
        "Ġs",
        "ec"
      ],
      [
        "Ġs",
        "ch"
      ],
      [
        "Ġt",
        "y"
      ],
      [
        "Ġt",
        "ree"
      ],
      [
        "le",
        "t"
      ],
      [
        "Ġc",
        "al"
      ],
      [
        "Ġb",
        "at"
      ],
      [
        "if",
        "e"
      ],
      [
        "ut",
        "ion"
      ],
      [
        "Ġpro",
        "du"
      ],
      [
        "ĠAmeric",
        "a"
      ],
      [
        "1",
        "9"
      ],
      [
        "en",
        "ess"
      ],
      [
        "ou",
        "p"
      ],
      [
        "art",
        "h"
      ],
      [
        "Ġb",
        "ir"
      ],
      [
        "Ġm",
        "in"
      ],
      [
        "Ġm",
        "on"
      ],
      [
        "Ġm",
        "et"
      ],
      [
        "Ġd",
        "o"
      ],
      [
        "os",
        "s"
      ],
      [
        "um",
        "an"
      ],
      [
        "og",
        "ra"
      ],
      [
        "ther",
        "n"
      ],
      [
        "i",
        "ation"
      ],
      [
        "t",
        "ra"
      ],
      [
        "Ġs",
        "o"
      ],
      [
        "ar",
        "ch"
      ],
      [
        "it",
        "al"
      ],
      [
        "Ġm",
        "ed"
      ],
      [
        "ten",
        "d"
      ],
      [
        "Ġh",
        "igh"
      ],
      [
        "Ġre",
        "p"
      ],
      [
        "Ġre",
        "sp"
      ],
      [
        "ul",
        "l"
      ],
      [
        "if",
        "y"
      ],
      [
        "e",
        "v"
      ],
      [
        "r",
        "ough"
      ],
      [
        "te",
        "s"
      ],
      [
        "ar",
        "b"
      ],
      [
        "Ġf",
        "ol"
      ],
      [
        "Ġc",
        "ell"
      ],
      [
        "re",
        "l"
      ],
      [
        "il",
        "it"
      ],
      [
        "Ġch",
        "ild"
      ],
      [
        "Ġy",
        "ou"
      ],
      [
        "Ġj",
        "o"
      ],
      [
        "Ġk",
        "n"
      ],
      [
        "c",
        "ul"
      ],
      [
        "i",
        "ter"
      ],
      [
        "u",
        "ch"
      ],
      [
        "w",
        "ay"
      ],
      [
        "Ġ",
        "`"
      ],
      [
        "en",
        "ing"
      ],
      [
        "at",
        "ory"
      ],
      [
        "Ġc",
        "or"
      ],
      [
        "Ġin",
        "st"
      ],
      [
        "se",
        "m"
      ],
      [
        "se",
        "s"
      ],
      [
        "ous",
        "ly"
      ],
      [
        "Ġy",
        "ellow"
      ],
      [
        "Ġpe",
        "ople"
      ],
      [
        "Ġcons",
        "ist"
      ],
      [
        "i",
        "qu"
      ],
      [
        "p",
        "o"
      ],
      [
        "Ġ",
        "oc"
      ],
      [
        "Ġt",
        "ime"
      ],
      [
        "Ġc",
        "re"
      ],
      [
        "Ġh",
        "ave"
      ],
      [
        "ĠA",
        "l"
      ],
      [
        "Ġco",
        "ver"
      ],
      [
        "g",
        "y"
      ],
      [
        "o",
        "v"
      ],
      [
        "s",
        "ia"
      ],
      [
        "Ġ",
        "especially"
      ],
      [
        "Ġn",
        "on"
      ],
      [
        "Ġg",
        "u"
      ],
      [
        "Ġre",
        "d"
      ],
      [
        "if",
        "t"
      ],
      [
        "ub",
        "lic"
      ],
      [
        "Ġpo",
        "int"
      ],
      [
        "1",
        "8"
      ],
      [
        "p",
        "la"
      ],
      [
        "t",
        "on"
      ],
      [
        "Ġp",
        "i"
      ],
      [
        "Ġm",
        "od"
      ],
      [
        "Ġd",
        "in"
      ],
      [
        "Ġd",
        "if"
      ],
      [
        "Ġl",
        "oc"
      ],
      [
        "Ġl",
        "ight"
      ],
      [
        "tain",
        "ing"
      ],
      [
        "we",
        "en"
      ],
      [
        "Ġbet",
        "ween"
      ],
      [
        "l",
        "ine"
      ],
      [
        "m",
        "in"
      ],
      [
        "t",
        "r"
      ],
      [
        "Ġ",
        "use"
      ],
      [
        "ar",
        "ia"
      ],
      [
        "an",
        "c"
      ],
      [
        "om",
        "ic"
      ],
      [
        "ro",
        "c"
      ],
      [
        "os",
        "aur"
      ],
      [
        "ur",
        "ing"
      ],
      [
        "ect",
        "ion"
      ],
      [
        "a",
        "i"
      ],
      [
        "a",
        "u"
      ],
      [
        "g",
        "ra"
      ],
      [
        "o",
        "ot"
      ],
      [
        "u",
        "ter"
      ],
      [
        "y",
        "e"
      ],
      [
        "Ġ",
        "end"
      ],
      [
        "Ġs",
        "im"
      ],
      [
        "Ġc",
        "ity"
      ],
      [
        "Ġin",
        "te"
      ],
      [
        "ic",
        "s"
      ],
      [
        "Ġw",
        "ind"
      ],
      [
        "Ġm",
        "ore"
      ],
      [
        "Ġg",
        "l"
      ],
      [
        "ol",
        "l"
      ],
      [
        "Ġy",
        "our"
      ],
      [
        "ĠH",
        "e"
      ],
      [
        "Ġsur",
        "f"
      ],
      [
        "Ġus",
        "ually"
      ],
      [
        "ogra",
        "ph"
      ],
      [
        "i",
        "et"
      ],
      [
        "Ġ",
        "ed"
      ],
      [
        "Ġa",
        "ss"
      ],
      [
        "Ġc",
        "r"
      ],
      [
        "re",
        "st"
      ],
      [
        "Ġr",
        "ight"
      ],
      [
        "Ġcon",
        "c"
      ],
      [
        "ak",
        "ing"
      ],
      [
        "Ġoff",
        "ic"
      ],
      [
        "c",
        "om"
      ],
      [
        "e",
        "ase"
      ],
      [
        "g",
        "ed"
      ],
      [
        "i",
        "ence"
      ],
      [
        "ofte",
        "n"
      ],
      [
        "Ġs",
        "te"
      ],
      [
        "Ġs",
        "ound"
      ],
      [
        "Ġc",
        "ra"
      ],
      [
        "ce",
        "s"
      ],
      [
        "Ġd",
        "oc"
      ],
      [
        "ap",
        "er"
      ],
      [
        "Ġpro",
        "g"
      ],
      [
        "Ġsh",
        "r"
      ],
      [
        "av",
        "es"
      ],
      [
        "ag",
        "n"
      ],
      [
        "Ġcol",
        "or"
      ],
      [
        "Ġconsist",
        "ing"
      ],
      [
        "Ġoc",
        "c"
      ],
      [
        ".",
        "."
      ],
      [
        "m",
        "ed"
      ],
      [
        "n",
        "ing"
      ],
      [
        "en",
        "cy"
      ],
      [
        "Ġp",
        "ur"
      ],
      [
        "he",
        "tic"
      ],
      [
        "Ġb",
        "el"
      ],
      [
        "Ġw",
        "ood"
      ],
      [
        "Ġw",
        "rit"
      ],
      [
        "Ġan",
        "im"
      ],
      [
        "Ġl",
        "aw"
      ],
      [
        "Ġle",
        "ad"
      ],
      [
        "ater",
        "ial"
      ],
      [
        "ĠT",
        "h"
      ],
      [
        "Ġlangu",
        "age"
      ],
      [
        "l",
        "ike"
      ],
      [
        "m",
        "e"
      ],
      [
        "o",
        "o"
      ],
      [
        "p",
        "ose"
      ],
      [
        "en",
        "se"
      ],
      [
        "Ġs",
        "n"
      ],
      [
        "Ġs",
        "w"
      ],
      [
        "er",
        "y"
      ],
      [
        "pe",
        "t"
      ],
      [
        "Ġc",
        "er"
      ],
      [
        "Ġb",
        "ec"
      ],
      [
        "Ġb",
        "as"
      ],
      [
        "Ġb",
        "ack"
      ],
      [
        "it",
        "ch"
      ],
      [
        "Ġh",
        "air"
      ],
      [
        "ation",
        "al"
      ],
      [
        "la",
        "im"
      ],
      [
        "Ġth",
        "rough"
      ],
      [
        "orm",
        "al"
      ],
      [
        "ĠI",
        "nd"
      ],
      [
        "Ġsup",
        "p"
      ],
      [
        "Ġty",
        "pe"
      ],
      [
        "g",
        "al"
      ],
      [
        "s",
        "ion"
      ],
      [
        "v",
        "ent"
      ],
      [
        "w",
        "h"
      ],
      [
        "Ġs",
        "oc"
      ],
      [
        "Ġa",
        "f"
      ],
      [
        "Ġa",
        "ir"
      ],
      [
        "ic",
        "t"
      ],
      [
        "se",
        "l"
      ],
      [
        "Ġm",
        "is"
      ],
      [
        "Ġg",
        "ood"
      ],
      [
        "ent",
        "al"
      ],
      [
        "Ġun",
        "it"
      ],
      [
        "Ġar",
        "ch"
      ],
      [
        "ru",
        "g"
      ],
      [
        "Ġgr",
        "oup"
      ],
      [
        "fer",
        "ent"
      ],
      [
        "Ġ",
        "Y"
      ],
      [
        "Ġ",
        "Z"
      ],
      [
        "Ġ",
        "ec"
      ],
      [
        "in",
        "ter"
      ],
      [
        "or",
        "k"
      ],
      [
        "at",
        "ch"
      ],
      [
        "Ġf",
        "ir"
      ],
      [
        "Ġpart",
        "ic"
      ],
      [
        "Ġc",
        "he"
      ],
      [
        "an",
        "k"
      ],
      [
        "Ġw",
        "ill"
      ],
      [
        "Ġd",
        "r"
      ],
      [
        "Ġd",
        "uring"
      ],
      [
        "Ġh",
        "o"
      ],
      [
        "Ġh",
        "y"
      ],
      [
        "Ġh",
        "and"
      ],
      [
        "Ġe",
        "le"
      ],
      [
        "Ġe",
        "ver"
      ],
      [
        "ab",
        "l"
      ],
      [
        "um",
        "p"
      ],
      [
        "ive",
        "d"
      ],
      [
        "Ġte",
        "m"
      ],
      [
        "ĠN",
        "ew"
      ],
      [
        "Ġcomm",
        "on"
      ],
      [
        "Ġeff",
        "ect"
      ],
      [
        "uro",
        "pe"
      ],
      [
        "iel",
        "d"
      ],
      [
        "d",
        "ition"
      ],
      [
        "r",
        "ib"
      ],
      [
        "ec",
        "k"
      ],
      [
        "Ġb",
        "ro"
      ],
      [
        "Ġw",
        "ild"
      ],
      [
        "Ġd",
        "ay"
      ],
      [
        "Ġh",
        "uman"
      ],
      [
        "Ġl",
        "ike"
      ],
      [
        "Ġe",
        "ar"
      ],
      [
        "un",
        "k"
      ],
      [
        "im",
        "b"
      ],
      [
        "Ġwith",
        "out"
      ],
      [
        "ĠA",
        "f"
      ],
      [
        "Ġwh",
        "en"
      ],
      [
        "ag",
        "es"
      ],
      [
        "Ġar",
        "ter"
      ],
      [
        "one",
        "y"
      ],
      [
        "Ġph",
        "ys"
      ],
      [
        "Ġ1",
        "9"
      ],
      [
        "Ġve",
        "in"
      ],
      [
        "Ġca",
        "use"
      ],
      [
        "g",
        "o"
      ],
      [
        "i",
        "ate"
      ],
      [
        "m",
        "s"
      ],
      [
        "t",
        "a"
      ],
      [
        "Ġ",
        "often"
      ],
      [
        "Ġs",
        "er"
      ],
      [
        "Ġs",
        "al"
      ],
      [
        "is",
        "ter"
      ],
      [
        "Ġf",
        "ound"
      ],
      [
        "Ġh",
        "im"
      ],
      [
        "un",
        "t"
      ],
      [
        "ĠA",
        "r"
      ],
      [
        "Ġpro",
        "v"
      ],
      [
        "Ġy",
        "e"
      ],
      [
        "Ġdis",
        "c"
      ],
      [
        "Ġcl",
        "ass"
      ],
      [
        "Ġsch",
        "ool"
      ],
      [
        "u",
        "te"
      ],
      [
        "Ġ",
        "er"
      ],
      [
        "or",
        "al"
      ],
      [
        "Ġp",
        "le"
      ],
      [
        "ar",
        "ing"
      ],
      [
        "Ġf",
        "ru"
      ],
      [
        "ce",
        "p"
      ],
      [
        "Ġm",
        "ust"
      ],
      [
        "Ġm",
        "aterial"
      ],
      [
        "Ġd",
        "el"
      ],
      [
        "us",
        "h"
      ],
      [
        "ur",
        "s"
      ],
      [
        "et",
        "ic"
      ],
      [
        "ud",
        "e"
      ],
      [
        "Ġwho",
        "se"
      ],
      [
        "Ġpla",
        "ce"
      ],
      [
        "Ġare",
        "a"
      ],
      [
        "Ġqu",
        "ality"
      ],
      [
        "Ġcol",
        "l"
      ],
      [
        "bl",
        "ing"
      ],
      [
        "bo",
        "ard"
      ],
      [
        "a",
        "id"
      ],
      [
        "u",
        "ns"
      ],
      [
        "v",
        "ing"
      ],
      [
        "w",
        "ood"
      ],
      [
        "in",
        "ation"
      ],
      [
        "Ġs",
        "ing"
      ],
      [
        "Ġs",
        "un"
      ],
      [
        "or",
        "der"
      ],
      [
        "Ġp",
        "op"
      ],
      [
        "Ġt",
        "ake"
      ],
      [
        "ec",
        "ted"
      ],
      [
        "ine",
        "s"
      ],
      [
        "Ġc",
        "irc"
      ],
      [
        "an",
        "n"
      ],
      [
        "om",
        "y"
      ],
      [
        "ol",
        "um"
      ],
      [
        "ur",
        "b"
      ],
      [
        "ul",
        "ation"
      ],
      [
        "Ġon",
        "ly"
      ],
      [
        "if",
        "ied"
      ],
      [
        "Ġle",
        "t"
      ],
      [
        "Ġle",
        "aves"
      ],
      [
        "Ġse",
        "ver"
      ],
      [
        "Ġdis",
        "ease"
      ],
      [
        "Ġgr",
        "ound"
      ],
      [
        "ific",
        "ation"
      ],
      [
        "Ġpos",
        "ition"
      ],
      [
        "Ġbu",
        "ild"
      ],
      [
        "a",
        "les"
      ],
      [
        "g",
        "re"
      ],
      [
        "i",
        "od"
      ],
      [
        "r",
        "um"
      ],
      [
        "Ġs",
        "il"
      ],
      [
        "Ġc",
        "ount"
      ],
      [
        "re",
        "ad"
      ],
      [
        "Ġd",
        "ra"
      ],
      [
        "Ġh",
        "ard"
      ],
      [
        "Ġh",
        "ouse"
      ],
      [
        "ter",
        "s"
      ],
      [
        "ol",
        "ic"
      ],
      [
        "ver",
        "n"
      ],
      [
        "op",
        "s"
      ],
      [
        "st",
        "ant"
      ],
      [
        "Ġv",
        "i"
      ],
      [
        "ap",
        "t"
      ],
      [
        "Ġpro",
        "per"
      ],
      [
        "Ġac",
        "id"
      ],
      [
        "ĠE",
        "urope"
      ],
      [
        "ri",
        "ed"
      ],
      [
        "sh",
        "ip"
      ],
      [
        "Ġgr",
        "ass"
      ],
      [
        "Ġact",
        "ion"
      ],
      [
        "Ġgre",
        "at"
      ],
      [
        "Ġpol",
        "it"
      ],
      [
        "ilit",
        "ary"
      ],
      [
        "Ġsurf",
        "ace"
      ],
      [
        "Ġshr",
        "ub"
      ],
      [
        "a",
        "ped"
      ],
      [
        "d",
        "le"
      ],
      [
        "r",
        "ong"
      ],
      [
        "Ġ",
        "ten"
      ],
      [
        "Ġs",
        "ign"
      ],
      [
        "or",
        "es"
      ],
      [
        "Ġp",
        "al"
      ],
      [
        "Ġp",
        "ress"
      ],
      [
        "Ġt",
        "ru"
      ],
      [
        "Ġc",
        "le"
      ],
      [
        "Ġb",
        "ran"
      ],
      [
        "om",
        "en"
      ],
      [
        "Ġw",
        "ar"
      ],
      [
        "Ġan",
        "n"
      ],
      [
        "ab",
        "ility"
      ],
      [
        "Ġhe",
        "m"
      ],
      [
        "ak",
        "es"
      ],
      [
        "Ġde",
        "v"
      ],
      [
        "Ġbo",
        "ok"
      ],
      [
        "Ġplant",
        "s"
      ],
      [
        "Ġcharacter",
        "istic"
      ],
      [
        "Ġgo",
        "vern"
      ],
      [
        "Ġtre",
        "es"
      ],
      [
        "Ġdes",
        "ign"
      ],
      [
        "Ġvar",
        "ious"
      ],
      [
        "Ġdif",
        "ferent"
      ],
      [
        "g",
        "es"
      ],
      [
        "o",
        "x"
      ],
      [
        "p",
        "it"
      ],
      [
        "t",
        "il"
      ],
      [
        "u",
        "it"
      ],
      [
        "Ġ",
        "-"
      ],
      [
        "Ġf",
        "il"
      ],
      [
        "ic",
        "ation"
      ],
      [
        "Ġb",
        "al"
      ],
      [
        "om",
        "b"
      ],
      [
        "ce",
        "ae"
      ],
      [
        "Ġm",
        "ark"
      ],
      [
        "Ġh",
        "old"
      ],
      [
        "Ġl",
        "and"
      ],
      [
        "Ġl",
        "iving"
      ],
      [
        "id",
        "er"
      ],
      [
        "Ġre",
        "sem"
      ],
      [
        "Ġwh",
        "ere"
      ],
      [
        "ĠS",
        "outh"
      ],
      [
        "Ġbe",
        "h"
      ],
      [
        "ress",
        "ion"
      ],
      [
        "Ġpo",
        "wer"
      ],
      [
        "olog",
        "ical"
      ],
      [
        "Ġsup",
        "er"
      ],
      [
        "Ġmo",
        "ve"
      ],
      [
        "Ġspec",
        "ial"
      ],
      [
        "Ġfol",
        "low"
      ],
      [
        "c",
        "ing"
      ],
      [
        "c",
        "tive"
      ],
      [
        "g",
        "ar"
      ],
      [
        "h",
        "y"
      ],
      [
        "i",
        "us"
      ],
      [
        "r",
        "ip"
      ],
      [
        "Ġs",
        "outh"
      ],
      [
        "Ġp",
        "ain"
      ],
      [
        "at",
        "o"
      ],
      [
        "er",
        "man"
      ],
      [
        "he",
        "astern"
      ],
      [
        "Ġm",
        "oney"
      ],
      [
        "Ġan",
        "o"
      ],
      [
        "as",
        "k"
      ],
      [
        "ra",
        "te"
      ],
      [
        "Ġl",
        "ack"
      ],
      [
        "Ġre",
        "st"
      ],
      [
        "Ġad",
        "v"
      ],
      [
        "lo",
        "c"
      ],
      [
        "Ġsh",
        "ip"
      ],
      [
        "Ġsh",
        "ort"
      ],
      [
        "Ġde",
        "p"
      ],
      [
        "Ġro",
        "ck"
      ],
      [
        "Ġcharacter",
        "ized"
      ],
      [
        "sy",
        "ch"
      ],
      [
        "gl",
        "ish"
      ],
      [
        "Ġgovern",
        "ment"
      ],
      [
        "0",
        "0"
      ],
      [
        "h",
        "o"
      ],
      [
        "p",
        "y"
      ],
      [
        "r",
        "us"
      ],
      [
        "r",
        "ial"
      ],
      [
        "r",
        "ies"
      ],
      [
        "v",
        "en"
      ],
      [
        "Ġ",
        "ke"
      ],
      [
        "is",
        "on"
      ],
      [
        "Ġp",
        "ost"
      ],
      [
        "Ġp",
        "ublic"
      ],
      [
        "at",
        "ural"
      ],
      [
        "Ġf",
        "un"
      ],
      [
        "Ġf",
        "act"
      ],
      [
        "re",
        "w"
      ],
      [
        "Ġb",
        "ef"
      ],
      [
        "Ġb",
        "ra"
      ],
      [
        "Ġb",
        "ase"
      ],
      [
        "Ġb",
        "rown"
      ],
      [
        "Ġm",
        "at"
      ],
      [
        "Ġm",
        "ost"
      ],
      [
        "as",
        "m"
      ],
      [
        "ur",
        "y"
      ],
      [
        "Ġre",
        "ad"
      ],
      [
        "am",
        "m"
      ],
      [
        "Ġcon",
        "taining"
      ],
      [
        "Ġop",
        "er"
      ],
      [
        "Ġo",
        "il"
      ],
      [
        "Ġle",
        "ss"
      ],
      [
        "Ġse",
        "a"
      ],
      [
        "res",
        "h"
      ],
      [
        "Ġaf",
        "ter"
      ],
      [
        "c",
        "he"
      ],
      [
        "c",
        "ent"
      ],
      [
        "f",
        "l"
      ],
      [
        "m",
        "it"
      ],
      [
        "r",
        "ation"
      ],
      [
        "t",
        "l"
      ],
      [
        "Ġ",
        "if"
      ],
      [
        "or",
        "ld"
      ],
      [
        "at",
        "a"
      ],
      [
        "Ġf",
        "ire"
      ],
      [
        "Ġc",
        "at"
      ],
      [
        "ing",
        "ly"
      ],
      [
        "Ġw",
        "ell"
      ],
      [
        "Ġd",
        "ir"
      ],
      [
        "Ġd",
        "rug"
      ],
      [
        "ten",
        "t"
      ],
      [
        "as",
        "ure"
      ],
      [
        "ur",
        "ch"
      ],
      [
        "Ġst",
        "ra"
      ],
      [
        "ĠS",
        "he"
      ],
      [
        "Ġex",
        "c"
      ],
      [
        "Ġac",
        "tiv"
      ],
      [
        "Ġcom",
        "b"
      ],
      [
        "air",
        "s"
      ],
      [
        "ren",
        "ch"
      ],
      [
        "Ġcent",
        "ral"
      ],
      [
        "ĠEn",
        "glish"
      ],
      [
        "Ġano",
        "ther"
      ],
      [
        "g",
        "in"
      ],
      [
        "g",
        "le"
      ],
      [
        "i",
        "x"
      ],
      [
        "s",
        "k"
      ],
      [
        "s",
        "ible"
      ],
      [
        "w",
        "ater"
      ],
      [
        "en",
        "ter"
      ],
      [
        "Ġs",
        "ide"
      ],
      [
        "Ġs",
        "we"
      ],
      [
        "ou",
        "ld"
      ],
      [
        "Ġc",
        "y"
      ],
      [
        "Ġc",
        "orn"
      ],
      [
        "re",
        "et"
      ],
      [
        "it",
        "ies"
      ],
      [
        "Ġd",
        "ry"
      ],
      [
        "Ġr",
        "u"
      ],
      [
        "st",
        "it"
      ],
      [
        "ot",
        "ion"
      ],
      [
        "ant",
        "ic"
      ],
      [
        "Ġv",
        "o"
      ],
      [
        "ĠW",
        "orld"
      ],
      [
        "Ġher",
        "b"
      ],
      [
        "Ġrec",
        "ord"
      ],
      [
        "iver",
        "s"
      ],
      [
        "oph",
        "y"
      ],
      [
        "Ġpi",
        "ec"
      ],
      [
        "a",
        "ff"
      ],
      [
        "d",
        "es"
      ],
      [
        "i",
        "ef"
      ],
      [
        "i",
        "ant"
      ],
      [
        "u",
        "ck"
      ],
      [
        "Ġ",
        "est"
      ],
      [
        "Ġ",
        "old"
      ],
      [
        "of",
        "t"
      ],
      [
        "te",
        "red"
      ],
      [
        "in",
        "ary"
      ],
      [
        "Ġs",
        "ou"
      ],
      [
        "Ġs",
        "el"
      ],
      [
        "on",
        "y"
      ],
      [
        "Ġp",
        "at"
      ],
      [
        "er",
        "ate"
      ],
      [
        "Ġf",
        "ood"
      ],
      [
        "Ġn",
        "ar"
      ],
      [
        "Ġb",
        "i"
      ],
      [
        "Ġb",
        "ar"
      ],
      [
        "Ġan",
        "ti"
      ],
      [
        "as",
        "c"
      ],
      [
        "il",
        "la"
      ],
      [
        "us",
        "ually"
      ],
      [
        "Ġe",
        "arth"
      ],
      [
        "Ġre",
        "t"
      ],
      [
        "ab",
        "ly"
      ],
      [
        "Ġcon",
        "f"
      ],
      [
        "ive",
        "ly"
      ],
      [
        "qu",
        "e"
      ],
      [
        "Ġch",
        "ange"
      ],
      [
        "Ġse",
        "x"
      ],
      [
        "ru",
        "ct"
      ],
      [
        "Ġrel",
        "ig"
      ],
      [
        "Ġte",
        "ach"
      ],
      [
        "Ġen",
        "g"
      ],
      [
        "Ġpr",
        "ec"
      ],
      [
        "iss",
        "ion"
      ],
      [
        "Ġfl",
        "at"
      ],
      [
        "Ġnum",
        "ber"
      ],
      [
        "Ġmet",
        "al"
      ],
      [
        "b",
        "all"
      ],
      [
        "e",
        "th"
      ],
      [
        "l",
        "er"
      ],
      [
        "o",
        "ver"
      ],
      [
        "p",
        "or"
      ],
      [
        "r",
        "is"
      ],
      [
        "w",
        "n"
      ],
      [
        "Ġ",
        "our"
      ],
      [
        "Ġs",
        "out"
      ],
      [
        "Ġs",
        "erv"
      ],
      [
        "Ġa",
        "ff"
      ],
      [
        "Ġp",
        "ot"
      ],
      [
        "Ġt",
        "rop"
      ],
      [
        "Ġf",
        "ree"
      ],
      [
        "le",
        "x"
      ],
      [
        "it",
        "ation"
      ],
      [
        "as",
        "ter"
      ],
      [
        "Ġg",
        "row"
      ],
      [
        "ol",
        "er"
      ],
      [
        "Ġl",
        "iqu"
      ],
      [
        "Ġcon",
        "dition"
      ],
      [
        "Ġsh",
        "ow"
      ],
      [
        "Ġle",
        "af"
      ],
      [
        "iv",
        "es"
      ],
      [
        "du",
        "ct"
      ],
      [
        "Ġper",
        "iod"
      ],
      [
        "Ġclo",
        "se"
      ],
      [
        "vel",
        "op"
      ],
      [
        "Ġcer",
        "tain"
      ],
      [
        "ĠAf",
        "ric"
      ],
      [
        "Ġye",
        "ar"
      ],
      [
        "'",
        "t"
      ],
      [
        "i",
        "er"
      ],
      [
        "l",
        "or"
      ],
      [
        "l",
        "ing"
      ],
      [
        "n",
        "am"
      ],
      [
        "p",
        "ing"
      ],
      [
        "r",
        "ec"
      ],
      [
        "Ġ",
        "z"
      ],
      [
        "te",
        "ro"
      ],
      [
        "en",
        "ed"
      ],
      [
        "Ġa",
        "way"
      ],
      [
        "Ġf",
        "er"
      ],
      [
        "Ġf",
        "ace"
      ],
      [
        "Ġthe",
        "m"
      ],
      [
        "Ġb",
        "and"
      ],
      [
        "Ġg",
        "old"
      ],
      [
        "ent",
        "ral"
      ],
      [
        "ra",
        "ble"
      ],
      [
        "Ġe",
        "p"
      ],
      [
        "Ġre",
        "mo"
      ],
      [
        "Ġpro",
        "te"
      ],
      [
        "ib",
        "ility"
      ],
      [
        "Ġse",
        "ed"
      ],
      [
        "Ġar",
        "m"
      ],
      [
        "res",
        "p"
      ],
      [
        "Ġen",
        "c"
      ],
      [
        "Ġpr",
        "of"
      ],
      [
        "Ġper",
        "form"
      ],
      [
        "land",
        "s"
      ],
      [
        "uc",
        "le"
      ],
      [
        "Ġind",
        "ust"
      ],
      [
        "Ġblo",
        "od"
      ],
      [
        "Ġloc",
        "al"
      ],
      [
        "Ġbef",
        "ore"
      ],
      [
        "a",
        "h"
      ],
      [
        "g",
        "et"
      ],
      [
        "h",
        "a"
      ],
      [
        "m",
        "on"
      ],
      [
        "o",
        "h"
      ],
      [
        "t",
        "or"
      ],
      [
        "Ġs",
        "le"
      ],
      [
        "Ġs",
        "our"
      ],
      [
        "is",
        "hes"
      ],
      [
        "or",
        "thern"
      ],
      [
        "Ġp",
        "ast"
      ],
      [
        "ec",
        "tive"
      ],
      [
        "Ġc",
        "ro"
      ],
      [
        "ic",
        "es"
      ],
      [
        "Ġb",
        "ur"
      ],
      [
        "ce",
        "pt"
      ],
      [
        "Ġm",
        "agn"
      ],
      [
        "Ġd",
        "iv"
      ],
      [
        "Ġd",
        "ark"
      ],
      [
        "Ġg",
        "as"
      ],
      [
        "Ġto",
        "ward"
      ],
      [
        "ol",
        "ate"
      ],
      [
        "ac",
        "tion"
      ],
      [
        "ate",
        "ly"
      ],
      [
        "ab",
        "or"
      ],
      [
        "Ġst",
        "ar"
      ],
      [
        "ir",
        "on"
      ],
      [
        "ot",
        "t"
      ],
      [
        "ĠA",
        "n"
      ],
      [
        "ĠA",
        "sia"
      ],
      [
        "Ġth",
        "ere"
      ],
      [
        "Ġpro",
        "p"
      ],
      [
        "Ġpro",
        "cess"
      ],
      [
        "ĠB",
        "rit"
      ],
      [
        "ath",
        "ing"
      ],
      [
        "ree",
        "k"
      ],
      [
        "ok",
        "ed"
      ],
      [
        "ress",
        "ive"
      ],
      [
        "Ġap",
        "p"
      ],
      [
        "Ġman",
        "y"
      ],
      [
        "Ġgre",
        "en"
      ],
      [
        "Ġinf",
        "l"
      ],
      [
        "Ġinf",
        "orm"
      ],
      [
        "Ġver",
        "y"
      ],
      [
        "Ġmem",
        "ber"
      ],
      [
        "Ġele",
        "ment"
      ],
      [
        "Ġarter",
        "y"
      ],
      [
        "Ġfru",
        "it"
      ],
      [
        "Ġsever",
        "al"
      ],
      [
        "Ġsou",
        "thern"
      ],
      [
        "c",
        "hed"
      ],
      [
        "t",
        "al"
      ],
      [
        "u",
        "th"
      ],
      [
        "w",
        "estern"
      ],
      [
        "Ġ",
        "uns"
      ],
      [
        "en",
        "e"
      ],
      [
        "end",
        "er"
      ],
      [
        "in",
        "ct"
      ],
      [
        "Ġs",
        "uc"
      ],
      [
        "is",
        "hed"
      ],
      [
        "or",
        "row"
      ],
      [
        "er",
        "ve"
      ],
      [
        "pe",
        "ar"
      ],
      [
        "le",
        "y"
      ],
      [
        "oun",
        "tain"
      ],
      [
        "ic",
        "ient"
      ],
      [
        "om",
        "s"
      ],
      [
        "Ġw",
        "estern"
      ],
      [
        "Ġan",
        "al"
      ],
      [
        "Ġg",
        "et"
      ],
      [
        "ent",
        "ly"
      ],
      [
        "Ġl",
        "ow"
      ],
      [
        "ti",
        "d"
      ],
      [
        "id",
        "es"
      ],
      [
        "un",
        "e"
      ],
      [
        "os",
        "is"
      ],
      [
        "op",
        "od"
      ],
      [
        "im",
        "ent"
      ],
      [
        "ul",
        "a"
      ],
      [
        "Ġr",
        "un"
      ],
      [
        "ĠC",
        "on"
      ],
      [
        "Ġj",
        "ud"
      ],
      [
        "res",
        "sed"
      ],
      [
        "Ġpl",
        "an"
      ],
      [
        "Ġro",
        "om"
      ],
      [
        "Ġbl",
        "ue"
      ],
      [
        "sh",
        "aped"
      ],
      [
        "ick",
        "et"
      ],
      [
        "Ġfe",
        "el"
      ],
      [
        "Ġca",
        "used"
      ],
      [
        "Ġmem",
        "b"
      ],
      [
        "Ġwrit",
        "ten"
      ],
      [
        "Ġsout",
        "heastern"
      ],
      [
        "e",
        "k"
      ],
      [
        "m",
        "at"
      ],
      [
        "p",
        "s"
      ],
      [
        "r",
        "at"
      ],
      [
        "r",
        "ent"
      ],
      [
        "s",
        "l"
      ],
      [
        "s",
        "is"
      ],
      [
        "z",
        "e"
      ],
      [
        "of",
        "f"
      ],
      [
        "Ġa",
        "ut"
      ],
      [
        "is",
        "ion"
      ],
      [
        "Ġp",
        "ut"
      ],
      [
        "Ġp",
        "ract"
      ],
      [
        "Ġp",
        "sych"
      ],
      [
        "Ġf",
        "at"
      ],
      [
        "pe",
        "l"
      ],
      [
        "Ġc",
        "oc"
      ],
      [
        "Ġc",
        "all"
      ],
      [
        "Ġn",
        "atural"
      ],
      [
        "re",
        "am"
      ],
      [
        "Ġw",
        "ay"
      ],
      [
        "Ġw",
        "ool"
      ],
      [
        "Ġm",
        "aking"
      ],
      [
        "Ġd",
        "am"
      ],
      [
        "Ġan",
        "g"
      ],
      [
        "Ġh",
        "or"
      ],
      [
        "il",
        "k"
      ],
      [
        "Ġto",
        "p"
      ],
      [
        "Ġl",
        "ife"
      ],
      [
        "ti",
        "g"
      ],
      [
        "Ġe",
        "astern"
      ],
      [
        "th",
        "od"
      ],
      [
        "im",
        "p"
      ],
      [
        "am",
        "b"
      ],
      [
        "Ġst",
        "and"
      ],
      [
        "ĠS",
        "e"
      ],
      [
        "ak",
        "er"
      ],
      [
        "pos",
        "ition"
      ],
      [
        "Ġex",
        "per"
      ],
      [
        "Ġse",
        "m"
      ],
      [
        "ance",
        "s"
      ],
      [
        "ric",
        "k"
      ],
      [
        "Ġco",
        "ast"
      ],
      [
        "ĠW",
        "e"
      ],
      [
        "Ġag",
        "ree"
      ],
      [
        "Ġinc",
        "re"
      ],
      [
        "Ġinv",
        "ol"
      ],
      [
        "Ġsoc",
        "ial"
      ],
      [
        "Ġbuild",
        "ing"
      ],
      [
        "Ġbran",
        "ch"
      ],
      [
        "Ġdev",
        "ice"
      ],
      [
        "Ġtrop",
        "ical"
      ],
      [
        "a",
        "ud"
      ],
      [
        "c",
        "le"
      ],
      [
        "c",
        "ol"
      ],
      [
        "d",
        "ing"
      ],
      [
        "g",
        "th"
      ],
      [
        "g",
        "est"
      ],
      [
        "n",
        "a"
      ],
      [
        "o",
        "e"
      ],
      [
        "o",
        "ch"
      ],
      [
        "t",
        "hes"
      ],
      [
        "Ġ",
        "ent"
      ],
      [
        "Ġ",
        "ident"
      ],
      [
        "en",
        "ted"
      ],
      [
        "ar",
        "et"
      ],
      [
        "Ġt",
        "urn"
      ],
      [
        "er",
        "t"
      ],
      [
        "ef",
        "ul"
      ],
      [
        "Ġc",
        "e"
      ],
      [
        "Ġc",
        "omple"
      ],
      [
        "Ġc",
        "ab"
      ],
      [
        "Ġc",
        "our"
      ],
      [
        "an",
        "a"
      ],
      [
        "Ġn",
        "ight"
      ],
      [
        "Ġn",
        "ame"
      ],
      [
        "Ġn",
        "orthern"
      ],
      [
        "Ġin",
        "h"
      ],
      [
        "re",
        "me"
      ],
      [
        "ic",
        "ate"
      ],
      [
        "Ġw",
        "oman"
      ],
      [
        "Ġm",
        "er"
      ],
      [
        "Ġto",
        "wn"
      ],
      [
        "ti",
        "f"
      ],
      [
        "ti",
        "es"
      ],
      [
        "Ġe",
        "y"
      ],
      [
        "Ġe",
        "ye"
      ],
      [
        "Ġhe",
        "art"
      ],
      [
        "Ġde",
        "ter"
      ],
      [
        "Ġde",
        "velop"
      ],
      [
        "Ġex",
        "pl"
      ],
      [
        "Ġar",
        "ound"
      ],
      [
        "ran",
        "e"
      ],
      [
        "Ġen",
        "ter"
      ],
      [
        "ĠG",
        "erman"
      ],
      [
        "Ġpr",
        "im"
      ],
      [
        "Ġwor",
        "n"
      ],
      [
        "ok",
        "en"
      ],
      [
        "ose",
        "d"
      ],
      [
        "ick",
        "en"
      ],
      [
        "ough",
        "t"
      ],
      [
        "ful",
        "ness"
      ],
      [
        "Ġsk",
        "in"
      ],
      [
        "enn",
        "ial"
      ],
      [
        "Ġfir",
        "st"
      ],
      [
        "Ġever",
        "y"
      ],
      [
        "Ġresem",
        "bling"
      ],
      [
        "Ġsuper",
        "ior"
      ],
      [
        "b",
        "orn"
      ],
      [
        "c",
        "ar"
      ],
      [
        "f",
        "t"
      ],
      [
        "f",
        "ect"
      ],
      [
        "f",
        "ish"
      ],
      [
        "i",
        "ated"
      ],
      [
        "o",
        "id"
      ],
      [
        "o",
        "ke"
      ],
      [
        "r",
        "or"
      ],
      [
        "r",
        "ance"
      ],
      [
        "s",
        "ian"
      ],
      [
        "u",
        "ous"
      ],
      [
        "w",
        "ork"
      ],
      [
        "in",
        "ing"
      ],
      [
        "in",
        "ated"
      ],
      [
        "is",
        "ed"
      ],
      [
        "at",
        "in"
      ],
      [
        "Ġf",
        "arm"
      ],
      [
        "Ġf",
        "ron"
      ],
      [
        "Ġf",
        "ield"
      ],
      [
        "he",
        "t"
      ],
      [
        "Ġfor",
        "mer"
      ],
      [
        "Ġb",
        "it"
      ],
      [
        "om",
        "m"
      ],
      [
        "it",
        "ting"
      ],
      [
        "it",
        "ude"
      ],
      [
        "Ġm",
        "ain"
      ],
      [
        "Ġd",
        "ia"
      ],
      [
        "Ġd",
        "og"
      ],
      [
        "ten",
        "tion"
      ],
      [
        "ro",
        "l"
      ],
      [
        "Ġh",
        "ome"
      ],
      [
        "Ġg",
        "ar"
      ],
      [
        "Ġg",
        "ive"
      ],
      [
        "ra",
        "y"
      ],
      [
        "Ġl",
        "it"
      ],
      [
        "id",
        "s"
      ],
      [
        "ia",
        "ceae"
      ],
      [
        "Ġch",
        "oc"
      ],
      [
        "Ġth",
        "in"
      ],
      [
        "Ġde",
        "al"
      ],
      [
        "ric",
        "h"
      ],
      [
        "ĠP",
        "h"
      ],
      [
        "Ġte",
        "st"
      ],
      [
        "ys",
        "is"
      ],
      [
        "Ġcomp",
        "os"
      ],
      [
        "co",
        "h"
      ],
      [
        "Ġreg",
        "ion"
      ],
      [
        "Ġcap",
        "able"
      ],
      [
        "Ġtre",
        "at"
      ],
      [
        "Ġir",
        "on"
      ],
      [
        "ĠEn",
        "g"
      ],
      [
        "tend",
        "ed"
      ],
      [
        "Ġprog",
        "ram"
      ],
      [
        "Ġactiv",
        "ity"
      ],
      [
        "Ġest",
        "abl"
      ],
      [
        "ĠBrit",
        "ish"
      ],
      [
        "1",
        "7"
      ],
      [
        "a",
        "ul"
      ],
      [
        "b",
        "el"
      ],
      [
        "c",
        "hes"
      ],
      [
        "i",
        "able"
      ],
      [
        "j",
        "o"
      ],
      [
        "m",
        "ic"
      ],
      [
        "m",
        "ost"
      ],
      [
        "v",
        "al"
      ],
      [
        "y",
        "le"
      ],
      [
        "z",
        "y"
      ],
      [
        "Ġ",
        "es"
      ],
      [
        "in",
        "ted"
      ],
      [
        "Ġs",
        "ame"
      ],
      [
        "Ġs",
        "oft"
      ],
      [
        "on",
        "t"
      ],
      [
        "er",
        "a"
      ],
      [
        "ec",
        "u"
      ],
      [
        "Ġf",
        "oot"
      ],
      [
        "Ġc",
        "enter"
      ],
      [
        "ech",
        "an"
      ],
      [
        "al",
        "ly"
      ],
      [
        "Ġn",
        "ative"
      ],
      [
        "Ġn",
        "ormal"
      ],
      [
        "Ġin",
        "t"
      ],
      [
        "re",
        "te"
      ],
      [
        "Ġb",
        "ab"
      ],
      [
        "Ġb",
        "all"
      ],
      [
        "Ġd",
        "u"
      ],
      [
        "Ġd",
        "ig"
      ],
      [
        "Ġd",
        "et"
      ],
      [
        "Ġan",
        "est"
      ],
      [
        "as",
        "p"
      ],
      [
        "ly",
        "ing"
      ],
      [
        "Ġg",
        "ame"
      ],
      [
        "Ġre",
        "m"
      ],
      [
        "Ġad",
        "j"
      ],
      [
        "ir",
        "d"
      ],
      [
        "um",
        "b"
      ],
      [
        "ĠS",
        "h"
      ],
      [
        "if",
        "orn"
      ],
      [
        "la",
        "p"
      ],
      [
        "Ġch",
        "ief"
      ],
      [
        "Ġth",
        "ings"
      ],
      [
        "Ġbe",
        "en"
      ],
      [
        "ap",
        "p"
      ],
      [
        "Ġop",
        "en"
      ],
      [
        "ure",
        "s"
      ],
      [
[...]
